{
  "version": "1.0",
  "truncation": null,
  "padding": null,
  "added_tokens": [
    {
      "id": 0,
      "content": "<|endoftext|>",
      "single_word": false,
      "lstrip": false,
      "rstrip": false,
      "normalized": false,
      "special": true
    }
  ],
  "normalizer": null,
  "pre_tokenizer": {
    "type": "ByteLevel",
    "add_prefix_space": false,
    "trim_offsets": true,
    "use_regex": true
  },
  "post_processor": null,
  "decoder": {
    "type": "ByteLevel",
    "add_prefix_space": true,
    "trim_offsets": true,
    "use_regex": true
  },
  "model": {
    "type": "BPE",
    "dropout": null,
    "unk_token": null,
    "continuing_subword_prefix": null,
    "end_of_word_suffix": null,
    "fuse_unk": false,
    "byte_fallback": false,
    "ignore_merges": false,
    "vocab": {
      "<|endoftext|>": 0,
      "!": 1,
      "\"": 2,
      "#": 3,
      "$": 4,
      "%": 5,
      "&": 6,
      "'": 7,
      "(": 8,
      ")": 9,
      "*": 10,
      "+": 11,
      ",": 12,
      "-": 13,
      ".": 14,
      "/": 15,
      "0": 16,
      "1": 17,
      "2": 18,
      "3": 19,
      "4": 20,
      "5": 21,
      "6": 22,
      "7": 23,
      "8": 24,
      "9": 25,
      ":": 26,
      ";": 27,
      "<": 28,
      "=": 29,
      ">": 30,
      "?": 31,
      "@": 32,
      "A": 33,
      "B": 34,
      "C": 35,
      "D": 36,
      "E": 37,
      "F": 38,
      "G": 39,
      "H": 40,
      "I": 41,
      "J": 42,
      "K": 43,
      "L": 44,
      "M": 45,
      "N": 46,
      "O": 47,
      "P": 48,
      "Q": 49,
      "R": 50,
      "S": 51,
      "T": 52,
      "U": 53,
      "V": 54,
      "W": 55,
      "X": 56,
      "Y": 57,
      "Z": 58,
      "[": 59,
      "\\": 60,
      "]": 61,
      "^": 62,
      "_": 63,
      "`": 64,
      "a": 65,
      "b": 66,
      "c": 67,
      "d": 68,
      "e": 69,
      "f": 70,
      "g": 71,
      "h": 72,
      "i": 73,
      "j": 74,
      "k": 75,
      "l": 76,
      "m": 77,
      "n": 78,
      "o": 79,
      "p": 80,
      "q": 81,
      "r": 82,
      "s": 83,
      "t": 84,
      "u": 85,
      "v": 86,
      "w": 87,
      "x": 88,
      "y": 89,
      "z": 90,
      "{": 91,
      "|": 92,
      "}": 93,
      "~": 94,
      "¡": 95,
      "¢": 96,
      "£": 97,
      "¤": 98,
      "¥": 99,
      "¦": 100,
      "§": 101,
      "¨": 102,
      "©": 103,
      "ª": 104,
      "«": 105,
      "¬": 106,
      "®": 107,
      "¯": 108,
      "°": 109,
      "±": 110,
      "²": 111,
      "³": 112,
      "´": 113,
      "µ": 114,
      "¶": 115,
      "·": 116,
      "¸": 117,
      "¹": 118,
      "º": 119,
      "»": 120,
      "¼": 121,
      "½": 122,
      "¾": 123,
      "¿": 124,
      "À": 125,
      "Á": 126,
      "Â": 127,
      "Ã": 128,
      "Ä": 129,
      "Å": 130,
      "Æ": 131,
      "Ç": 132,
      "È": 133,
      "É": 134,
      "Ê": 135,
      "Ë": 136,
      "Ì": 137,
      "Í": 138,
      "Î": 139,
      "Ï": 140,
      "Ð": 141,
      "Ñ": 142,
      "Ò": 143,
      "Ó": 144,
      "Ô": 145,
      "Õ": 146,
      "Ö": 147,
      "×": 148,
      "Ø": 149,
      "Ù": 150,
      "Ú": 151,
      "Û": 152,
      "Ü": 153,
      "Ý": 154,
      "Þ": 155,
      "ß": 156,
      "à": 157,
      "á": 158,
      "â": 159,
      "ã": 160,
      "ä": 161,
      "å": 162,
      "æ": 163,
      "ç": 164,
      "è": 165,
      "é": 166,
      "ê": 167,
      "ë": 168,
      "ì": 169,
      "í": 170,
      "î": 171,
      "ï": 172,
      "ð": 173,
      "ñ": 174,
      "ò": 175,
      "ó": 176,
      "ô": 177,
      "õ": 178,
      "ö": 179,
      "÷": 180,
      "ø": 181,
      "ù": 182,
      "ú": 183,
      "û": 184,
      "ü": 185,
      "ý": 186,
      "þ": 187,
      "ÿ": 188,
      "Ā": 189,
      "ā": 190,
      "Ă": 191,
      "ă": 192,
      "Ą": 193,
      "ą": 194,
      "Ć": 195,
      "ć": 196,
      "Ĉ": 197,
      "ĉ": 198,
      "Ċ": 199,
      "ċ": 200,
      "Č": 201,
      "č": 202,
      "Ď": 203,
      "ď": 204,
      "Đ": 205,
      "đ": 206,
      "Ē": 207,
      "ē": 208,
      "Ĕ": 209,
      "ĕ": 210,
      "Ė": 211,
      "ė": 212,
      "Ę": 213,
      "ę": 214,
      "Ě": 215,
      "ě": 216,
      "Ĝ": 217,
      "ĝ": 218,
      "Ğ": 219,
      "ğ": 220,
      "Ġ": 221,
      "ġ": 222,
      "Ģ": 223,
      "ģ": 224,
      "Ĥ": 225,
      "ĥ": 226,
      "Ħ": 227,
      "ħ": 228,
      "Ĩ": 229,
      "ĩ": 230,
      "Ī": 231,
      "ī": 232,
      "Ĭ": 233,
      "ĭ": 234,
      "Į": 235,
      "į": 236,
      "İ": 237,
      "ı": 238,
      "Ĳ": 239,
      "ĳ": 240,
      "Ĵ": 241,
      "ĵ": 242,
      "Ķ": 243,
      "ķ": 244,
      "ĸ": 245,
      "Ĺ": 246,
      "ĺ": 247,
      "Ļ": 248,
      "ļ": 249,
      "Ľ": 250,
      "ľ": 251,
      "Ŀ": 252,
      "ŀ": 253,
      "Ł": 254,
      "ł": 255,
      "Ń": 256,
      "ĠĠ": 257,
      "ĠĠĠĠ": 258,
      "ĠĠĠĠĠĠĠĠ": 259,
      "ie": 260,
      "Ġ|": 261,
      "Ġ=": 262,
      "]]": 263,
      "[[": 264,
      "st": 265,
      "ÅĤ": 266,
      "na": 267,
      "ow": 268,
      "Ġ[[": 269,
      "ia": 270,
      "Ġw": 271,
      "or": 272,
      "an": 273,
      "ar": 274,
      "at": 275,
      "ÄĻ": 276,
      "ch": 277,
      "''": 278,
      "re": 279,
      "li": 280,
      "Ġp": 281,
      "cz": 282,
      "ro": 283,
      "sk": 284,
      "er": 285,
      "Ã³": 286,
      "rz": 287,
      "ni": 288,
      "20": 289,
      "ra": 290,
      "Ġz": 291,
      "en": 292,
      "on": 293,
      "{{": 294,
      "}}": 295,
      "Ġd": 296,
      "ĠĊ": 297,
      "Äħ": 298,
      "Ġ1": 299,
      "od": 300,
      "ÅĽ": 301,
      "in": 302,
      "Ġna": 303,
      "le": 304,
      "sz": 305,
      "ĠĠĠĠĠĠĠĠĠĠĠĠĠĠĠĠ": 306,
      "ka": 307,
      "âĢ": 308,
      "Ġ(": 309,
      "Å¼": 310,
      "ĠP": 311,
      "al": 312,
      "Ġm": 313,
      "tu": 314,
      "ty": 315,
      "ol": 316,
      "eg": 317,
      "ref": 318,
      "dz": 319,
      "Ġs": 320,
      "Ġk": 321,
      "ce": 322,
      "mi": 323,
      "ne": 324,
      "ĠS": 325,
      "op": 326,
      "Ġ20": 327,
      "la": 328,
      "ci": 329,
      "Ġi": 330,
      "ki": 331,
      "cy": 332,
      "nie": 333,
      "wa": 334,
      "ta": 335,
      "je": 336,
      "ost": 337,
      "ĠĠĠ": 338,
      "om": 339,
      "Ã³w": 340,
      "ĠW": 341,
      "ÅĤa": 342,
      "ny": 343,
      "is": 344,
      "ÅĦ": 345,
      "'''": 346,
      "ĠĠĠĠĠĠĠĠĠĠĠĠ": 347,
      "wi": 348,
      "âĢĵ": 349,
      "ski": 350,
      "ĠM": 351,
      "ja": 352,
      "ob": 353,
      "Ġ19": 354,
      "ata": 355,
      "rze": 356,
      "te": 357,
      "oÅĽ": 358,
      "ww": 359,
      "ur": 360,
      "zy": 361,
      "19": 362,
      "ht": 363,
      "Ġst": 364,
      "da": 365,
      "ĠB": 366,
      "iej": 367,
      "ĠR": 368,
      "ĠK": 369,
      "Ġg": 370,
      "Ġb": 371,
      "=\"": 372,
      "ĠA": 373,
      "os": 374,
      "rzy": 375,
      "kow": 376,
      "Ġa": 377,
      "ca": 378,
      "um": 379,
      "==": 380,
      "ĠC": 381,
      "</": 382,
      "ub": 383,
      "me": 384,
      "nia": 385,
      "ku": 386,
      "]],": 387,
      "wo": 388,
      "sp": 389,
      "ga": 390,
      "oria": 391,
      "ateg": 392,
      "fi": 393,
      "ĠâĢĵ": 394,
      "tp": 395,
      "Äĩ": 396,
      "ier": 397,
      "Ġro": 398,
      "//": 399,
      "http": 400,
      "://": 401,
      "ĠL": 402,
      "owa": 403,
      "Ġo": 404,
      "ry": 405,
      "Ġu": 406,
      "jÄĻ": 407,
      "ĠN": 408,
      "ategoria": 409,
      "ego": 410,
      "any": 411,
      "ĠT": 412,
      "ska": 413,
      "Kategoria": 414,
      "Ġza": 415,
      "Ġwy": 416,
      ")|": 417,
      "ko": 418,
      "ud": 419,
      "data": 420,
      "Ġ''": 421,
      "ej": 422,
      "Ġt": 423,
      "iÄĻ": 424,
      "as": 425,
      "og": 426,
      "owy": 427,
      "ĠG": 428,
      "ĠD": 429,
      "Ġ{{": 430,
      "ĠO": 431,
      "tuÅĤ": 432,
      "de": 433,
      "cie": 434,
      "un": 435,
      "tytuÅĤ": 436,
      "ÄĻp": 437,
      "ut": 438,
      "go": 439,
      "ma": 440,
      "Ġpo": 441,
      "skie": 442,
      "ist": 443,
      "Ġ==": 444,
      "el": 445,
      "Ġdo": 446,
      "Ġ201": 447,
      "iejs": 448,
      "Ġ||": 449,
      "ji": 450,
      "czy": 451,
      "ĠI": 452,
      "wy": 453,
      "ze": 454,
      "dy": 455,
      "Ġ2": 456,
      "ĠZ": 457,
      "no": 458,
      "cja": 459,
      "Ġl": 460,
      "ent": 461,
      ">{{": 462,
      "ru": 463,
      "www": 464,
      "201": 465,
      "Ġname": 466,
      "jÄħ": 467,
      "Ġje": 468,
      "tuj": 469,
      "il": 470,
      "wie": 471,
      "Ġin": 472,
      "com": 473,
      "ĠĠĠĠĠĠĠĠĠĠĠĠĠĠĠĠĠĠĠĠ": 474,
      "ĠF": 475,
      "}}</": 476,
      "pa": 477,
      "oÅĽci": 478,
      "ĠH": 479,
      "00": 480,
      "ok": 481,
      "am": 482,
      "]].": 483,
      "ek": 484,
      "us": 485,
      "|-": 486,
      "ed": 487,
      "oÅĽÄĩ": 488,
      "ÅĤo": 489,
      "sta": 490,
      "Ġprze": 491,
      "et": 492,
      "ĠJ": 493,
      "za": 494,
      "ubli": 495,
      "ÄĻpu": 496,
      "ĠÅĽ": 497,
      "ran": 498,
      "pl": 499,
      "ck": 500,
      "/>": 501,
      "ot": 502,
      "cji": 503,
      "chi": 504,
      "ba": 505,
      "em": 506,
      "url": 507,
      "lig": 508,
      "Ã³ÅĤ": 509,
      "Ġdost": 510,
      "si": 511,
      "Ġhttp": 512,
      "ĠdostÄĻpu": 513,
      "all": 514,
      "enia": 515,
      "jÄĻzy": 516,
      "ory": 517,
      "pi": 518,
      "ÅĤy": 519,
      "owie": 520,
      "br": 521,
      "ĠE": 522,
      "po": 523,
      "Ġ/>": 524,
      "es": 525,
      "ĠsiÄĻ": 526,
      "Ġod": 527,
      "ĠĠĠĠĠĠĠĠĠĠĠ": 528,
      "ĠÅ": 529,
      "laga": 530,
      "rÃ³": 531,
      "Ġ200": 532,
      "Ġroku": 533,
      "nik": 534,
      "ron": 535,
      "sy": 536,
      "rodz": 537,
      "Cy": 538,
      "Ġli": 539,
      "org": 540,
      "Ġ3": 541,
      "cyj": 542,
      "jÄĻzyk": 543,
      "Å¼y": 544,
      "odz": 545,
      "cia": 546,
      "ĠĠĠĠĠĠĠĠĠ": 547,
      "ona": 548,
      "lign": 549,
      "Ġcz": 550,
      "gi": 551,
      "iejsce": 552,
      "Cytuj": 553,
      "ox": 554,
      "sko": 555,
      "kowany": 556,
      "||": 557,
      "wia": 558,
      "ri": 559,
      "ul": 560,
      "ĠU": 561,
      "zwa": 562,
      "iel": 563,
      "Ġre": 564,
      "bi": 565,
      "opubli": 566,
      "and": 567,
      "th": 568,
      "200": 569,
      "Ġ202": 570,
      "pis": 571,
      "stwo": 572,
      "opublikowany": 573,
      "aty": 574,
      "Ġinf": 575,
      "ÅĤu": 576,
      "sza": 577,
      "ti": 578,
      "ĠĠĠĠĠĠĠĠĠĠ": 579,
      "]]<": 580,
      "ak": 581,
      "we": 582,
      "szy": 583,
      "Ġpod": 584,
      "nej": 585,
      "owan": 586,
      "sty": 587,
      "ad": 588,
      "sm": 589,
      "archi": 590,
      "opis": 591,
      "ĠĠĠĠĠĠĠĠĠĠĠĠĠ": 592,
      "nych": 593,
      "obox": 594,
      "Ġinfobox": 595,
      "ons": 596,
      "wÃ³": 597,
      "stra": 598,
      "mie": 599,
      "rafi": 600,
      "ĠPol": 601,
      "kar": 602,
      ">.": 603,
      "Ġf": 604,
      "ani": 605,
      "ĠĠĠĠĠĠĠĠĠĠĠĠĠĠĠ": 606,
      "aÅĤ": 607,
      "10": 608,
      "small": 609,
      "kt": 610,
      "az": 611,
      "du": 612,
      "he": 613,
      "ter": 614,
      "Ġ4": 615,
      "Ġnaz": 616,
      "skiego": 617,
      "oj": 618,
      "Ġstron": 619,
      "cze": 620,
      "owe": 621,
      "ĠstronÄĻ": 622,
      "oli": 623,
      "Ġc": 624,
      "nazwa": 625,
      "Ġhttps": 626,
      "Ġnie": 627,
      "|[[": 628,
      "11": 629,
      "ren": 630,
      "owi": 631,
      "ing": 632,
      "ĠĠĠĠĠĠĠĠĠĠĠĠĠĠ": 633,
      "Ġr": 634,
      "se": 635,
      "align": 636,
      "ĠtytuÅĤ": 637,
      "Ġjed": 638,
      "ve": 639,
      "ÅĦski": 640,
      "Ġma": 641,
      "pisy": 642,
      "id": 643,
      "ony": 644,
      "rzypisy": 645,
      "Åº": 646,
      "miÄĻ": 647,
      "ĠSt": 648,
      "Ġte": 649,
      "Ġ!": 650,
      "dzie": 651,
      "18": 652,
      "âĢŀ": 653,
      "flaga": 654,
      "âĢĿ": 655,
      "12": 656,
      "iÅĤ": 657,
      "Ġ199": 658,
      "Ġ'''": 659,
      "Ġdata": 660,
      "Ġ5": 661,
      "by": 662,
      "iem": 663,
      "ania": 664,
      "zna": 665,
      "skiej": 666,
      "Ġob": 667,
      "ort": 668,
      "Ġby": 669,
      "ara": 670,
      "Ġ-": 671,
      "iaÅĤ": 672,
      "res": 673,
      "Ġ18": 674,
      "ĠĠĠĠĠĠĠ": 675,
      "istrz": 676,
      "cki": 677,
      "aj": 678,
      "web": 679,
      "ct": 680,
      "Ġja": 681,
      "ĠâĢŀ": 682,
      "owej": 683,
      "ez": 684,
      "nost": 685,
      "stracyj": 686,
      "kÃ³w": 687,
      "wisko": 688,
      "cow": 689,
      "rok": 690,
      "mini": 691,
      "ĠĠĠĠĠĠ": 692,
      "djÄĻ": 693,
      "hi": 694,
      "Ġsz": 695,
      "ew": 696,
      "ÅĦstwo": 697,
      "to": 698,
      "py": 699,
      "II": 700,
      "Ġsp": 701,
      "\">{{": 702,
      "cent": 703,
      "miejsce": 704,
      "16": 705,
      "]]''": 706,
      "]])": 707,
      "199": 708,
      "Å¼e": 709,
      "one": 710,
      "Ġsty": 711,
      "Ġty": 712,
      "utor": 713,
      "Ġdz": 714,
      "nego": 715,
      "istrzost": 716,
      "Ġzost": 717,
      "mina": 718,
      "tÃ³": 719,
      "}}.": 720,
      "comm": 721,
      "Ð°": 722,
      "pre": 723,
      "uch": 724,
      "ĠktÃ³": 725,
      "202": 726,
      "arsza": 727,
      "Ġor": 728,
      "licz": 729,
      "Ġn": 730,
      "ĠĠĠĠĠĠĠĠĠĠĠĠĠĠĠĠĠĠĠ": 731,
      "nostka": 732,
      "ft": 733,
      "ĠĠĠĠĠĠĠĠĠĠĠĠĠĠĠĠĠĠ": 734,
      "commons": 735,
      "rÄĻ": 736,
      "ont": 737,
      "art": 738,
      "ĠÅļ": 739,
      "up": 740,
      "Ġ''[[": 741,
      "Ġad": 742,
      "Ġroz": 743,
      "ole": 744,
      "ĠV": 745,
      "sa": 746,
      "Ġpra": 747,
      "spÃ³ÅĤ": 748,
      "Ġprzez": 749,
      "ang": 750,
      "ĠRD": 751,
      "ng": 752,
      "mu": 753,
      "Ġ0": 754,
      "Ġurl": 755,
      "ĠĠĠĠĠ": 756,
      "Ġprzy": 757,
      "iejscow": 758,
      "gro": 759,
      "ÅĽci": 760,
      "ii": 761,
      "ic": 762,
      "lo": 763,
      "czny": 764,
      "17": 765,
      "uk": 766,
      "rzÄĻ": 767,
      "ery": 768,
      "30": 769,
      "ĠĠĠĠĠĠĠĠĠĠĠĠĠĠĠĠĠ": 770,
      "it": 771,
      "ĠÐ": 772,
      "aw": 773,
      "Ġde": 774,
      "min": 775,
      "anie": 776,
      "Ġh": 777,
      "Ġadmini": 778,
      "15": 779,
      "mier": 780,
      "daw": 781,
      "mo": 782,
      "Ġof": 783,
      "ers": 784,
      "istrzostwa": 785,
      "cytuj": 786,
      "ĠĠĠĠĠĠĠĠĠĠĠĠĠĠĠĠĠĠĠĠĠ": 787,
      "uro": 788,
      "center": 789,
      "ian": 790,
      "oÅĤ": 791,
      "14": 792,
      "Ġnazwisko": 793,
      "htm": 794,
      "Ġjest": 795,
      "eni": 796,
      "wÃ³dz": 797,
      "jewÃ³dz": 798,
      "\"|": 799,
      "owych": 800,
      "noÅĽci": 801,
      "col": 802,
      "gu": 803,
      "fia": 804,
      "Ġ6": 805,
      "Ġurodz": 806,
      "Ġadministracyj": 807,
      "02": 808,
      "enie": 809,
      "left": 810,
      "Ġj": 811,
      "lub": 812,
      "St": 813,
      "lik": 814,
      "Ġpro": 815,
      "Ġgrafi": 816,
      "ord": 817,
      "iat": 818,
      "niej": 819,
      "ore": 820,
      "wiki": 821,
      "era": 822,
      "ogra": 823,
      "05": 824,
      "ces": 825,
      "mat": 826,
      "Pol": 827,
      "bli": 828,
      "ph": 829,
      "war": 830,
      "03": 831,
      "paÅĦstwo": 832,
      "Ġoraz": 833,
      "ina": 834,
      "Ã©": 835,
      "04": 836,
      "ÅĤaw": 837,
      "eÅĤ": 838,
      "skich": 839,
      "odn": 840,
      "jp": 841,
      "sc": 842,
      "25": 843,
      "prez": 844,
      "Äħz": 845,
      "olog": 846,
      "liczba": 847,
      "Ġ8": 848,
      "08": 849,
      "ĠNa": 850,
      "ĠjÄĻzyk": 851,
      "Ġ198": 852,
      "13": 853,
      "Ġta": 854,
      "skim": 855,
      "Â°": 856,
      "ĠWy": 857,
      "09": 858,
      "ĠPrzypisy": 859,
      "arz": 860,
      "24": 861,
      "ion": 862,
      "01": 863,
      "rod": 864,
      "imiÄĻ": 865,
      "mpi": 866,
      "ĠÅĽmier": 867,
      "Ġgrafiki": 868,
      "**": 869,
      "my": 870,
      "ĠCh": 871,
      "ss": 872,
      "Flaga": 873,
      "Ġopublikowany": 874,
      "kod": 875,
      "https": 876,
      "07": 877,
      "dzi": 878,
      "Ġwie": 879,
      "ab": 880,
      "ach": 881,
      "Ġen": 882,
      "ĠÅĽmierci": 883,
      "jewÃ³dzt": 884,
      "Ġ9": 885,
      "atu": 886,
      "Ġjednostka": 887,
      "nika": 888,
      "enta": 889,
      "lin": 890,
      "wiata": 891,
      "jpg": 892,
      "span": 893,
      "06": 894,
      "nal": 895,
      "22": 896,
      "ge": 897,
      "nÄħ": 898,
      "Ġ[": 899,
      "Ġfi": 900,
      "jed": 901,
      "nym": 902,
      "niu": 903,
      "eren": 904,
      "sie": 905,
      "co": 906,
      "taty": 907,
      "Ġmiejsce": 908,
      "kie": 909,
      "ĠPo": 910,
      "Äħd": 911,
      "Ġpow": 912,
      "owaÅĤ": 913,
      "ĠIn": 914,
      "ÅĤad": 915,
      "siÄħ": 916,
      "jÄħcy": 917,
      "Ġ<": 918,
      "|{{": 919,
      "stÄĻp": 920,
      "ane": 921,
      "ary": 922,
      "Ġjako": 923,
      "sze": 924,
      "Plik": 925,
      "Ġurodzenia": 926,
      "eda": 927,
      "23": 928,
      "Mistrzostwa": 929,
      "Ð¾": 930,
      "ir": 931,
      "Ġ7": 932,
      "czenia": 933,
      "ĠzdjÄĻ": 934,
      "html": 935,
      "Ġok": 936,
      "Ġpol": 937,
      "owany": 938,
      "ĠWarsza": 939,
      "archive": 940,
      "scy": 941,
      "Ġe": 942,
      "erb": 943,
      "ckie": 944,
      "cza": 945,
      "Ġka": 946,
      "Ġ([[": 947,
      "ierw": 948,
      "Ġno": 949,
      "Ġadministracyjna": 950,
      "Ġ197": 951,
      ").": 952,
      "Ġzna": 953,
      "Ġze": 954,
      "im": 955,
      "wor": 956,
      "ÄĻt": 957,
      "Ġpa": 958,
      "Ġlata": 959,
      "ĠRe": 960,
      "grzy": 961,
      "Ġwoj": 962,
      "ant": 963,
      "iera": 964,
      "cu": 965,
      "ĠzdjÄĻcia": 966,
      "oc": 967,
      "Ġos": 968,
      "mar": 969,
      "row": 970,
      "ĠĠĠĠĠĠĠĠĠĠĠĠĠĠĠĠĠĠĠĠĠĠĠ": 971,
      "Ġsk": 972,
      "jÄħc": 973,
      "ĠzostaÅĤ": 974,
      "ard": 975,
      "ĠAr": 976,
      "Ð¸": 977,
      "),": 978,
      "usz": 979,
      "onie": 980,
      "Ġstyle": 981,
      "ana": 982,
      "wiz": 983,
      "raj": 984,
      "rzÄĻd": 985,
      "mia": 986,
      "Ġ17": 987,
      "bie": 988,
      "28": 989,
      "for": 990,
      "czÄħ": 991,
      "kÄĻ": 992,
      "mpij": 993,
      "ĠBi": 994,
      "ap": 995,
      "Ġra": 996,
      "Ġ194": 997,
      "Ġ/>.": 998,
      "27": 999,
      "uni": 1000,
      "wod": 1001,
      "umer": 1002,
      "lu": 1003,
      "ĠMi": 1004,
      "prezenta": 1005,
      "nd": 1006,
      "pra": 1007,
      "198": 1008,
      "ÅĤÃ³w": 1009,
      "color": 1010,
      "ag": 1011,
      "ber": 1012,
      "197": 1013,
      "Ġto": 1014,
      "czne": 1015,
      "ali": 1016,
      "Ð½": 1017,
      "limpij": 1018,
      "erw": 1019,
      "czas": 1020,
      "Ġ195": 1021,
      "px": 1022,
      "ono": 1023,
      "rony": 1024,
      "rafika": 1025,
      "ĠSz": 1026,
      "und": 1027,
      "ate": 1028,
      "oz": 1029,
      "pro": 1030,
      "kowy": 1031,
      "str": 1032,
      "referen": 1033,
      "ment": 1034,
      "pod": 1035,
      "Ġlatach": 1036,
      "Przypisy": 1037,
      "Ġ193": 1038,
      "grafika": 1039,
      "tor": 1040,
      "Ġ16": 1041,
      "29": 1042,
      "Ã³r": 1043,
      "unk": 1044,
      "ĠPolski": 1045,
      "26": 1046,
      "Ġle": 1047,
      "grzyska": 1048,
      "aÅĤa": 1049,
      "iejscowoÅĽÄĩ": 1050,
      "di": 1051,
      "FF": 1052,
      "nek": 1053,
      "ĠLi": 1054,
      "owano": 1055,
      "ff": 1056,
      "ĠEuro": 1057,
      "cÃ³w": 1058,
      "autor": 1059,
      "pe": 1060,
      "uchar": 1061,
      "sch": 1062,
      "ada": 1063,
      "Ġch": 1064,
      "Wy": 1065,
      "powie": 1066,
      "edali": 1067,
      "alt": 1068,
      "poli": 1069,
      "siÄħÅ¼": 1070,
      "sto": 1071,
      "oÅĽciÃ³ÅĤ": 1072,
      "score": 1073,
      "ginal": 1074,
      "21": 1075,
      "nict": 1076,
      "ĠMar": 1077,
      "obie": 1078,
      "owego": 1079,
      "Ðµ": 1080,
      "Al": 1081,
      "ktor": 1082,
      "ien": 1083,
      "owiat": 1084,
      "Ar": 1085,
      "ografia": 1086,
      "âĢ²": 1087,
      "rzch": 1088,
      "oby": 1089,
      "ÄĻÅ¼": 1090,
      "ill": 1091,
      "Ch": 1092,
      "OR": 1093,
      "oryginal": 1094,
      "ver": 1095,
      "owski": 1096,
      "ÑĢ": 1097,
      "red": 1098,
      "czna": 1099,
      "nienia": 1100,
      "ĠX": 1101,
      "rÃ³d": 1102,
      "Ġdru": 1103,
      "pos": 1104,
      "Ġorg": 1105,
      "ĠAl": 1106,
      "numer": 1107,
      "Ġmie": 1108,
      "Ġalign": 1109,
      "nb": 1110,
      "Ġmapy": 1111,
      "'',": 1112,
      "===": 1113,
      "jedno": 1114,
      "dawca": 1115,
      "wspÃ³ÅĤ": 1116,
      "Ã³d": 1117,
      "ĠRa": 1118,
      "ec": 1119,
      "wojewÃ³dzt": 1120,
      "owym": 1121,
      "gmina": 1122,
      "ĠĠĠĠĠĠĠĠĠĠĠĠĠĠĠĠĠĠĠĠĠĠĠĠĠ": 1123,
      "Ġlud": 1124,
      "ĠbyÅĤ": 1125,
      "pie": 1126,
      "Ġoryginal": 1127,
      "Ġal": 1128,
      "cznych": 1129,
      "Ġ15": 1130,
      "Ġaut": 1131,
      "dzy": 1132,
      "les": 1133,
      "Pa": 1134,
      "stat": 1135,
      "Ġpl": 1136,
      "Ġkier": 1137,
      "ha": 1138,
      "stwa": 1139,
      "ÅĤug": 1140,
      "noÅĽÄĩ": 1141,
      "wna": 1142,
      "ĠRze": 1143,
      "cer": 1144,
      "ĠpiÅĤ": 1145,
      "ĠÅģ": 1146,
      ")]]": 1147,
      "Mar": 1148,
      "gcolor": 1149,
      "man": 1150,
      "ontro": 1151,
      "sok": 1152,
      "vi": 1153,
      "âĢĻ": 1154,
      "wiÄĻ": 1155,
      "Ġmu": 1156,
      "ĠMa": 1157,
      "ĠNar": 1158,
      "ÅĦska": 1159,
      "wiÄħz": 1160,
      "ĠĠĠĠĠĠĠĠĠĠĠĠĠĠĠĠĠĠĠĠĠĠĠĠ": 1161,
      "rzed": 1162,
      "onal": 1163,
      "Re": 1164,
      "rud": 1165,
      "owo": 1166,
      "ĠPa": 1167,
      "ĠksiÄħÅ¼": 1168,
      "ĠLe": 1169,
      "Ġtak": 1170,
      "Ġdy": 1171,
      "Ġ/>[[": 1172,
      "bo": 1173,
      "wer": 1174,
      "Ġop": 1175,
      "gra": 1176,
      "bum": 1177,
      "ĠnoÅ¼": 1178,
      "rzÄĻdne": 1179,
      "US": 1180,
      "oni": 1181,
      "xt": 1182,
      "Ġ196": 1183,
      "ster": 1184,
      "Ġkole": 1185,
      "rani": 1186,
      "wum": 1187,
      "ĠktÃ³ry": 1188,
      "Ġautor": 1189,
      "ue": 1190,
      "nbsp": 1191,
      "mp": 1192,
      "eria": 1193,
      "ora": 1194,
      "ĠludnoÅĽci": 1195,
      "Ġpierw": 1196,
      "AT": 1197,
      "In": 1198,
      "Ġthe": 1199,
      "Li": 1200,
      "stan": 1201,
      "edalista": 1202,
      "uÅĤ": 1203,
      "cka": 1204,
      "Ñģ": 1205,
      "Ġmia": 1206,
      "ble": 1207,
      "ks": 1208,
      "zdjÄĻ": 1209,
      "=\":": 1210,
      "Ġ===": 1211,
      "Ġar": 1212,
      "Ġczas": 1213,
      "ĠÅļwiata": 1214,
      "ÅĤon": 1215,
      "au": 1216,
      "atoli": 1217,
      "kariera": 1218,
      "nicy": 1219,
      "den": 1220,
      "szcz": 1221,
      "references": 1222,
      "wspÃ³ÅĤrzÄĻdne": 1223,
      "cznej": 1224,
      "Ġklub": 1225,
      "Ġautory": 1226,
      "ontrola": 1227,
      "Ġdzie": 1228,
      "Ã¡": 1229,
      "Ġ2014": 1230,
      "Ġoryginalna": 1231,
      "Ġkon": 1232,
      "arzy": 1233,
      "Ġko": 1234,
      "tatywna": 1235,
      "Ġautorytatywna": 1236,
      "archiwum": 1237,
      "do": 1238,
      "Ġ10": 1239,
      "ig": 1240,
      "ÑĤ": 1241,
      "194": 1242,
      "ÅĤÄħ": 1243,
      "Kontrola": 1244,
      "bur": 1245,
      "stop": 1246,
      "Ġtym": 1247,
      "zdjÄĻcie": 1248,
      "ens": 1249,
      "Ġ2011": 1250,
      "Ð»": 1251,
      "sku": 1252,
      "Ġmar": 1253,
      "ĠOd": 1254,
      "Ġdla": 1255,
      "wiat": 1256,
      "ĠczÄĻ": 1257,
      "Mi": 1258,
      "kaÅĦ": 1259,
      "ĠUni": 1260,
      "Ġwi": 1261,
      "par": 1262,
      "ug": 1263,
      "Medalista": 1264,
      "cje": 1265,
      "oru": 1266,
      "ĠÅ»": 1267,
      "Po": 1268,
      "nÄĻt": 1269,
      "ral": 1270,
      "lÄħ": 1271,
      "siÄĻ": 1272,
      "sv": 1273,
      "83": 1274,
      "cj": 1275,
      "Ġnaj": 1276,
      "ÅĤoÅ¼": 1277,
      "ĠktÃ³re": 1278,
      "nica": 1279,
      "dop": 1280,
      "fa": 1281,
      "oh": 1282,
      "Ġgmin": 1283,
      "ĠimiÄĻ": 1284,
      "va": 1285,
      "dziaÅĤ": 1286,
      "2014": 1287,
      "wersy": 1288,
      "fe": 1289,
      "rzeÅĽ": 1290,
      "rowa": 1291,
      "archiwiz": 1292,
      "ĠBibli": 1293,
      "tem": 1294,
      "2013": 1295,
      "ĠIgrzyska": 1296,
      "ÄĻÅ¼czy": 1297,
      "wersyte": 1298,
      "archiwizowano": 1299,
      "Ġ\"": 1300,
      "Ġ2020": 1301,
      "Ġnazwy": 1302,
      "che": 1303,
      "ĠPro": 1304,
      "Ġjego": 1305,
      "cin": 1306,
      "nÄĻtrz": 1307,
      "Ġwz": 1308,
      "78": 1309,
      "piÅĤ": 1310,
      "rab": 1311,
      "wier": 1312,
      "orz": 1313,
      "ĠCz": 1314,
      "sce": 1315,
      "nich": 1316,
      "Ġgrud": 1317,
      "ĠOlimpij": 1318,
      "wiet": 1319,
      "odzie": 1320,
      "ano": 1321,
      "Ġlub": 1322,
      "ĠNarod": 1323,
      "towy": 1324,
      "Ġprzed": 1325,
      "iejscowoÅĽci": 1326,
      "sokoÅĽÄĩ": 1327,
      "ld": 1328,
      "rzchnia": 1329,
      "ĠksiÄħÅ¼kÄĻ": 1330,
      ".</": 1331,
      "35": 1332,
      "]]|": 1333,
      "Ġstycz": 1334,
      "TU": 1335,
      "dzia": 1336,
      "svg": 1337,
      "]]{{": 1338,
      "Ġnad": 1339,
      "ÃŃ": 1340,
      "ala": 1341,
      "ĠLin": 1342,
      "ati": 1343,
      "men": 1344,
      "Ġsam": 1345,
      "jednocz": 1346,
      "ĠBibliografia": 1347,
      "zn": 1348,
      "Ġbud": 1349,
      "rodzaj": 1350,
      "34": 1351,
      "SOR": 1352,
      "196": 1353,
      "ĠII": 1354,
      "ewnÄĻtrz": 1355,
      "der": 1356,
      "herb": 1357,
      "pol": 1358,
      "cha": 1359,
      "50": 1360,
      "staw": 1361,
      "niÄĻ": 1362,
      "Ġ2012": 1363,
      "pospoli": 1364,
      "Åļ": 1365,
      "olum": 1366,
      "Ġ2021": 1367,
      "ÄĻst": 1368,
      "kon": 1369,
      "Ġv": 1370,
      "Ã³l": 1371,
      "Ġ2017": 1372,
      "Fran": 1373,
      "Ġpop": 1374,
      "Ð²": 1375,
      "ĠwrzeÅĽ": 1376,
      "ecz": 1377,
      "Ġ14": 1378,
      "prezentacja": 1379,
      ")<": 1380,
      "mery": 1381,
      "wiÄħ": 1382,
      "rÃ³Å¼": 1383,
      "be": 1384,
      "Ðº": 1385,
      "âĢ³": 1386,
      "Ġkom": 1387,
      "Ġgrudnia": 1388,
      "54": 1389,
      "58": 1390,
      "stwie": 1391,
      "iny": 1392,
      ">(": 1393,
      "ym": 1394,
      "naczenia": 1395,
      "ĠZjednocz": 1396,
      "wojewÃ³dztwo": 1397,
      "Ġkolej": 1398,
      "36": 1399,
      "our": 1400,
      "Ġ2010": 1401,
      "ĠEuropy": 1402,
      "sh": 1403,
      "niki": 1404,
      "Äħdz": 1405,
      "pop": 1406,
      "yn": 1407,
      "cznie": 1408,
      "Ġfil": 1409,
      "nictwo": 1410,
      "39": 1411,
      "zi": 1412,
      "wysokoÅĽÄĩ": 1413,
      "lan": 1414,
      "Ġstycznia": 1415,
      "Ġstan": 1416,
      "koÅĦ": 1417,
      "Ġ2023": 1418,
      "Ġ2022": 1419,
      "publi": 1420,
      "atle": 1421,
      "tek": 1422,
      "Ġreje": 1423,
      "cjÄĻ": 1424,
      "mist": 1425,
      "iÄĻdzy": 1426,
      "2011": 1427,
      "mer": 1428,
      "powierzchnia": 1429,
      "ay": 1430,
      "ĠwÅĤa": 1431,
      "orÃ³w": 1432,
      "Ġ2013": 1433,
      "ÄĻÅ¼czyzn": 1434,
      "ĠĠĠĠĠĠĠĠĠĠĠĠĠĠĠĠĠĠĠĠĠĠĠĠĠĠĠ": 1435,
      "Ġ2015": 1436,
      "Urodz": 1437,
      "bn": 1438,
      "Ġand": 1439,
      "Ġwe": 1440,
      "dzier": 1441,
      "Polska": 1442,
      "TUJ": 1443,
      "SORTUJ": 1444,
      "est": 1445,
      "Ġzd": 1446,
      "odzi": 1447,
      "31": 1448,
      "Åºdzier": 1449,
      "RZ": 1450,
      "Ġpocz": 1451,
      "odznaczenia": 1452,
      "ologia": 1453,
      "ener": 1454,
      "Åģ": 1455,
      "ĠÅ¼": 1456,
      "text": 1457,
      "fil": 1458,
      "ine": 1459,
      "ÄĻstoÅĽÄĩ": 1460,
      "ĠÅ¼e": 1461,
      "koatle": 1462,
      "ĠWarszawa": 1463,
      ";\"": 1464,
      "oty": 1465,
      "wÃ³r": 1466,
      "oÅ¼": 1467,
      "ll": 1468,
      "Ġpowie": 1469,
      "ĠmÄĻÅ¼czyzn": 1470,
      "Ġlip": 1471,
      "Ġfunk": 1472,
      "ody": 1473,
      "owanie": 1474,
      "rÄĻg": 1475,
      "atunek": 1476,
      "bu": 1477,
      "bro": 1478,
      "land": 1479,
      "Ġnau": 1480,
      "leg": 1481,
      "sport": 1482,
      "Ġrodz": 1483,
      "cyjna": 1484,
      "Ġ2024": 1485,
      "ans": 1486,
      "ÅĽcie": 1487,
      "ĠWoj": 1488,
      "pozy": 1489,
      "ĠpaÅºdzier": 1490,
      "PAT": 1491,
      "Ġwiel": 1492,
      "Ġzal": 1493,
      "owania": 1494,
      "PATRZ": 1495,
      "Na": 1496,
      "ton": 1497,
      "ĠsÄħ": 1498,
      "ĠKra": 1499,
      "zu": 1500,
      "cznego": 1501,
      "order": 1502,
      "ÅĽÄĩ": 1503,
      "oma": 1504,
      "ĠDe": 1505,
      "ÅĤuÅ¼": 1506,
      "new": 1507,
      "Ġ/><": 1508,
      "kÄħ": 1509,
      "Ġut": 1510,
      "ĠtakÅ¼e": 1511,
      "Ġzalud": 1512,
      "='''": 1513,
      "Ġlistop": 1514,
      "DE": 1515,
      "ÅĦskiego": 1516,
      "Ġpocztowy": 1517,
      "ste": 1518,
      "ator": 1519,
      "team": 1520,
      "ryw": 1521,
      "Ġzaludnienia": 1522,
      "ov": 1523,
      "Å¼a": 1524,
      "ĠrÃ³w": 1525,
      "ĠNie": 1526,
      "Ġczerw": 1527,
      "]]}}": 1528,
      "Ġmuzy": 1529,
      "--": 1530,
      "57": 1531,
      "59": 1532,
      "wid": 1533,
      "Ġ2018": 1534,
      "Ġczy": 1535,
      "gov": 1536,
      "Ġca": 1537,
      "naz": 1538,
      "ĠĠĠĠĠĠĠĠĠĠĠĠĠĠĠĠĠĠĠĠĠĠ": 1539,
      "38": 1540,
      "Sz": 1541,
      "las": 1542,
      "ĠKo": 1543,
      "ĠFran": 1544,
      "Puchar": 1545,
      "Ġkierun": 1546,
      "Ġsier": 1547,
      "tej": 1548,
      "Ġmiesz": 1549,
      ")</": 1550,
      "ĠzewnÄĻtrz": 1551,
      "blice": 1552,
      "]]:": 1553,
      "Ġwyd": 1554,
      "Ġ2009": 1555,
      "stracyjne": 1556,
      "OL": 1557,
      "ou": 1558,
      "Ġkwiet": 1559,
      "tablice": 1560,
      "edal": 1561,
      "Ġrejestracyjne": 1562,
      "rzÄħd": 1563,
      "Ġlat": 1564,
      "bud": 1565,
      "ele": 1566,
      "opol": 1567,
      "Urodzeni": 1568,
      "Ġ2001": 1569,
      "ĠwrzeÅĽnia": 1570,
      "table": 1571,
      "ĠpiÅĤce": 1572,
      "ĠIgrzyskach": 1573,
      "port": 1574,
      "powiat": 1575,
      "czyÅĤ": 1576,
      "Ã³ÅĤno": 1577,
      "eÅĤnia": 1578,
      "Ġlipca": 1579,
      "Cz": 1580,
      "ation": 1581,
      "ram": 1582,
      "anych": 1583,
      "Ġtu": 1584,
      "Ġ(''": 1585,
      "tic": 1586,
      "37": 1587,
      "Ġbgcolor": 1588,
      "kona": 1589,
      "df": 1590,
      "}}{{": 1591,
      "56": 1592,
      "owÄħ": 1593,
      "koatlety": 1594,
      "ĠpaÅºdziernika": 1595,
      "bor": 1596,
      "ium": 1597,
      "son": 1598,
      "Ġsie": 1599,
      "Ġswo": 1600,
      "2010": 1601,
      "2016": 1602,
      "Ġwieku": 1603,
      "ckiego": 1604,
      "ĠÅĽwiata": 1605,
      "kra": 1606,
      "karze": 1607,
      "ly": 1608,
      "iece": 1609,
      "ĠMu": 1610,
      "istoria": 1611,
      "Ġmarca": 1612,
      "rowadz": 1613,
      "{|": 1614,
      "stem": 1615,
      "lasy": 1616,
      "Ġ11": 1617,
      "kom": 1618,
      "Ġ&": 1619,
      "ategory": 1620,
      "Ġ2016": 1621,
      "back": 1622,
      "onych": 1623,
      "Ġsierp": 1624,
      "gÄĻstoÅĽÄĩ": 1625,
      "kÅĤad": 1626,
      "ĠBy": 1627,
      "Le": 1628,
      "kiem": 1629,
      "Ã¶": 1630,
      "stw": 1631,
      "kowie": 1632,
      "ĠÅĽwiat": 1633,
      "dopeÅĤnia": 1634,
      "dopeÅĤniacz": 1635,
      "wski": 1636,
      "ĠzwiÄħz": 1637,
      "wydawca": 1638,
      "kade": 1639,
      "ĠKar": 1640,
      "Ġzawod": 1641,
      "mistrz": 1642,
      "IS": 1643,
      "kowa": 1644,
      "kty": 1645,
      "tom": 1646,
      "zm": 1647,
      "ÅĤow": 1648,
      "stytu": 1649,
      "karz": 1650,
      "ground": 1651,
      "Ġlistopada": 1652,
      "ĠzewnÄĻtrzne": 1653,
      ".]]": 1654,
      "gl": 1655,
      "pej": 1656,
      "Ġpar": 1657,
      "roc": 1658,
      "groma": 1659,
      "Ã³ÅĤnoc": 1660,
      "Ġ12": 1661,
      "cytaty": 1662,
      "aksy": 1663,
      "Dz": 1664,
      "qu": 1665,
      "rig": 1666,
      "ĠOlimpijskich": 1667,
      "ĠLinki": 1668,
      "Ġkwietnia": 1669,
      "TA": 1670,
      "The": 1671,
      "ast": 1672,
      "ke": 1673,
      "Ġni": 1674,
      "net": 1675,
      "oba": 1676,
      "ĠCategory": 1677,
      "ell": 1678,
      "iecez": 1679,
      "raw": 1680,
      "typ": 1681,
      "Ġim": 1682,
      "2015": 1683,
      "jÄħce": 1684,
      "Ã¼": 1685,
      "2012": 1686,
      "An": 1687,
      "Ġwid": 1688,
      "czest": 1689,
      "46": 1690,
      "tar": 1691,
      "umb": 1692,
      "40": 1693,
      "Lu": 1694,
      "ĠPar": 1695,
      "Ġot": 1696,
      "ĠteÅ¼": 1697,
      ">[": 1698,
      "mal": 1699,
      "lina": 1700,
      "lass": 1701,
      "use": 1702,
      "KoÅĽciÃ³ÅĤ": 1703,
      "ĠAn": 1704,
      "Ġbi": 1705,
      "2017": 1706,
      "Uni": 1707,
      "inter": 1708,
      "leÅ¼": 1709,
      "arafia": 1710,
      "wikicytaty": 1711,
      "=\"#": 1712,
      "48": 1713,
      "oka": 1714,
      "ĠY": 1715,
      "ath": 1716,
      "atun": 1717,
      "'')": 1718,
      "Ġ13": 1719,
      "Ġ2019": 1720,
      "Ġrok": 1721,
      "Ko": 1722,
      "ies": 1723,
      "rzeg": 1724,
      "Ġcol": 1725,
      "Or": 1726,
      "php": 1727,
      "Ġznaj": 1728,
      "background": 1729,
      "ho": 1730,
      "Ġdnia": 1731,
      "ĠczÅĤon": 1732,
      "seed": 1733,
      "ojewÃ³dzt": 1734,
      "ts": 1735,
      "Ġmet": 1736,
      "Ġkraj": 1737,
      "Ġbar": 1738,
      "Ġ2008": 1739,
      "49": 1740,
      "Ma": 1741,
      "000": 1742,
      "math": 1743,
      "chy": 1744,
      "rem": 1745,
      "roma": 1746,
      "ĠOr": 1747,
      "rÃ³w": 1748,
      "szej": 1749,
      "ĠPod": 1750,
      "ĠSo": 1751,
      "Ġkierunkowy": 1752,
      "Ġsierpnia": 1753,
      "ĠKa": 1754,
      "Ġlut": 1755,
      "atysty": 1756,
      "orska": 1757,
      "Ġsez": 1758,
      "Ġsze": 1759,
      "obiet": 1760,
      "ĠÅ»y": 1761,
      "io": 1762,
      "nad": 1763,
      "wal": 1764,
      "]]||": 1765,
      "Ġzm": 1766,
      "mes": 1767,
      "Ġmaja": 1768,
      ".,": 1769,
      "PiÅĤ": 1770,
      "ĠPolsce": 1771,
      "Ġlutego": 1772,
      "IN": 1773,
      "RE": 1774,
      "burg": 1775,
      "mii": 1776,
      "ĠWi": 1777,
      "47": 1778,
      "rona": 1779,
      "nicz": 1780,
      "fika": 1781,
      "Ġpraw": 1782,
      "Ġczerwca": 1783,
      "nazwisko": 1784,
      "ser": 1785,
      "czÄĻ": 1786,
      "Ġnazwa": 1787,
      ">,": 1788,
      "rÄħ": 1789,
      "ĠÅ¼y": 1790,
      "]]'''": 1791,
      "Ġpis": 1792,
      "szta": 1793,
      "ĠdruÅ¼y": 1794,
      "ĠnoÅ¼nej": 1795,
      "><": 1796,
      "liza": 1797,
      "Ġpom": 1798,
      "raz": 1799,
      "av": 1800,
      "pdf": 1801,
      "end": 1802,
      "mis": 1803,
      "asa": 1804,
      "Ġtyp": 1805,
      "kl": 1806,
      "prze": 1807,
      "Ġmiejs": 1808,
      "aniza": 1809,
      "schod": 1810,
      "Ok": 1811,
      "ãģ": 1812,
      "Ã³Åº": 1813,
      "zeum": 1814,
      "Ġ2025": 1815,
      "woj": 1816,
      "ĠÅĽw": 1817,
      "ckiej": 1818,
      "III": 1819,
      "zd": 1820,
      "nak": 1821,
      "ĠOb": 1822,
      "Ġjej": 1823,
      "nikÃ³w": 1824,
      "33": 1825,
      "Warsza": 1826,
      "Ġdow": 1827,
      "ĠLet": 1828,
      "narod": 1829,
      "iaÅĤa": 1830,
      "ĠnastÄĻp": 1831,
      "ĠPrze": 1832,
      "edia": 1833,
      "och": 1834,
      "nii": 1835,
      "ryty": 1836,
      "JP": 1837,
      "RA": 1838,
      "ĠMat": 1839,
      "Ġjak": 1840,
      "|}": 1841,
      "stÄħ": 1842,
      "Ġstrony": 1843,
      "thumb": 1844,
      "gatunek": 1845,
      "Ġsy": 1846,
      "ĠFor": 1847,
      "wikitable": 1848,
      "Ġpierwszy": 1849,
      "45": 1850,
      "66": 1851,
      "ball": 1852,
      "nieÅ¼": 1853,
      "ĠgÅĤÃ³w": 1854,
      "ciel": 1855,
      "Ġfor": 1856,
      "nos": 1857,
      "ĠwspÃ³ÅĤ": 1858,
      "skÄħ": 1859,
      "niczy": 1860,
      "osta": 1861,
      "ĠDy": 1862,
      "ĠpoÅĤ": 1863,
      "stÄĻpu": 1864,
      "lem": 1865,
      "ĠTe": 1866,
      "tery": 1867,
      "iot": 1868,
      "kiej": 1869,
      "lia": 1870,
      "uÅ¼": 1871,
      "orld": 1872,
      "ong": 1873,
      "ĠThe": 1874,
      "mapa": 1875,
      "Ġ/": 1876,
      "lity": 1877,
      "lica": 1878,
      "tyn": 1879,
      "opismo": 1880,
      "pozycja": 1881,
      "news": 1882,
      "anis": 1883,
      "onia": 1884,
      "kach": 1885,
      "istory": 1886,
      "ĠzostaÅĤa": 1887,
      "ĠZa": 1888,
      "ĠJa": 1889,
      "Ġnr": 1890,
      "Ġzdoby": 1891,
      "ich": 1892,
      "km": 1893,
      "zie": 1894,
      "Ġsta": 1895,
      "Ġtego": 1896,
      "tion": 1897,
      "link": 1898,
      "fo": 1899,
      "owarzy": 1900,
      "2008": 1901,
      "Ġalbum": 1902,
      "\"/>": 1903,
      "ling": 1904,
      "ene": 1905,
      "duk": 1906,
      "51": 1907,
      "sÅĤaw": 1908,
      "Ã³b": 1909,
      "ĠMo": 1910,
      "cÄħ": 1911,
      "Ġce": 1912,
      "udni": 1913,
      "ruk": 1914,
      "ultu": 1915,
      "pr": 1916,
      "ÅĦskiej": 1917,
      "Ġgru": 1918,
      "Ġpre": 1919,
      "ĠmiejscowoÅĽci": 1920,
      "Ġtra": 1921,
      "Ġ24": 1922,
      "anii": 1923,
      "iennik": 1924,
      "right": 1925,
      "EF": 1926,
      "anu": 1927,
      "Ġstud": 1928,
      "ĠBar": 1929,
      "kowej": 1930,
      "ami": 1931,
      "ria": 1932,
      "Å»": 1933,
      "2020": 1934,
      "onu": 1935,
      "des": 1936,
      "2018": 1937,
      "Ġarty": 1938,
      "80": 1939,
      "Ã¤": 1940,
      "Ġpos": 1941,
      "roz": 1942,
      "Ġ2026": 1943,
      "ÅĦskim": 1944,
      "Â²": 1945,
      "ĠLud": 1946,
      "ista": 1947,
      "rÃ³t": 1948,
      "gromada": 1949,
      "90": 1950,
      "fr": 1951,
      "ÅĤowa": 1952,
      "wyci": 1953,
      "2006": 1954,
      "2021": 1955,
      "cc": 1956,
      "arn": 1957,
      "ÄĻd": 1958,
      "let": 1959,
      "2007": 1960,
      "2019": 1961,
      "nag": 1962,
      "rom": 1963,
      "ert": 1964,
      "Ġjuni": 1965,
      "ĠZjednoczone": 1966,
      "wat": 1967,
      "rot": 1968,
      "rener": 1969,
      "aksymi": 1970,
      "Ã³Åºniej": 1971,
      "ĠÅĤa": 1972,
      "Ġkm": 1973,
      "rowin": 1974,
      "Ġutwor": 1975,
      "99": 1976,
      "yj": 1977,
      "ãĥ": 1978,
      "Ġmi": 1979,
      "Ġolimpij": 1980,
      "ase": 1981,
      "dem": 1982,
      "pospolitej": 1983,
      "rocÅĤaw": 1984,
      "55": 1985,
      "Nie": 1986,
      "ĠSe": 1987,
      "=[[": 1988,
      "old": 1989,
      "lay": 1990,
      "ĠWiel": 1991,
      "ÅĦstw": 1992,
      "spo": 1993,
      "owane": 1994,
      "Ġclass": 1995,
      "ĠWarszawie": 1996,
      "ĠrÃ³wnieÅ¼": 1997,
      "iÄħ": 1998,
      "ĠwiÄĻ": 1999,
      "Ġgo": 2000,
      "czypospolitej": 2001,
      "wiersz": 2002,
      "Ġwidth": 2003,
      "aksymile": 2004,
      "Woj": 2005,
      "post": 2006,
      "ÅĽli": 2007,
      "dex": 2008,
      "dawnictwo": 2009,
      "Ñĥ": 2010,
      "Ġrze": 2011,
      "}}<": 2012,
      "inie": 2013,
      "ĠRos": 2014,
      "ĠCo": 2015,
      "dyna": 2016,
      "okej": 2017,
      "ĠbyÅĤa": 2018,
      "arzÄħdz": 2019,
      "ĠLetnich": 2020,
      "70": 2021,
      "orii": 2022,
      "atal": 2023,
      "leks": 2024,
      "ola": 2025,
      "Ġwydawca": 2026,
      "2009": 2027,
      "52": 2028,
      "sup": 2029,
      "ĠKon": 2030,
      "ruÅ¼y": 2031,
      "De": 2032,
      "ÅĦskie": 2033,
      "Ġ2007": 2034,
      "Ġreprezenta": 2035,
      "ĠRzeczypospolitej": 2036,
      ".)": 2037,
      "lang": 2038,
      "nach": 2039,
      "arze": 2040,
      "Ġzach": 2041,
      "rug": 2042,
      "Ġrow": 2043,
      "Ja": 2044,
      "su": 2045,
      "Ð´": 2046,
      "Ġarchiwum": 2047,
      "Ġzarchiwizowano": 2048,
      "dzki": 2049,
      "nes": 2050,
      "tes": 2051,
      "mach": 2052,
      "ĠmieszkaÅĦ": 2053,
      "32": 2054,
      "ris": 2055,
      "int": 2056,
      "ĠRo": 2057,
      "Ġ2004": 2058,
      "ĠnoÅ¼na": 2059,
      "peÅĤ": 2060,
      "ĠPolskiej": 2061,
      "100": 2062,
      "79": 2063,
      "Powiat": 2064,
      "rÃ³le": 2065,
      "wÃ³d": 2066,
      "Ġmiasta": 2067,
      "Ġznajdu": 2068,
      "cs": 2069,
      "Ñı": 2070,
      "Ġla": 2071,
      "waÅĤ": 2072,
      "Ġgdzie": 2073,
      "cach": 2074,
      "znacz": 2075,
      "ckim": 2076,
      "ler": 2077,
      "oÅĤa": 2078,
      "|'''": 2079,
      "ÄĻg": 2080,
      "ĠmiÄĻdzy": 2081,
      "Ġ25": 2082,
      "ille": 2083,
      "bior": 2084,
      "aniz": 2085,
      "Ġokres": 2086,
      "ĠAu": 2087,
      "owaÅĤa": 2088,
      "ografi": 2089,
      "Ġstanowi": 2090,
      "iech": 2091,
      "ĠBry": 2092,
      "Ġ30": 2093,
      "Ġrozpo": 2094,
      "piÅĤka": 2095,
      "CH": 2096,
      "Ġmecz": 2097,
      "kowski": 2098,
      "koÅĤa": 2099,
      "ekkoatlety": 2100,
      "edÅĤug": 2101,
      "PaÅĦstwo": 2102,
      "Sta": 2103,
      "wali": 2104,
      "ury": 2105,
      "jÄħcych": 2106,
      "dk": 2107,
      "gmin": 2108,
      "lata": 2109,
      "2001": 2110,
      "2022": 2111,
      "ĠczÄĻÅĽci": 2112,
      "ya": 2113,
      "are": 2114,
      "roni": 2115,
      "Ġkobiet": 2116,
      "ĠSta": 2117,
      "wiÄĻt": 2118,
      "Ġog": 2119,
      "ĠPozna": 2120,
      "width": 2121,
      "Ñĸ": 2122,
      "Ġek": 2123,
      "ciÄħ": 2124,
      "Ġpoz": 2125,
      "Ġrowspan": 2126,
      "zarchiwizowano": 2127,
      "chodz": 2128,
      "Ġ23": 2129,
      "1998": 2130,
      "]</": 2131,
      "ner": 2132,
      "per": 2133,
      "sf": 2134,
      "ckich": 2135,
      "ĠUniwersyte": 2136,
      "Warszawa": 2137,
      "ĠmieszkaÅĦcÃ³w": 2138,
      "bgcolor": 2139,
      "kin": 2140,
      "ÅĤos": 2141,
      "ĠmiejscowoÅĽÄĩ": 2142,
      "Ġich": 2143,
      "Ġuczest": 2144,
      "zek": 2145,
      ".|": 2146,
      "MiejscowoÅĽÄĩ": 2147,
      "ps": 2148,
      "aria": 2149,
      "Ġseni": 2150,
      "Ġ26": 2151,
      "plan": 2152,
      "Ġpodczas": 2153,
      "Ludzie": 2154,
      "={{": 2155,
      "oi": 2156,
      "ĠSch": 2157,
      "owana": 2158,
      "stawie": 2159,
      "ĠdziaÅĤ": 2160,
      "Ġzosta": 2161,
      "ĠRepubli": 2162,
      "czÄħt": 2163,
      "broj": 2164,
      "Ġcolspan": 2165,
      "sztaÅĤ": 2166,
      "ãĤ": 2167,
      "atist": 2168,
      "ond": 2169,
      "inne": 2170,
      "Ġ2000": 2171,
      "spe": 2172,
      "unt": 2173,
      "wyciÄĻ": 2174,
      "por": 2175,
      "przy": 2176,
      "ieg": 2177,
      "sti": 2178,
      "60": 2179,
      ":#": 2180,
      "god": 2181,
      "ÅĤÄĻ": 2182,
      "ĠPra": 2183,
      "rzyma": 2184,
      "adres": 2185,
      "mierz": 2186,
      "88": 2187,
      "SR": 2188,
      "lep": 2189,
      "Ġkar": 2190,
      "Ġjednak": 2191,
      "USA": 2192,
      "poprzed": 2193,
      "asp": 2194,
      "kÅĤa": 2195,
      "rat": 2196,
      "Ġost": 2197,
      "reprezentacja": 2198,
      "list": 2199,
      "ciw": 2200,
      "kowe": 2201,
      "ĠNe": 2202,
      "Ġpolity": 2203,
      "Ġ2006": 2204,
      "aniu": 2205,
      "Ġnazw": 2206,
      "Ġ1954": 2207,
      "43": 2208,
      "Au": 2209,
      "ik": 2210,
      "Ġmedal": 2211,
      "ciar": 2212,
      "2023": 2213,
      "fes": 2214,
      "}},": 2215,
      "ode": 2216,
      "tura": 2217,
      "orys": 2218,
      "Ġco": 2219,
      "PiÅĤkarze": 2220,
      "75": 2221,
      "ham": 2222,
      "so": 2223,
      "Ġry": 2224,
      "czel": 2225,
      "ĠSy": 2226,
      "ÅĤawa": 2227,
      "odziaÅĤ": 2228,
      "angiel": 2229,
      "loc": 2230,
      "iew": 2231,
      "nat": 2232,
      "ĠWo": 2233,
      "Ġgra": 2234,
      "med": 2235,
      "Ġlicz": 2236,
      "wÃ³j": 2237,
      "jednostka": 2238,
      "ĠĠĠĠĠĠĠĠĠĠĠĠĠĠĠĠĠĠĠĠĠĠĠĠĠĠ": 2239,
      "Ġ2002": 2240,
      "Ġsport": 2241,
      "Stany": 2242,
      "\">": 2243,
      "53": 2244,
      "SA": 2245,
      "zji": 2246,
      "ĠjÄĻzy": 2247,
      "oly": 2248,
      "kowi": 2249,
      "pad": 2250,
      "Ġ2005": 2251,
      "44": 2252,
      "gryw": 2253,
      "kla": 2254,
      "kry": 2255,
      "Ġmo": 2256,
      "Ġis": 2257,
      "ĠWe": 2258,
      "ĠMe": 2259,
      "Ġbra": 2260,
      "Ġ21": 2261,
      "style": 2262,
      "dziba": 2263,
      "Uniwersyte": 2264,
      "NG": 2265,
      "ten": 2266,
      "ĠĠĠĠĠĠĠĠĠĠĠĠĠĠĠĠĠĠĠĠĠĠĠĠĠĠĠĠ": 2267,
      "2004": 2268,
      "cznym": 2269,
      "ohn": 2270,
      "CA": 2271,
      "Jan": 2272,
      "ade": 2273,
      "rum": 2274,
      "''.": 2275,
      "ret": 2276,
      "dze": 2277,
      "wicz": 2278,
      "kowo": 2279,
      "ĠTh": 2280,
      "ĠTy": 2281,
      "ĠHistoria": 2282,
      "rÃ³j": 2283,
      "Ġniemie": 2284,
      "phy": 2285,
      "rowspan": 2286,
      "zo": 2287,
      "ÅĤowie": 2288,
      "odu": 2289,
      "Ġ({{": 2290,
      "ult": 2291,
      "69": 2292,
      "Bi": 2293,
      "wz": 2294,
      "à¤": 2295,
      "oro": 2296,
      "index": 2297,
      "Ġ2003": 2298,
      "byt": 2299,
      "iant": 2300,
      "prezent": 2301,
      "ÅĤugoÅĽÄĩ": 2302,
      "atolicki": 2303,
      "Ġgminy": 2304,
      "ju": 2305,
      "ĠKrzy": 2306,
      "rzym": 2307,
      "ĠDo": 2308,
      "dow": 2309,
      "miejscowoÅĽÄĩ": 2310,
      "rej": 2311,
      "ĠpÃ³ÅĤnoc": 2312,
      "onej": 2313,
      "Ġ27": 2314,
      "41": 2315,
      "gen": 2316,
      "rost": 2317,
      "Ġist": 2318,
      "omor": 2319,
      "isbn": 2320,
      "ĠBer": 2321,
      "szyst": 2322,
      "rist": 2323,
      "Ġbo": 2324,
      "ĠNaj": 2325,
      "ÅºrÃ³d": 2326,
      "versi": 2327,
      "And": 2328,
      "bs": 2329,
      "ote": 2330,
      "Å¡": 2331,
      "stro": 2332,
      "ciorys": 2333,
      "Ġbez": 2334,
      "zem": 2335,
      "rokoÅĽÄĩ": 2336,
      "gue": 2337,
      "ĠokrÄĻ": 2338,
      "wiÄħzek": 2339,
      "que": 2340,
      "ÅĤe": 2341,
      "ĠAnd": 2342,
      "edu": 2343,
      "rodzina": 2344,
      "szykÃ³w": 2345,
      "Ġtej": 2346,
      "olumin": 2347,
      "ij": 2348,
      "kol": 2349,
      "ua": 2350,
      "ĠÃ": 2351,
      "Ġopis": 2352,
      "Ġwsp": 2353,
      "dyn": 2354,
      "Ġprac": 2355,
      "jÄħcego": 2356,
      "eneral": 2357,
      "ĠÅ»yciorys": 2358,
      "Kar": 2359,
      "Ros": 2360,
      "dis": 2361,
      "wan": 2362,
      "rew": 2363,
      "Äħcy": 2364,
      "Ġspo": 2365,
      "Ġklasy": 2366,
      "nymi": 2367,
      "ilm": 2368,
      "ĠwieÅĽ": 2369,
      "ĠRady": 2370,
      "86": 2371,
      "dom": 2372,
      "ĠPow": 2373,
      "dale": 2374,
      "usic": 2375,
      "Ġwojsk": 2376,
      "Ka": 2377,
      "Ð¹": 2378,
      "Ð¼": 2379,
      "Ġâ": 2380,
      "ied": 2381,
      "Ġpara": 2382,
      "ĠpÃ³Åºniej": 2383,
      "Ġ28": 2384,
      "jÄħca": 2385,
      "owiec": 2386,
      "artia": 2387,
      "obacz": 2388,
      "ula": 2389,
      "stry": 2390,
      "skup": 2391,
      "kich": 2392,
      "ĠWil": 2393,
      "PR": 2394,
      "Zmar": 2395,
      "ip": 2396,
      "ile": 2397,
      "tal": 2398,
      "|<": 2399,
      "ino": 2400,
      "Ġ50": 2401,
      "film": 2402,
      "Pro": 2403,
      "lii": 2404,
      "Ġoko": 2405,
      "the": 2406,
      "ologi": 2407,
      "Ġorganiza": 2408,
      "peÅĤne": 2409,
      "kraj": 2410,
      "log": 2411,
      "Äį": 2412,
      "szego": 2413,
      "ĠSa": 2414,
      "fii": 2415,
      "2003": 2416,
      "tional": 2417,
      "Ġ!!": 2418,
      "iecezja": 2419,
      ";\"|": 2420,
      "IO": 2421,
      "Ra": 2422,
      "fry": 2423,
      "ieÅĦ": 2424,
      "ĠSh": 2425,
      "ĠIII": 2426,
      "ĠXX": 2427,
      "parta": 2428,
      "leksand": 2429,
      "Za": 2430,
      "bra": 2431,
      "uje": 2432,
      "ĠzaÅĤoÅ¼": 2433,
      "udo": 2434,
      "ÅĤyw": 2435,
      ".||": 2436,
      "eli": 2437,
      "sia": 2438,
      "strony": 2439,
      "rawie": 2440,
      "omen": 2441,
      "Ġ29": 2442,
      "ĠÅĤaci": 2443,
      "arzÄħdza": 2444,
      "85": 2445,
      "Wi": 2446,
      "ĠBo": 2447,
      "ĠKat": 2448,
      "Ġgatun": 2449,
      "czyÅĤa": 2450,
      "Ġ22": 2451,
      "2005": 2452,
      "azi": 2453,
      "ÅĦskich": 2454,
      "rÄĻdk": 2455,
      "ÅĤod": 2456,
      "Ġpi": 2457,
      "Ġmm": 2458,
      "Ġstatysty": 2459,
      "Ġgmina": 2460,
      "ĠLa": 2461,
      "ĠGe": 2462,
      "âĢĿ,": 2463,
      "Ġ1990": 2464,
      "Ġ1992": 2465,
      "mentarz": 2466,
      "77": 2467,
      "Car": 2468,
      "Gmina": 2469,
      "POL": 2470,
      "jski": 2471,
      "rac": 2472,
      "ruch": 2473,
      "jÄħÅĤ": 2474,
      "ĠHa": 2475,
      "praw": 2476,
      "42": 2477,
      "bar": 2478,
      "rÄħz": 2479,
      "arch": 2480,
      "raÅ¼": 2481,
      "Ġkil": 2482,
      "ĠCent": 2483,
      "ĠOp": 2484,
      "dek": 2485,
      "2024": 2486,
      "pospolita": 2487,
      "iotr": 2488,
      "Wiel": 2489,
      "kan": 2490,
      "czpospolita": 2491,
      "ĠNew": 2492,
      "akty": 2493,
      "owicz": 2494,
      "Ġpraca": 2495,
      "czasopismo": 2496,
      "now": 2497,
      "ĠpeÅĤ": 2498,
      "skok": 2499,
      "ÅĦstwa": 2500,
      "wiza": 2501,
      "rzel": 2502,
      "nikiem": 2503,
      "colspan": 2504,
      "KS": 2505,
      "UT": 2506,
      "vis": 2507,
      "}}||": 2508,
      "ley": 2509,
      "ĠSte": 2510,
      "niem": 2511,
      "ĠAng": 2512,
      "Ġzam": 2513,
      "szych": 2514,
      "ĠdziaÅĤa": 2515,
      "forma": 2516,
      "format": 2517,
      "Ġfunkcja": 2518,
      "Dziennik": 2519,
      "klub": 2520,
      "orzy": 2521,
      "zyk": 2522,
      "Ġgrani": 2523,
      "del": 2524,
      "Ġwojny": 2525,
      "..": 2526,
      "lar": 2527,
      "ura": 2528,
      "Ġwal": 2529,
      "Ġwww": 2530,
      "ros": 2531,
      "ciu": 2532,
      "dewiza": 2533,
      "onsek": 2534,
      "wariant": 2535,
      "89": 2536,
      "ronie": 2537,
      "enry": 2538,
      "Ġme": 2539,
      "ÅĤady": 2540,
      "ĠBe": 2541,
      "cjali": 2542,
      "Ġ189": 2543,
      "ward": 2544,
      "ĠNarodowej": 2545,
      "ms": 2546,
      "ish": 2547,
      "Ġstar": 2548,
      "ĠAkade": 2549,
      "szech": 2550,
      "cjal": 2551,
      "Zmarli": 2552,
      "Od": 2553,
      "Te": 2554,
      "tro": 2555,
      "Ġ#": 2556,
      "Ġ}}</": 2557,
      "Ġlig": 2558,
      "niÄħ": 2559,
      "Ġstanie": 2560,
      "ĠuÅ¼y": 2561,
      "siedziba": 2562,
      "ĠcaÅĤ": 2563,
      "OkrÄĻg": 2564,
      "ES": 2565,
      "Kra": 2566,
      "Pod": 2567,
      "ili": 2568,
      "view": 2569,
      "Ġon": 2570,
      "ĠwojewÃ³dzt": 2571,
      "anÃ³w": 2572,
      "Ġdu": 2573,
      "Ġdw": 2574,
      "tych": 2575,
      "waÅ¼": 2576,
      "zach": 2577,
      "scyp": 2578,
      "ĠkoÅĦ": 2579,
      "ĠczÄĻÅĽÄĩ": 2580,
      "uli": 2581,
      "wska": 2582,
      "czes": 2583,
      "rzÄħ": 2584,
      "ĠPre": 2585,
      "ĠsÅĤuÅ¼": 2586,
      "nictwa": 2587,
      "ĠRzeczpospolita": 2588,
      "Ġ/>{{": 2589,
      "Ġisbn": 2590,
      "76": 2591,
      "cen": 2592,
      "pow": 2593,
      "wol": 2594,
      "wskiego": 2595,
      "iada": 2596,
      "ÅĽnie": 2597,
      "tual": 2598,
      "owaÄĩ": 2599,
      "uth": 2600,
      "ĠEl": 2601,
      "Ġcm": 2602,
      "Ġtur": 2603,
      "Ge": 2604,
      "Ne": 2605,
      "cjÄħ": 2606,
      "top": 2607,
      "Ð³": 2608,
      "orf": 2609,
      "nister": 2610,
      "2000": 2611,
      "Ġtrener": 2612,
      "Ġliter": 2613,
      "Ġurodzeni": 2614,
      "Ġproduk": 2615,
      "Ġpolska": 2616,
      "Ġlek": 2617,
      "Ġklubie": 2618,
      "Bar": 2619,
      "ica": 2620,
      "Ġum": 2621,
      "czyk": 2622,
      "Ġpolski": 2623,
      "ĠosÃ³b": 2624,
      "Koszy": 2625,
      "SRR": 2626,
      "Par": 2627,
      "nar": 2628,
      "ĠLekkoatlety": 2629,
      "ung": 2630,
      "ÅĤych": 2631,
      "Ġpismo": 2632,
      "74": 2633,
      "prowadz": 2634,
      "ĠPan": 2635,
      "Ġwyk": 2636,
      "ejm": 2637,
      "ĠpoÅĤoÅ¼": 2638,
      "mistrzost": 2639,
      "iechoty": 2640,
      "OP": 2641,
      "twÃ³r": 2642,
      "ĪĴ": 2643,
      "rad": 2644,
      "ĠDi": 2645,
      "unda": 2646,
      "Ġpozy": 2647,
      "Ġpowsta": 2648,
      "ruÅ¼yna": 2649,
      "Niem": 2650,
      "ac": 2651,
      "ank": 2652,
      "ater": 2653,
      "nic": 2654,
      "szÄħ": 2655,
      "ĠWorld": 2656,
      "ÅĦsk": 2657,
      "ĠzakoÅĦ": 2658,
      "cies": 2659,
      "paski": 2660,
      "ĠskÅĤad": 2661,
      "bieg": 2662,
      "1975": 2663,
      "Reprezentacja": 2664,
      "merykaÅĦ": 2665,
      "interwiki": 2666,
      "ITA": 2667,
      "JÄĻ": 2668,
      "Sy": 2669,
      "Ġdom": 2670,
      "dzna": 2671,
      "ĠWrocÅĤaw": 2672,
      "ĠwystÄĻp": 2673,
      "ĠZobacz": 2674,
      "ÅĤÃ³wek": 2675,
      "Ġczasie": 2676,
      "Ġfilm": 2677,
      "ĠÅĽwiatowej": 2678,
      "Ġotrzyma": 2679,
      "Ġsezonie": 2680,
      "Mu": 2681,
      "ork": 2682,
      "orp": 2683,
      "nicza": 2684,
      "ind": 2685,
      "kami": 2686,
      "otball": 2687,
      "2002": 2688,
      "owice": 2689,
      "Ġ1996": 2690,
      "rzÄĻdu": 2691,
      "sÅĤ": 2692,
      "|''": 2693,
      "Ġnarod": 2694,
      "ĠStu": 2695,
      "zyd": 2696,
      "kuren": 2697,
      "ĠwystÄĻpu": 2698,
      "Ġten": 2699,
      "Ġlot": 2700,
      "ress": 2701,
      "atalog": 2702,
      "64": 2703,
      "Ob": 2704,
      "car": 2705,
      "nk": 2706,
      "ple": 2707,
      "tz": 2708,
      "tÃ³w": 2709,
      "ĠrÃ³Å¼": 2710,
      "Ġangiel": 2711,
      "Ġwar": 2712,
      "nis": 2713,
      "ĠnaleÅ¼": 2714,
      "Ġsiat": 2715,
      "cisz": 2716,
      "biut": 2717,
      "miesz": 2718,
      "ĠÅļlÄħ": 2719,
      "Ġrozgryw": 2720,
      "Liga": 2721,
      "versity": 2722,
      "czaj": 2723,
      "ĠGda": 2724,
      "ĠHe": 2725,
      "ĠÅĽred": 2726,
      "Ġtech": 2727,
      "Ġ1991": 2728,
      "oÅĤnie": 2729,
      "watel": 2730,
      "ĠLekkoatletyce": 2731,
      "68": 2732,
      "gie": 2733,
      "lny": 2734,
      "rek": 2735,
      "ĠWal": 2736,
      "ĠRoz": 2737,
      "Ġgroma": 2738,
      "Ġtrzy": 2739,
      "Ġ31": 2740,
      "olid": 2741,
      "Ġobsz": 2742,
      "reference": 2743,
      "mper": 2744,
      "uÅĤk": 2745,
      "ĠDywiz": 2746,
      "!--": 2747,
      "Ste": 2748,
      "gar": 2749,
      "gru": 2750,
      "trz": 2751,
      "ÑĮ": 2752,
      "rebr": 2753,
      "liga": 2754,
      "szcze": 2755,
      "wach": 2756,
      "ampi": 2757,
      "Ġ1999": 2758,
      "2025": 2759,
      "ÅĤÄħcz": 2760,
      "ĠmetrÃ³w": 2761,
      "scyplina": 2762,
      "87": 2763,
      "AR": 2764,
      "DI": 2765,
      "EE": 2766,
      "Poli": 2767,
      "gr": 2768,
      "kopol": 2769,
      "lko": 2770,
      "png": 2771,
      "iast": 2772,
      "Ġwszyst": 2773,
      "rektor": 2774,
      "Ġzat": 2775,
      "unkt": 2776,
      "ĠHo": 2777,
      "owisko": 2778,
      "Ġadministracyjny": 2779,
      "ĠNau": 2780,
      "berg": 2781,
      "By": 2782,
      "DF": 2783,
      "Ulica": 2784,
      "mb": 2785,
      "tran": 2786,
      "rzej": 2787,
      "Ġuzy": 2788,
      "asy": 2789,
      "oÅĽcioÅĤa": 2790,
      "ĠbyÅĤo": 2791,
      "kiego": 2792,
      "Ġele": 2793,
      "For": 2794,
      "gna": 2795,
      "nne": 2796,
      "Ġ+": 2797,
      "Ġpla": 2798,
      "ĠBa": 2799,
      "ospod": 2800,
      "ĠCar": 2801,
      "page": 2802,
      "ĠEn": 2803,
      "ÅĤugi": 2804,
      "Ġ'''[[": 2805,
      "Ġwzgl": 2806,
      "ĠWojsk": 2807,
      "jal": 2808,
      "olar": 2809,
      "ĠSam": 2810,
      "kim": 2811,
      "uma": 2812,
      "ĠOk": 2813,
      "ciech": 2814,
      "ĠPolska": 2815,
      "Ġ1994": 2816,
      "uper": 2817,
      "niÄĻcia": 2818,
      "wzrost": 2819,
      "Se": 2820,
      "koÅĽciÃ³ÅĤ": 2821,
      "len": 2822,
      "sub": 2823,
      "Ġwsi": 2824,
      "inia": 2825,
      "ĠRy": 2826,
      "fina": 2827,
      "Ġtrze": 2828,
      "ĠGa": 2829,
      "Ġprzeciw": 2830,
      "Ġliga": 2831,
      "biologia": 2832,
      "ĠPolskiego": 2833,
      "grody": 2834,
      "Ġfina": 2835,
      "onomi": 2836,
      "ĠnastÄĻpnie": 2837,
      "ÅºrÃ³dÅĤa": 2838,
      ">[[": 2839,
      "Kon": 2840,
      "aÅ¼": 2841,
      "Ã³ze": 2842,
      "cel": 2843,
      "zyka": 2844,
      "dae": 2845,
      "ĠAd": 2846,
      "ficer": 2847,
      "owani": 2848,
      "miec": 2849,
      "Polscy": 2850,
      "ÑģÑĤ": 2851,
      "Ġreprezentacyjna": 2852,
      "IM": 2853,
      "Ro": 2854,
      "erzy": 2855,
      "waga": 2856,
      "jekt": 2857,
      "Ġale": 2858,
      "ĠudziaÅĤ": 2859,
      "ĠToru": 2860,
      "oks": 2861,
      "1994": 2862,
      "Ð¾Ð²": 2863,
      "Ġznaczenia": 2864,
      "anisÅĤaw": 2865,
      "nagÅĤÃ³wek": 2866,
      "ven": 2867,
      "owskiego": 2868,
      "rea": 2869,
      "Ġpodz": 2870,
      "niÅĤ": 2871,
      "Ġ100": 2872,
      "Ġstop": 2873,
      "medale": 2874,
      "Ġ1993": 2875,
      "istrzostw": 2876,
      "ational": 2877,
      "wiÄħty": 2878,
      "ĠwzglÄĻ": 2879,
      "bot": 2880,
      "sort": 2881,
      "kaz": 2882,
      "refa": 2883,
      "opedia": 2884,
      "ĠRP": 2885,
      "Ġzak": 2886,
      "ogs": 2887,
      "ĠGÃ³r": 2888,
      "seud": 2889,
      "Ġ1995": 2890,
      "ĠâĢŀ[[": 2891,
      "Ġsprawie": 2892,
      "atura": 2893,
      "Jed": 2894,
      "cord": 2895,
      "ls": 2896,
      "ns": 2897,
      "tan": 2898,
      "zon": 2899,
      "rag": 2900,
      "ĠPoli": 2901,
      "ÅĤoty": 2902,
      "rand": 2903,
      "Ġsztu": 2904,
      "Ġ978": 2905,
      "Ġwojna": 2906,
      "Ġ1945": 2907,
      "ĠXV": 2908,
      "legÅĤ": 2909,
      "Ġrodzaj": 2910,
      "gminie": 2911,
      "Odzna": 2912,
      "hy": 2913,
      "pp": 2914,
      "Ġdob": 2915,
      "Ġdes": 2916,
      "ĠmoÅ¼": 2917,
      "''',": 2918,
      "ĠukoÅĦ": 2919,
      "Ġzap": 2920,
      "ĠHer": 2921,
      "stawi": 2922,
      "terna": 2923,
      "ĠStra": 2924,
      "Ð¸Ñ": 2925,
      "ĠwÅĤas": 2926,
      "stytut": 2927,
      "FC": 2928,
      "Roz": 2929,
      "ker": 2930,
      "Ñĭ": 2931,
      "orze": 2932,
      "ÅĽl": 2933,
      "ĠPri": 2934,
      "Ġmistrzostwa": 2935,
      "tur": 2936,
      "ose": 2937,
      "ĠCi": 2938,
      "Ġloka": 2939,
      "ĠbyÅĤy": 2940,
      "muÅĤa": 2941,
      "czÄħcy": 2942,
      "produ": 2943,
      "chael": 2944,
      "stitu": 2945,
      "ide": 2946,
      "info": 2947,
      "ostaÅĤ": 2948,
      "ted": 2949,
      "dam": 2950,
      "ficjal": 2951,
      "Ġzamiesz": 2952,
      "Ġwyb": 2953,
      "ogi": 2954,
      "ĠpoczÄħt": 2955,
      "edera": 2956,
      "Ġpodstawie": 2957,
      "onym": 2958,
      "1997": 2959,
      "ukces": 2960,
      "La": 2961,
      "Ty": 2962,
      "Ġprz": 2963,
      "Ġpubli": 2964,
      "ĠPrzy": 2965,
      "ega": 2966,
      "Ġsing": 2967,
      "Ġwykona": 2968,
      "wyczaj": 2969,
      "ĠJan": 2970,
      "ular": 2971,
      "Ġdzieci": 2972,
      "CD": 2973,
      "ague": 2974,
      "bel": 2975,
      "Ġcy": 2976,
      "dziel": 2977,
      "kole": 2978,
      "Ġlu": 2979,
      "size": 2980,
      "1999": 2981,
      "Ġ1939": 2982,
      "meryka": 2983,
      "rugby": 2984,
      "72": 2985,
      "Mo": 2986,
      "Sh": 2987,
      "Ġszy": 2988,
      "]]|[[": 2989,
      "erii": 2990,
      "ĠPop": 2991,
      "Ġkg": 2992,
      "ĠMistrzostwa": 2993,
      "ĠKom": 2994,
      "Ġobec": 2995,
      "Ð°Ð½": 2996,
      "rzymskok": 2997,
      ")}}": 2998,
      "82": 2999,
      "84": 3000,
      "cont": 3001,
      "isz": 3002,
      "vo": 3003,
      "Ð±": 3004,
      "Ġet": 3005,
      "Ã³ry": 3006,
      "zyj": 3007,
      "rzyd": 3008,
      "ĠLu": 3009,
      "ics": 3010,
      "dziaÅĤu": 3011,
      "ĠZjednoczonych": 3012,
      "iÄĻdzynarod": 3013,
      "ĠUniwersytetu": 3014,
      "druÅ¼yna": 3015,
      "niku": 3016,
      "szu": 3017,
      "ĠPuchar": 3018,
      "Ġstronie": 3019,
      "ĠNor": 3020,
      "ĠGre": 3021,
      "Ġkierow": 3022,
      "Ġmuzyczny": 3023,
      "ĠjÄĻzyku": 3024,
      "azimierz": 3025,
      "rÄĻdkoÅĽÄĩ": 3026,
      "->": 3027,
      "AA": 3028,
      "BA": 3029,
      "ford": 3030,
      "ĠÃ©": 3031,
      "cznÄħ": 3032,
      "egion": 3033,
      "ument": 3034,
      "ĠNr": 3035,
      "wyÅ¼": 3036,
      "eder": 3037,
      "Ġregi": 3038,
      "Ġtele": 3039,
      "hip": 3040,
      "powiecie": 3041,
      "Ġkolejowa": 3042,
      "Order": 3043,
      "Ġkraju": 3044,
      "ĠpoÅĤudni": 3045,
      "Ġtrenerska": 3046,
      "67": 3047,
      "CT": 3048,
      "Cze": 3049,
      "of": 3050,
      "nastÄĻp": 3051,
      "lion": 3052,
      "sket": 3053,
      "ÅĽcia": 3054,
      "tech": 3055,
      "kul": 3056,
      "bili": 3057,
      "ĠWydawnictwo": 3058,
      "Ã³dca": 3059,
      "ĠktÃ³rej": 3060,
      "ST": 3061,
      "lor": 3062,
      "Ġdwa": 3063,
      "Ġdanych": 3064,
      "Ġmin": 3065,
      "Ġkla": 3066,
      "cej": 3067,
      "lack": 3068,
      "ĠCom": 3069,
      "ĠFC": 3070,
      "rÃ³l": 3071,
      "Ġfran": 3072,
      "czeni": 3073,
      "DEU": 3074,
      "ĠMuzeum": 3075,
      "JPG": 3076,
      "Uniwersytet": 3077,
      "Do": 3078,
      "strefa": 3079,
      "Ġwraz": 3080,
      "aleria": 3081,
      "ĠMie": 3082,
      "ĠKraj": 3083,
      "Ġ1980": 3084,
      "Ġ1989": 3085,
      "ĠskÅĤa": 3086,
      "form": 3087,
      "ĠByÅĤ": 3088,
      "65": 3089,
      "Parafia": 3090,
      "cogs": 3091,
      "owce": 3092,
      "Å¼u": 3093,
      "ĠPaw": 3094,
      "ciÅĤ": 3095,
      "usi": 3096,
      "rabstwo": 3097,
      "ĠKrakowie": 3098,
      "63": 3099,
      "71": 3100,
      "UL": 3101,
      "Ð¿": 3102,
      "anta": 3103,
      "chodzi": 3104,
      "Ġprowadz": 3105,
      "eny": 3106,
      "ĠLo": 3107,
      "ĠJana": 3108,
      "ĠStar": 3109,
      "ezon": 3110,
      "ĠktÃ³ra": 3111,
      "Ġ1988": 3112,
      "Ġzespo": 3113,
      "Album": 3114,
      "ĠÅĽwiatowa": 3115,
      "rytyj": 3116,
      "nosi": 3117,
      "Ġznajduje": 3118,
      "Ġparafii": 3119,
      "81": 3120,
      "Ber": 3121,
      "Chi": 3122,
      "Dy": 3123,
      "RD": 3124,
      "ale": 3125,
      "line": 3126,
      "err": 3127,
      "erz": 3128,
      "eng": 3129,
      "onego": 3130,
      "ÅĽrÃ³d": 3131,
      "ĠDz": 3132,
      "ciele": 3133,
      "Ġosob": 3134,
      "ĠKrakÃ³w": 3135,
      "MA": 3136,
      "Ukra": 3137,
      "phi": 3138,
      "Ġsza": 3139,
      "liw": 3140,
      "Ã³j": 3141,
      "widu": 3142,
      "ĠRad": 3143,
      "ĠDzie": 3144,
      "ĠÅĽrod": 3145,
      "cyjne": 3146,
      "cyjny": 3147,
      "Ġ400": 3148,
      "Ġ-->": 3149,
      "Ġ1936": 3150,
      "illia": 3151,
      "Ġpowierzch": 3152,
      "sports": 3153,
      "okeju": 3154,
      "Cor": 3155,
      "ME": 3156,
      "ey": 3157,
      "lal": 3158,
      "ynek": 3159,
      "Ġse": 3160,
      "ĠSport": 3161,
      "Ġzaj": 3162,
      "szym": 3163,
      "wÃ³ch": 3164,
      "Ġ1997": 3165,
      "98": 3166,
      "Ba": 3167,
      "bia": 3168,
      "dÅĤugoÅĽÄĩ": 3169,
      "gm": 3170,
      "wania": 3171,
      "Äĥ": 3172,
      "Ġat": 3173,
      "Ġnar": 3174,
      "Ġsil": 3175,
      "ads": 3176,
      "Ġfaksymile": 3177,
      "znacznie": 3178,
      "ogram": 3179,
      "miasto": 3180,
      "ĠpiÅĤkar": 3181,
      "ĠktÃ³rym": 3182,
      "Ġswoje": 3183,
      "teryt": 3184,
      "rowincja": 3185,
      "61": 3186,
      ">''": 3187,
      "En": 3188,
      "ON": 3189,
      "SC": 3190,
      "gnie": 3191,
      "lot": 3192,
      "play": 3193,
      "uwaga": 3194,
      "Ġci": 3195,
      "stru": 3196,
      "ÅĤodzie": 3197,
      "artic": 3198,
      "ĠdwÃ³ch": 3199,
      "odc": 3200,
      "ĠSk": 3201,
      "ĠBel": 3202,
      "Ġoch": 3203,
      "istorii": 3204,
      "dywidu": 3205,
      "ÅĤoÅ¼y": 3206,
      "oto": 3207,
      "Ġodby": 3208,
      "uchow": 3209,
      "szerokoÅĽÄĩ": 3210,
      "Ġpoprzed": 3211,
      "ÅĽliny": 3212,
      "Ġseniorska": 3213,
      "Ġturniej": 3214,
      "JÄĻzyk": 3215,
      "anna": 3216,
      "arak": 3217,
      "}})": 3218,
      "kaza": 3219,
      "alu": 3220,
      "tury": 3221,
      "ĠChi": 3222,
      "czyn": 3223,
      "Ġhrab": 3224,
      "Ġjuniorska": 3225,
      "ciarstwie": 3226,
      "dywidual": 3227,
      "-[[": 3228,
      "FRA": 3229,
      "Let": 3230,
      "Pre": 3231,
      "ee": 3232,
      "faksymile": 3233,
      "hon": 3234,
      "lat": 3235,
      "Ã¨": 3236,
      "stu": 3237,
      "ari": 3238,
      "ĠpiÄĻ": 3239,
      "nio": 3240,
      "omas": 3241,
      "ĠTarn": 3242,
      "mag": 3243,
      "wiel": 3244,
      "usa": 3245,
      "âĢĿ|": 3246,
      "âĢĿ]]": 3247,
      "skupi": 3248,
      "Francja": 3249,
      "Ġostat": 3250,
      "FK": 3251,
      "Rob": 3252,
      "ae": 3253,
      "pu": 3254,
      "Ġks": 3255,
      "wagi": 3256,
      "omy": 3257,
      "osÅĤa": 3258,
      "kowate": 3259,
      "Ġreprezent": 3260,
      "1993": 3261,
      "ersja": 3262,
      "ÑģÐº": 3263,
      "Ġsamym": 3264,
      "Ġbudyn": 3265,
      "cjalisty": 3266,
      "cords": 3267,
      ":'''": 3268,
      "ER": 3269,
      "Me": 3270,
      "WN": 3271,
      "uka": 3272,
      "Ġchi": 3273,
      "Ġpan": 3274,
      "roup": 3275,
      "ĠPiÅĤ": 3276,
      "jem": 3277,
      "iss": 3278,
      "''':": 3279,
      "ĠChe": 3280,
      "Ġul": 3281,
      "Ġlodzie": 3282,
      "ĠHar": 3283,
      "okres": 3284,
      "ĠJe": 3285,
      "Ġ1998": 3286,
      "]])</": 3287,
      "Ð°Ð»": 3288,
      "Ġraz": 3289,
      "Ġbardz": 3290,
      "\"/>.": 3291,
      "watelstwo": 3292,
      "Be": 3293,
      "Krzy": 3294,
      "Prze": 3295,
      "Sa": 3296,
      "wen": 3297,
      "lis": 3298,
      "cznik": 3299,
      "ĠRob": 3300,
      "ĠCon": 3301,
      "Ġwynosi": 3302,
      "Ġinter": 3303,
      "bit": 3304,
      "Ġcent": 3305,
      "Ġtere": 3306,
      "Ġspot": 3307,
      "oÅĤudni": 3308,
      "ologii": 3309,
      "Ġkamie": 3310,
      "ĠktÃ³rych": 3311,
      "Ġkomp": 3312,
      "ĠwÅĤaÅĽci": 3313,
      "fikacji": 3314,
      "rowincji": 3315,
      "Ġutworz": 3316,
      "ĠWojewÃ³dz": 3317,
      "Niemcy": 3318,
      "Jednostka": 3319,
      "62": 3320,
      "95": 3321,
      "So": 3322,
      "TS": 3323,
      "cens": 3324,
      "reg": 3325,
      "ĠpÅĤy": 3326,
      "lec": 3327,
      "szt": 3328,
      "tyk": 3329,
      "ĠSer": 3330,
      "Ġba": 3331,
      "osÅĤaw": 3332,
      "ĠTra": 3333,
      "ĠPolskie": 3334,
      "1991": 3335,
      "Ġtylko": 3336,
      "awod": 3337,
      "Ġprofes": 3338,
      "jednoznacznie": 3339,
      "Ġnajlep": 3340,
      "ÅĤownik": 3341,
      "species": 3342,
      "ĠokoÅĤo": 3343,
      "jednoznacznienie": 3344,
      "MiejscowoÅĽci": 3345,
      "PA": 3346,
      "To": 3347,
      "los": 3348,
      "ota": 3349,
      "seria": 3350,
      "ĠjÄħ": 3351,
      "owate": 3352,
      "iaÅĤu": 3353,
      "Ã³n": 3354,
      "rza": 3355,
      "Ġmat": 3356,
      "tail": 3357,
      "osen": 3358,
      "ess": 3359,
      "1996": 3360,
      "ĠwiÄĻk": 3361,
      "ospodar": 3362,
      "<!--": 3363,
      "eu": 3364,
      "sil": 3365,
      "naj": 3366,
      "owska": 3367,
      "Ġwod": 3368,
      "Ġposta": 3369,
      "lek": 3370,
      "ĠPÃ³ÅĤnoc": 3371,
      "ĠSp": 3372,
      "ope": 3373,
      "tak": 3374,
      "ÅĦscy": 3375,
      "ĠBu": 3376,
      "ĠBiaÅĤ": 3377,
      "ejmu": 3378,
      "ĠGu": 3379,
      "dyscyplina": 3380,
      "nostki": 3381,
      "oÅĤÃ³w": 3382,
      "ĠEuropej": 3383,
      "ĠXI": 3384,
      "PS": 3385,
      "UN": 3386,
      "bc": 3387,
      "cus": 3388,
      "don": 3389,
      "if": 3390,
      "sing": 3391,
      "vel": 3392,
      "iaÅĤy": 3393,
      "Ġpat": 3394,
      "nim": 3395,
      "nice": 3396,
      "Ġdop": 3397,
      "mit": 3398,
      "cykl": 3399,
      "ĠWie": 3400,
      "ĠKultu": 3401,
      "ĠTowarzy": 3402,
      "ĠIs": 3403,
      "zes": 3404,
      "ĠZe": 3405,
      "owanych": 3406,
      "wiÄĻk": 3407,
      "ĠktÃ³rego": 3408,
      "Ġmiejscu": 3409,
      "Ġalbumu": 3410,
      "postol": 3411,
      "ĠBryt": 3412,
      "73": 3413,
      "92": 3414,
      "BN": 3415,
      "Euro": 3416,
      "cl": 3417,
      "puchar": 3418,
      "wany": 3419,
      "struk": 3420,
      "onÄħ": 3421,
      "ĠPierw": 3422,
      "waÅĤa": 3423,
      "obi": 3424,
      "Ġstos": 3425,
      "ĠwyrÃ³Å¼": 3426,
      "wieÅĽ": 3427,
      "Ġinnych": 3428,
      "Ġpodstaw": 3429,
      "âĢĿ.": 3430,
      "Ġ1973": 3431,
      "wyciÄĻz": 3432,
      "seudoni": 3433,
      "Odznaczeni": 3434,
      "DD": 3435,
      "We": 3436,
      "Wal": 3437,
      "Ġcie": 3438,
      "arÃ³w": 3439,
      "Ġpost": 3440,
      "ĠdÅĤug": 3441,
      "uber": 3442,
      "mek": 3443,
      "ĠLub": 3444,
      "Ġwyg": 3445,
      "Ġtran": 3446,
      "wyd": 3447,
      "ĠZas": 3448,
      "0000": 3449,
      "syj": 3450,
      "czeniu": 3451,
      "ings": 3452,
      "czÄħÅĤ": 3453,
      "ĠMich": 3454,
      "ĠLiga": 3455,
      "ÐµÐ½": 3456,
      "obywatelstwo": 3457,
      "dencji": 3458,
      "siÄĻbior": 3459,
      "ojewÃ³dztwo": 3460,
      "REDI": 3461,
      "RECT": 3462,
      "Ġpomoc": 3463,
      "JPN": 3464,
      "REDIRECT": 3465,
      "97": 3466,
      "dli": 3467,
      "fran": 3468,
      "nowy": 3469,
      "ville": 3470,
      "ÈĻ": 3471,
      "ĠÅĤ": 3472,
      "stania": 3473,
      "czek": 3474,
      "Ġdaw": 3475,
      "kana": 3476,
      "ĠPet": 3477,
      "Ġmal": 3478,
      "ĠurzÄĻdu": 3479,
      "ĠGo": 3480,
      "ĠZach": 3481,
      "]]),": 3482,
      "Ġhistory": 3483,
      "Ġ83": 3484,
      "mpics": 3485,
      "ight": 3486,
      ">([[": 3487,
      "Ġpowiecie": 3488,
      "Ġnauczy": 3489,
      "'s": 3490,
      "BiaÅĤ": 3491,
      "Kat": 3492,
      "dgo": 3493,
      "iz": 3494,
      "imi": 3495,
      "usza": 3496,
      "name": 3497,
      "own": 3498,
      "egÃ³l": 3499,
      "ĠMy": 3500,
      "ĠOch": 3501,
      "Ġrej": 3502,
      "ews": 3503,
      "ĠjuÅ¼": 3504,
      "Ġtam": 3505,
      "ĠosiÄħ": 3506,
      "Ġbudow": 3507,
      "Fb": 3508,
      "Henry": 3509,
      "SW": 3510,
      "Sam": 3511,
      "bÄħ": 3512,
      "fie": 3513,
      "hol": 3514,
      "lij": 3515,
      "eniem": 3516,
      "Ġsak": 3517,
      "urg": 3518,
      "ĠroÅĽ": 3519,
      "maÅĤy": 3520,
      "ĠUstaw": 3521,
      "Ġjedno": 3522,
      "Ð°ÑĢ": 3523,
      "kowych": 3524,
      "FFF": 3525,
      "1945": 3526,
      "ĠOlimpijskie": 3527,
      "Ġgrupy": 3528,
      "Ġprodukcji": 3529,
      "John": 3530,
      "Wil": 3531,
      "har": 3532,
      "ocia": 3533,
      "wolumin": 3534,
      "Ã¸": 3535,
      "ĠQ": 3536,
      "ori": 3537,
      "Ġmy": 3538,
      "Ġkonsek": 3539,
      "way": 3540,
      "debiut": 3541,
      "mieni": 3542,
      "arab": 3543,
      "Ġ1944": 3544,
      "1988": 3545,
      "stria": 3546,
      "Ġsystem": 3547,
      "ĠzespoÅĤu": 3548,
      "AN": 3549,
      "SK": 3550,
      "Sch": 3551,
      "border": 3552,
      "pat": 3553,
      "win": 3554,
      "lista": 3555,
      "Ġpor": 3556,
      "rzut": 3557,
      "ass": 3558,
      "Ġpot": 3559,
      "Ġodcin": 3560,
      "atyka": 3561,
      "ĠVal": 3562,
      "Ġzamk": 3563,
      "Lista": 3564,
      "kwi": 3565,
      "tle": 3566,
      "Åį": 3567,
      "chani": 3568,
      "'''''": 3569,
      "czenie": 3570,
      "rog": 3571,
      "Äħc": 3572,
      "daÅĤ": 3573,
      "ĠTo": 3574,
      "ĠGrani": 3575,
      "rus": 3576,
      "ĠFa": 3577,
      "oke": 3578,
      "edi": 3579,
      "owiÄħz": 3580,
      "]]'',": 3581,
      "ware": 3582,
      "ĠNauk": 3583,
      "stanowisko": 3584,
      "Ġklubu": 3585,
      "ĠmoÅ¼e": 3586,
      "ampions": 3587,
      "Ġpowierzchni": 3588,
      "CC": 3589,
      "Sport": 3590,
      "wanie": 3591,
      "Ġwschod": 3592,
      "ern": 3593,
      "Ġkol": 3594,
      "niego": 3595,
      "Ã³wka": 3596,
      "ĠMan": 3597,
      "ĠMon": 3598,
      "Ġbieg": 3599,
      "ĠCy": 3600,
      "ĠNiem": 3601,
      "syn": 3602,
      "Ġlinii": 3603,
      "Ġlink": 3604,
      "ĠStatist": 3605,
      "1992": 3606,
      "Ġ1975": 3607,
      "bert": 3608,
      "Ġdrug": 3609,
      "ations": 3610,
      "Ġbudowy": 3611,
      "ĠFrancji": 3612,
      "Ġsiedzi": 3613,
      "ĠKariera": 3614,
      "ĠdruÅ¼yna": 3615,
      "ĠwspÃ³ÅĤpra": 3616,
      "ĠStraÅ¼y": 3617,
      "AmerykaÅĦ": 3618,
      "Ha": 3619,
      "Nowy": 3620,
      "WojewÃ³dztwo": 3621,
      "katoli": 3622,
      "tr": 3623,
      "wca": 3624,
      "czta": 3625,
      "Ġziem": 3626,
      "Ġnatom": 3627,
      "ĠmaÅĤ": 3628,
      "niesi": 3629,
      "jestr": 3630,
      "Ġgen": 3631,
      "ÅĤoto": 3632,
      "ĠJego": 3633,
      "||[[": 3634,
      "ĠbyÄĩ": 3635,
      "ĠzdobyÅĤ": 3636,
      "ĠjuniorÃ³w": 3637,
      "content": 3638,
      "Corti": 3639,
      "seudonim": 3640,
      "Ġnatomiast": 3641,
      "96": 3642,
      "ENG": 3643,
      "Pi": 3644,
      "font": 3645,
      "pt": 3646,
      "rub": 3647,
      "tra": 3648,
      "uj": 3649,
      "van": 3650,
      "wans": 3651,
      "ÄĮ": 3652,
      "aro": 3653,
      "atus": 3654,
      "Ġprowincji": 3655,
      "Ġzw": 3656,
      "Ġzwie": 3657,
      "Ġkie": 3658,
      "opa": 3659,
      "ise": 3660,
      "Ġak": 3661,
      "Ġuni": 3662,
      "Ġzag": 3663,
      "czyna": 3664,
      "ĠÅĽwiÄħty": 3665,
      "ults": 3666,
      "tii": 3667,
      "ctwo": 3668,
      "]]).": 3669,
      "eryt": 3670,
      "Ġramach": 3671,
      "iecezji": 3672,
      "ĠSocjalisty": 3673,
      "misji": 3674,
      "partamen": 3675,
      "Koszykarz": 3676,
      "ĠWojewÃ³dzkiej": 3677,
      "Nowa": 3678,
      "WÅĤo": 3679,
      "pan": 3680,
      "Ġcia": 3681,
      "iemi": 3682,
      "lit": 3683,
      "czni": 3684,
      "roÅĽliny": 3685,
      "ondyn": 3686,
      "szed": 3687,
      "szenia": 3688,
      "ome": 3689,
      "ĠKu": 3690,
      "Ġgeneral": 3691,
      "ĠbrÄħz": 3692,
      "Ġzabyt": 3693,
      "ĠGru": 3694,
      "els": 3695,
      "noni": 3696,
      "ĠEk": 3697,
      "ĠliczyÅĤa": 3698,
      "Ġeuro": 3699,
      "ĠzespÃ³ÅĤ": 3700,
      "statist": 3701,
      "ymn": 3702,
      "Ġotwar": 3703,
      "athle": 3704,
      "stÄħpi": 3705,
      "stÄħpiÅĤ": 3706,
      "ÄĻgier": 3707,
      "./": 3708,
      "Bo": 3709,
      "Ry": 3710,
      "Si": 3711,
      "ÑĨ": 3712,
      "âĪĴ": 3713,
      "ĨĴ": 3714,
      "iasta": 3715,
      "ree": 3716,
      "ĠpÃ³ÅĤ": 3717,
      "dza": 3718,
      "Ġkra": 3719,
      "ĠksiÄĻ": 3720,
      "ĠSal": 3721,
      "ĠAfry": 3722,
      "ĠLw": 3723,
      "cien": 3724,
      "ĠHol": 3725,
      "otor": 3726,
      "znanie": 3727,
      "Polskie": 3728,
      "Ġ1987": 3729,
      "Ġokre": 3730,
      "Ġ1979": 3731,
      "Ġzesp": 3732,
      "ĠRadzie": 3733,
      "Michael": 3734,
      "ĠNiemiec": 3735,
      "niczej": 3736,
      "Ġtypu": 3737,
      "ĠrozpoczÄĻ": 3738,
      "Ġliczba": 3739,
      "ÅĤadysÅĤaw": 3740,
      "Ġfrancu": 3741,
      "can": 3742,
      "uc": 3743,
      "aru": 3744,
      "''<": 3745,
      "ĠPoÅĤudni": 3746,
      "ĠMary": 3747,
      "Ġgdy": 3748,
      "ĠCze": 3749,
      "Ġwysok": 3750,
      "uter": 3751,
      "zespÃ³ÅĤ": 3752,
      "ĠÅº": 3753,
      "atych": 3754,
      "styka": 3755,
      "olej": 3756,
      "ĠVi": 3757,
      "wikiÅºrÃ³dÅĤa": 3758,
      "kiew": 3759,
      "ĠPaÅĦstw": 3760,
      "Ġfilmie": 3761,
      "Ġuczestnicy": 3762,
      "szedÅĤ": 3763,
      "MP": 3764,
      "Port": 3765,
      "PodziaÅĤ": 3766,
      "RUS": 3767,
      "hymn": 3768,
      "zja": 3769,
      "Ġ000": 3770,
      "ĠpoÅĽ": 3771,
      "Ġparafia": 3772,
      "ĠzarzÄħdza": 3773,
      "Ġdol": 3774,
      "Ġmistrzostw": 3775,
      "ceus": 3776,
      "mite": 3777,
      "nienie": 3778,
      "ĠBra": 3779,
      "ĠRes": 3780,
      "ĠOl": 3781,
      "Ġpochodz": 3782,
      "illa": 3783,
      "ĠFilm": 3784,
      "ĠJed": 3785,
      "allery": 3786,
      "odzina": 3787,
      "mienia": 3788,
      "groda": 3789,
      "oÅĤe": 3790,
      "world": 3791,
      "ĠRecords": 3792,
      "wojewÃ³dztwie": 3793,
      "ĠPaul": 3794,
      "lizacji": 3795,
      "Ġmeczu": 3796,
      "ĠCity": 3797,
      "Ang": 3798,
      "Ni": 3799,
      "dro": 3800,
      "dok": 3801,
      "diecezja": 3802,
      "noÅĽ": 3803,
      "wp": 3804,
      "ygm": 3805,
      "zj": 3806,
      "]];": 3807,
      "star": 3808,
      "ostÄĻp": 3809,
      "Ġaktor": 3810,
      "ĠTur": 3811,
      "czycy": 3812,
      "stacja": 3813,
      "2026": 3814,
      "loka": 3815,
      "imowych": 3816,
      "worzy": 3817,
      "dium": 3818,
      "Char": 3819,
      "ĠLeague": 3820,
      "gram": 3821,
      "Ġmiasto": 3822,
      "Ã¡n": 3823,
      "llum": 3824,
      "useum": 3825,
      "Ġlekkoatlety": 3826,
      "ĠroÅĽlin": 3827,
      "=&": 3828,
      "cal": 3829,
      "dat": 3830,
      "feren": 3831,
      "ini": 3832,
      "kur": 3833,
      "kos": 3834,
      "iana": 3835,
      "licy": 3836,
      "album": 3837,
      "Ġmog": 3838,
      "Ġsi": 3839,
      "Ġkop": 3840,
      "ĠAt": 3841,
      "ĠurzÄĻd": 3842,
      "wynik": 3843,
      "ĠHam": 3844,
      "||||": 3845,
      "ĠUSA": 3846,
      "ĠpodwÃ³j": 3847,
      "muzyka": 3848,
      "ĠArty": 3849,
      "unkty": 3850,
      "Ġplan": 3851,
      "klasa": 3852,
      "ĠotrzymaÅĤ": 3853,
      "Aleksand": 3854,
      "CN": 3855,
      "El": 3856,
      "SS": 3857,
      "Uro": 3858,
      "bol": 3859,
      "her": 3860,
      "ib": 3861,
      "pn": 3862,
      "pÅĤyw": 3863,
      "czej": 3864,
      "ÅĽwiÄĻt": 3865,
      "ĠPi": 3866,
      "ĠPuÅĤk": 3867,
      "ĠmiaÅĤ": 3868,
      "olf": 3869,
      "wizyj": 3870,
      "ĠMedal": 3871,
      "ĠCam": 3872,
      "ĠNo": 3873,
      "koÅĤy": 3874,
      "azowie": 3875,
      "see": 3876,
      "ctor": 3877,
      "Ġszla": 3878,
      "Ġszta": 3879,
      "1972": 3880,
      "Ġstanu": 3881,
      "nosci": 3882,
      "atisti": 3883,
      "Ġligi": 3884,
      "ĠDywizja": 3885,
      "Ġterenie": 3886,
      "%\"": 3887,
      "Bra": 3888,
      "gallery": 3889,
      "ky": 3890,
      "rie": 3891,
      "wskiej": 3892,
      "zg": 3893,
      "Ġprzeg": 3894,
      "onow": 3895,
      "kanat": 3896,
      "Å¼er": 3897,
      "ĠPe": 3898,
      "ĠPiechoty": 3899,
      "ĠkoÅĽciÃ³ÅĤ": 3900,
      "cena": 3901,
      "ĠSi": 3902,
      "ÅĦsko": 3903,
      "Ġ1921": 3904,
      "Ġtr": 3905,
      "ĠJÃ³ze": 3906,
      "ministr": 3907,
      "tof": 3908,
      "Ġnum": 3909,
      "Ġprodu": 3910,
      "jÄħcej": 3911,
      "ĠdziaÅĤal": 3912,
      "bsol": 3913,
      "Ġpozycji": 3914,
      "Bel": 3915,
      "Film": 3916,
      "Hal": 3917,
      "Igrzyska": 3918,
      "Th": 3919,
      "dia": 3920,
      "zda": 3921,
      "Ġan": 3922,
      "]]-[[": 3923,
      "inf": 3924,
      "ĠWar": 3925,
      "ĠMona": 3926,
      "jazd": 3927,
      "Ġ1918": 3928,
      "Ġbie": 3929,
      "ĠTa": 3930,
      "ash": 3931,
      "Ġponad": 3932,
      "gii": 3933,
      "czeÅĽnie": 3934,
      "ĠStan": 3935,
      "ĠÅļwiÄĻt": 3936,
      "Ġkap": 3937,
      "uszcz": 3938,
      "ÑĢÐ°": 3939,
      "ĠÅģodzi": 3940,
      "mann": 3941,
      "ziom": 3942,
      "sfer": 3943,
      "olympics": 3944,
      "adeusz": 3945,
      "szykÃ³wce": 3946,
      "cyklopedia": 3947,
      "nonimy": 3948,
      ".}}": 3949,
      "Gre": 3950,
      "Je": 3951,
      "KP": 3952,
      "Lud": 3953,
      "ciej": 3954,
      "nor": 3955,
      "rch": 3956,
      "raty": 3957,
      "Ġref": 3958,
      "stal": 3959,
      "ĠwedÅĤug": 3960,
      "Ġzbroj": 3961,
      "omoc": 3962,
      "ĠWÅĤo": 3963,
      "âĢĵ[[": 3964,
      "Ġameryka": 3965,
      "ĠFo": 3966,
      "eksy": 3967,
      "ĠJu": 3968,
      "ĠJuni": 3969,
      "Å¼yser": 3970,
      "rii": 3971,
      "ield": 3972,
      "tions": 3973,
      "Ġfla": 3974,
      "Ġ40": 3975,
      "dzien": 3976,
      "Ġspraw": 3977,
      "ĠÅļrod": 3978,
      "Ð¸Ð½": 3979,
      "Ã³dÅº": 3980,
      "wiÄħzku": 3981,
      "Ġdyrektor": 3982,
      "ugby": 3983,
      "ĠCzÄĻ": 3984,
      "Ġrodziny": 3985,
      "ISBN": 3986,
      "atunki": 3987,
      "ĠmiÄĻdzynarod": 3988,
      "ĠPoznaÅĦ": 3989,
      "ĠdziaÅĤania": 3990,
      "ĠSystem": 3991,
      "orpus": 3992,
      "Ġuzyska": 3993,
      "egachi": 3994,
      "iszp": 3995,
      "article": 3996,
      "AUT": 3997,
      "Ga": 3998,
      "San": 3999,
      "base": 4000,
      "dan": 4001,
      "music": 4002,
      "pseudonim": 4003,
      "nast": 4004,
      "owskie": 4005,
      "iatu": 4006,
      "Ġwo": 4007,
      "Ġwiej": 4008,
      "arth": 4009,
      "lex": 4010,
      "szczy": 4011,
      "Ġku": 4012,
      "nem": 4013,
      "tas": 4014,
      "tach": 4015,
      "omet": 4016,
      "ĠCa": 4017,
      "ĠTour": 4018,
      "ĠzaÅĽ": 4019,
      "Ġwybor": 4020,
      "ĠDa": 4021,
      "ott": 4022,
      "bii": 4023,
      "czecin": 4024,
      "ctwa": 4025,
      "1990": 4026,
      "ĠÅļwiÄĻ": 4027,
      "ĠVir": 4028,
      "Ġdepartamen": 4029,
      "Ġ1985": 4030,
      "tektura": 4031,
      "Ġartysty": 4032,
      "rotnie": 4033,
      "Austra": 4034,
      "ĠTytuÅĤ": 4035,
      "rejon": 4036,
      "ĠÅĤaciÅĦska": 4037,
      "formation": 4038,
      "ĠAkademii": 4039,
      "EEEF": 4040,
      "DFEEEF": 4041,
      "ĠzarzÄħdzajÄħcego": 4042,
      "egachile": 4043,
      ")]],": 4044,
      "Pet": 4045,
      "bÄĻ": 4046,
      "bon": 4047,
      "owskim": 4048,
      "linie": 4049,
      "racji": 4050,
      "enda": 4051,
      "odat": 4052,
      "Ġnag": 4053,
      "ĠPiotr": 4054,
      "olnym": 4055,
      "tel": 4056,
      "ĠKoÅĽciÃ³ÅĤ": 4057,
      "ĠDem": 4058,
      "ĠZam": 4059,
      "ĠUkra": 4060,
      "Ġjeden": 4061,
      "Åºni": 4062,
      "]])<": 4063,
      "Polsce": 4064,
      "ĠNastÄĻp": 4065,
      "Ġ1984": 4066,
      "kiewicz": 4067,
      "posaÅ¼": 4068,
      "statek": 4069,
      "ĠfunkcjÄĻ": 4070,
      "ĠczÅĤonkÃ³w": 4071,
      "ĠdruÅ¼yn": 4072,
      "Ġstacji": 4073,
      "Ġposiada": 4074,
      "Ġzachod": 4075,
      "ĠBryga": 4076,
      "Ġistnienia": 4077,
      "Ġstatystyczny": 4078,
      "ĠwojewÃ³dztwie": 4079,
      "szuki": 4080,
      "Hrabstwo": 4081,
      "Nor": 4082,
      "bd": 4083,
      "euro": 4084,
      "nr": 4085,
      "iar": 4086,
      "arne": 4087,
      "cher": 4088,
      "Ã³ra": 4089,
      "ÅĽni": 4090,
      "ĠkrÃ³t": 4091,
      "ĠSu": 4092,
      "ÅĦca": 4093,
      "ĠMil": 4094,
      "ĠbiaÅĤ": 4095,
      "Ġrol": 4096,
      "ĠGaleria": 4097,
      "ciela": 4098,
      "plo": 4099,
      "cyjnych": 4100,
      "aktual": 4101,
      "owiska": 4102,
      "vey": 4103,
      "Ġpracy": 4104,
      "ĠkaÅ¼": 4105,
      "ĠArchi": 4106,
      "wodni": 4107,
      "Ġcharak": 4108,
      "omasz": 4109,
      "ĠczÅĤonkiem": 4110,
      "ĠpodziaÅĤu": 4111,
      "ĠwzglÄĻdem": 4112,
      "Ġswojej": 4113,
      "=#": 4114,
      ">)": 4115,
      "GR": 4116,
      "Nar": 4117,
      "PL": 4118,
      "Wsie": 4119,
      "kat": 4120,
      "]]âĢĵ[[": 4121,
      "Ġpier": 4122,
      "ning": 4123,
      "Ġsek": 4124,
      "Ġkultu": 4125,
      "laz": 4126,
      "1939": 4127,
      "ĠKazimierz": 4128,
      "rane": 4129,
      "rÃ³b": 4130,
      "azie": 4131,
      "artin": 4132,
      "ican": 4133,
      "Ġ60": 4134,
      "Ġ1986": 4135,
      "worz": 4136,
      "cjon": 4137,
      "orzÄħd": 4138,
      "ĠzostaÅĤy": 4139,
      "ĠKrzyÅ¼": 4140,
      "ĠdÅĤugoÅĽci": 4141,
      "MÅļ": 4142,
      "Megachile": 4143,
      "Op": 4144,
      "Sil": 4145,
      "World": 4146,
      "cor": 4147,
      "gre": 4148,
      "zarzÄħdza": 4149,
      "atr": 4150,
      "chia": 4151,
      "Ġpob": 4152,
      "ĠpuÅĤ": 4153,
      "Äħbr": 4154,
      "lega": 4155,
      "ĠPWN": 4156,
      "waj": 4157,
      "urt": 4158,
      "Ġapostol": 4159,
      "ategorii": 4160,
      "ĠLeg": 4161,
      "ĠGra": 4162,
      "ĠOg": 4163,
      "ĠJest": 4164,
      "Ġodzna": 4165,
      "rÃ³ciÅĤ": 4166,
      "zwaj": 4167,
      "Ġ44": 4168,
      "1995": 4169,
      "\"|'''": 4170,
      "ĠInformation": 4171,
      "ĠMini": 4172,
      "Ġ1952": 4173,
      "ĠSztu": 4174,
      "ÐµÐ»": 4175,
      "ques": 4176,
      "Ġmiejsc": 4177,
      "Ġstudia": 4178,
      "FormuÅĤa": 4179,
      "ĠosiÄħg": 4180,
      "noÅĽlÄħ": 4181,
      "zarzÄħdzajÄħcy": 4182,
      "91": 4183,
      "EN": 4184,
      "Leg": 4185,
      "WedÅĤug": 4186,
      "dra": 4187,
      "ujednoznacznienie": 4188,
      "wodzie": 4189,
      "Ġur": 4190,
      "Ġarchi": 4191,
      "Ġani": 4192,
      "ĠÅĤÄħ": 4193,
      "Ġruch": 4194,
      "ato": 4195,
      "Ġpe": 4196,
      "Ġdra": 4197,
      "Ġkryty": 4198,
      "lament": 4199,
      "teb": 4200,
      "Ġge": 4201,
      "Ġoj": 4202,
      "rysty": 4203,
      "rybu": 4204,
      "Ġzas": 4205,
      "cjach": 4206,
      "Ġjedy": 4207,
      "synonimy": 4208,
      "weÅĤ": 4209,
      "sezon": 4210,
      "Ġobie": 4211,
      "ezi": 4212,
      "Ġspe": 4213,
      "wikispecies": 4214,
      "Ð¾Ð»": 4215,
      "ĠniÅ¼": 4216,
      "przebieg": 4217,
      "walifika": 4218,
      "ĠzaÅĤoÅ¼enia": 4219,
      "mentarzu": 4220,
      "Wielka": 4221,
      "ĠpoÅĤoÅ¼ona": 4222,
      "zydent": 4223,
      "ĠToruÅĦ": 4224,
      "Ġbardzo": 4225,
      "Bu": 4226,
      "Dis": 4227,
      "ID": 4228,
      "con": 4229,
      "ds": 4230,
      "ksztaÅĤ": 4231,
      "rr": 4232,
      "tt": 4233,
      "vol": 4234,
      "Å«": 4235,
      "Ġru": 4236,
      "]]âĢĿ": 4237,
      "Ġwolumin": 4238,
      "Ã³dz": 4239,
      "niony": 4240,
      "kazu": 4241,
      "ĠPl": 4242,
      "Ġmor": 4243,
      "ĠsÅĤu": 4244,
      "Ġkor": 4245,
      "ĠAm": 4246,
      "Ġawans": 4247,
      "ogo": 4248,
      "ĠOÅĽ": 4249,
      "ektor": 4250,
      "orge": 4251,
      "Ġtext": 4252,
      "Ġnumer": 4253,
      "Ġ90": 4254,
      "sied": 4255,
      "praca": 4256,
      "ralny": 4257,
      "dziale": 4258,
      "Ã³lno": 4259,
      "ĠÅ¼oÅĤnie": 4260,
      "Ġwielu": 4261,
      "Ġbiskup": 4262,
      "ĠPoznaniu": 4263,
      "rebrny": 4264,
      "ukcesja": 4265,
      "Ġdepartamencie": 4266,
      "LK": 4267,
      "Piotr": 4268,
      "UB": 4269,
      "Wie": 4270,
      "mm": 4271,
      "mon": 4272,
      "uz": 4273,
      "Ġran": 4274,
      "nan": 4275,
      "ark": 4276,
      "arna": 4277,
      "arty": 4278,
      "arstwo": 4279,
      "libr": 4280,
      "Ġzwyczaj": 4281,
      "Ġdi": 4282,
      "szka": 4283,
      "lana": 4284,
      "kus": 4285,
      "Ġuczel": 4286,
      "ĠNational": 4287,
      "ĠGar": 4288,
      "ĠOf": 4289,
      "istrzy": 4290,
      "ĠJohn": 4291,
      "wiazd": 4292,
      "hite": 4293,
      "onety": 4294,
      "Ġtych": 4295,
      "Ġherb": 4296,
      "Ð¾ÑĢ": 4297,
      "Ġpolskich": 4298,
      "1980": 4299,
      "1987": 4300,
      "Ġ1951": 4301,
      "kowym": 4302,
      "Ġ1933": 4303,
      "dio": 4304,
      "pieÅ¼": 4305,
      "Ġczasopismo": 4306,
      "ĠUniversity": 4307,
      "EFA": 4308,
      "ĠRosyj": 4309,
      "ĠâĨĴ": 4310,
      "KrakÃ³w": 4311,
      "ĠsÅĤuÅ¼by": 4312,
      "Ġangielski": 4313,
      "110": 4314,
      "94": 4315,
      "BR": 4316,
      "FIN": 4317,
      "zw": 4318,
      "stÃ³w": 4319,
      "Ġwa": 4320,
      "onor": 4321,
      "szenie": 4322,
      "ĠPartia": 4323,
      "aler": 4324,
      "Ġseria": 4325,
      "Ġsolid": 4326,
      "mil": 4327,
      "lad": 4328,
      "ĠWschod": 4329,
      "osob": 4330,
      "file": 4331,
      "ĠNi": 4332,
      "Ġdoty": 4333,
      "basket": 4334,
      "Ġfrom": 4335,
      "Ġdziel": 4336,
      "ontra": 4337,
      "StanisÅĤaw": 4338,
      "paÅĦstwoL": 4339,
      "anecz": 4340,
      "Ġkadencji": 4341,
      "Ġ1972": 4342,
      "Ġwojnie": 4343,
      "Ġ1946": 4344,
      "ĠProfil": 4345,
      "pejskim": 4346,
      "rÃ³lestwo": 4347,
      "ĠrozpoczÄħÅĤ": 4348,
      "phyllum": 4349,
      "ĠpracowaÅĤ": 4350,
      "ĠpoczÄħtku": 4351,
      "Ġszach": 4352,
      "Ġturnieju": 4353,
      "ĠZachod": 4354,
      "Ed": 4355,
      "Groma": 4356,
      "Lin": 4357,
      "Rze": 4358,
      "Tur": 4359,
      "fan": 4360,
      "hl": 4361,
      "sam": 4362,
      "czu": 4363,
      "sztof": 4364,
      "ĠSan": 4365,
      "ĠSpe": 4366,
      "ĠBur": 4367,
      "ĠNowa": 4368,
      "iÄĻk": 4369,
      "Ġpoch": 4370,
      "ĠJork": 4371,
      "rich": 4372,
      "itwa": 4373,
      "Ġhistorii": 4374,
      "oniec": 4375,
      "Archi": 4376,
      "iller": 4377,
      "ĠkoszykÃ³wce": 4378,
      "Ġtrady": 4379,
      "Ġokresie": 4380,
      "szykÃ³wka": 4381,
      "ĠÅĤaciÅĦski": 4382,
      "Ġlotniczy": 4383,
      "Ġhrabstwie": 4384,
      "/|": 4385,
      "AB": 4386,
      "AM": 4387,
      "NOR": 4388,
      "ZwiÄħzek": 4389,
      "bal": 4390,
      "ccy": 4391,
      "cation": 4392,
      "ev": 4393,
      "gin": 4394,
      "hn": 4395,
      "lÄħd": 4396,
      "masa": 4397,
      "nÄĻ": 4398,
      "val": 4399,
      "Ġy": 4400,
      "ĠÎ": 4401,
      "ĠâĢ": 4402,
      "ÅĤom": 4403,
      "nator": 4404,
      "owoÅĽÄĩ": 4405,
      "Ã³rze": 4406,
      "niÅ¼": 4407,
      "Ġzbud": 4408,
      "Ġder": 4409,
      "Ġmedali": 4410,
      "mid": 4411,
      "ĠSezon": 4412,
      "ĠgÅĤos": 4413,
      "osoba": 4414,
      "isty": 4415,
      "ĠZSRR": 4416,
      "Ġ36": 4417,
      "tera": 4418,
      "Ġ49": 4419,
      "Ġnow": 4420,
      "Ġprawa": 4421,
      "ĠÐ¿": 4422,
      "Ġdrugi": 4423,
      "rowadzi": 4424,
      "mentu": 4425,
      "esti": 4426,
      "avid": 4427,
      "Ġmiejsca": 4428,
      "ciÄħg": 4429,
      "ĠgatunkÃ³w": 4430,
      "Muzeum": 4431,
      "Ġrodzaju": 4432,
      "nastÄĻpny": 4433,
      "ĠÅĽwiÄħtyni": 4434,
      "ĠÅļwiÄĻtego": 4435,
      "ĠNastÄĻpnie": 4436,
      "\">[": 4437,
      "Ek": 4438,
      "Jo": 4439,
      "Kom": 4440,
      "Mat": 4441,
      "Pra": 4442,
      "Vi": 4443,
      "ZSRR": 4444,
      "cÄĻ": 4445,
      "kolum": 4446,
      "wnoÅĽÄĩ": 4447,
      "''),": 4448,
      "rena": 4449,
      "czka": 4450,
      "nicze": 4451,
      "Ġdia": 4452,
      "olu": 4453,
      "ĠksztaÅĤ": 4454,
      "Ġigrzyska": 4455,
      "kiwa": 4456,
      "ĠWa": 4457,
      "Ġgroup": 4458,
      "osa": 4459,
      "owali": 4460,
      "stawy": 4461,
      "etro": 4462,
      "ĠÅĽwie": 4463,
      "ktry": 4464,
      "ĠmajÄħ": 4465,
      "znaw": 4466,
      "eryka": 4467,
      "Ġ1982": 4468,
      "ĠInstytut": 4469,
      "ĠMinister": 4470,
      "1989": 4471,
      "ecjal": 4472,
      "Ġkonkuren": 4473,
      "stopieÅĦ": 4474,
      "ohan": 4475,
      "Ġprzedstawi": 4476,
      "Ġartyku": 4477,
      "Ġkarier": 4478,
      "aspx": 4479,
      "ĠnazwÄĻ": 4480,
      "Ġkilka": 4481,
      "mperium": 4482,
      "transfer": 4483,
      "ĠPawÅĤa": 4484,
      "Albumy": 4485,
      "ĠOchrony": 4486,
      "ĠciaÅĤa": 4487,
      "Gru": 4488,
      "Kam": 4489,
      "MiÄĻdzynarod": 4490,
      "New": 4491,
      "bat": 4492,
      "mot": 4493,
      "pta": 4494,
      "uplo": 4495,
      "orem": 4496,
      "rebro": 4497,
      "ross": 4498,
      "Ġziel": 4499,
      "entu": 4500,
      "Äħdu": 4501,
      "ĠPat": 4502,
      "ĠPubli": 4503,
      "ĠPraw": 4504,
      "tym": 4505,
      "dziej": 4506,
      "Ġkatolicki": 4507,
      "ĠMistrz": 4508,
      "atalion": 4509,
      "ĠRugby": 4510,
      "ĠzajÄĻ": 4511,
      "ĠDel": 4512,
      "ĠÅĽwiÄĻ": 4513,
      "sych": 4514,
      "Å¼yÅĤ": 4515,
      "wiad": 4516,
      "Ġ52": 4517,
      "arafie": 4518,
      "ographi": 4519,
      "Ġwiek": 4520,
      "ĠpowoÅĤ": 4521,
      "jÄħcym": 4522,
      "Ġ1938": 4523,
      "Pozna": 4524,
      "dopod": 4525,
      "Ġgminie": 4526,
      "DEC": 4527,
      "ĠzwiÄħzku": 4528,
      "ĠdowÃ³d": 4529,
      "ĠMatki": 4530,
      "poprzedni": 4531,
      "ĠÃĹ": 4532,
      "ĠmoÅ¼na": 4533,
      "lalom": 4534,
      "Letnie": 4535,
      "tails": 4536,
      "Corticeus": 4537,
      "ÅĽwiÄĻtszej": 4538,
      "aneczkar": 4539,
      "93": 4540,
      "Akade": 4541,
      "FI": 4542,
      "Fil": 4543,
      "MW": 4544,
      "Mon": 4545,
      "Sukcesja": 4546,
      "bez": 4547,
      "dostÄĻp": 4548,
      "gur": 4549,
      "kcja": 4550,
      "mand": 4551,
      "ring": 4552,
      "sÅĤu": 4553,
      "Å¾": 4554,
      "Ð·": 4555,
      "Ġne": 4556,
      "ias": 4557,
      "Ġponow": 4558,
      "rock": 4559,
      "rodek": 4560,
      "Ġnauk": 4561,
      "szki": 4562,
      "ĠPress": 4563,
      "Ġkry": 4564,
      "ĠMor": 4565,
      "obnie": 4566,
      "ĠKrÃ³le": 4567,
      "Ġakade": 4568,
      "uba": 4569,
      "mem": 4570,
      "owaÅĤo": 4571,
      "anym": 4572,
      "Ġzawie": 4573,
      "skiem": 4574,
      "ĠJo": 4575,
      "Ġsprze": 4576,
      "Ġrozeg": 4577,
      "250": 4578,
      "ĠPoz": 4579,
      "stoch": 4580,
      "='''{{": 4581,
      "Ġnim": 4582,
      "dowÃ³dca": 4583,
      "rzelcÃ³w": 4584,
      "ĠNaukowe": 4585,
      "statistics": 4586,
      "Urophyllum": 4587,
      "GÃ³r": 4588,
      "Kol": 4589,
      "tkow": 4590,
      "zh": 4591,
      "ÃŁ": 4592,
      "ĠoÅĽ": 4593,
      "ĠÄĮ": 4594,
      "owskiej": 4595,
      "Ġpunkt": 4596,
      "ĠPary": 4597,
      "egi": 4598,
      "ney": 4599,
      "Ã³wczas": 4600,
      "Ġ1924": 4601,
      "Ġ1928": 4602,
      "rzele": 4603,
      "Ġstatisti": 4604,
      "ĠBud": 4605,
      "ĠCol": 4606,
      "owaÅĤy": 4607,
      "ĠNoÅ¼": 4608,
      "Ġter": 4609,
      "iÄĻki": 4610,
      "asach": 4611,
      "Ġpoziom": 4612,
      "Ġ35": 4613,
      "biskup": 4614,
      "Ġniej": 4615,
      "toni": 4616,
      "ĠChrist": 4617,
      "Ġfir": 4618,
      "Ġpowodu": 4619,
      "Ġ1971": 4620,
      "Ġ1978": 4621,
      "markt": 4622,
      "FFFF": 4623,
      "ÃŃa": 4624,
      "anisÅĤawa": 4625,
      "Andrzej": 4626,
      "ESP": 4627,
      "ternational": 4628,
      "Ġzajmu": 4629,
      "Robert": 4630,
      "EL": 4631,
      "Fi": 4632,
      "Har": 4633,
      "Ind": 4634,
      "KO": 4635,
      "My": 4636,
      "].</": 4637,
      "bram": 4638,
      "emi": 4639,
      "ela": 4640,
      "ice": 4641,
      "pierw": 4642,
      "wÄĻ": 4643,
      "wÄħ": 4644,
      "zer": 4645,
      "ĉĉ": 4646,
      "Ġ\\": 4647,
      "stka": 4648,
      "iasto": 4649,
      "regi": 4650,
      "oman": 4651,
      "ĠGÅĤÃ³w": 4652,
      "cieli": 4653,
      "undes": 4654,
      "dyj": 4655,
      "Ġ258": 4656,
      "Ġindywidual": 4657,
      "zawÃ³d": 4658,
      "ĠUEFA": 4659,
      "bignie": 4660,
      "thle": 4661,
      "czech": 4662,
      "match": 4663,
      "ĠChampions": 4664,
      "ĠpaÅĦstw": 4665,
      "jÄħcÄħ": 4666,
      "miany": 4667,
      "alifor": 4668,
      "rÃ³dÅĤo": 4669,
      "ĠRzesz": 4670,
      "feta": 4671,
      "Ġczyli": 4672,
      "Czas": 4673,
      "ĠAnna": 4674,
      "CHE": 4675,
      "Ġliczby": 4676,
      "Ġklasyfikacji": 4677,
      "ĠOpen": 4678,
      "twÃ³rnia": 4679,
      "ederal": 4680,
      "Ġtelewizyj": 4681,
      ">''[[": 4682,
      "Ġdrugiej": 4683,
      "Ġflagi": 4684,
      "ĠNoÅ¼nej": 4685,
      "Cer": 4686,
      "Che": 4687,
      "Londyn": 4688,
      "Pos": 4689,
      "RL": 4690,
      "Sp": 4691,
      "SkÅĤad": 4692,
      "Zas": 4693,
      "bow": 4694,
      "bory": 4695,
      "cenia": 4696,
      "eles": 4697,
      "kcie": 4698,
      "pal": 4699,
      "tat": 4700,
      "Ġwarsza": 4701,
      "arza": 4702,
      "Ġzbior": 4703,
      "Ġdwie": 4704,
      "ÅĽniej": 4705,
      "szcza": 4706,
      "Å¼bie": 4707,
      "Ġsub": 4708,
      "osty": 4709,
      "obwÃ³d": 4710,
      "rzeb": 4711,
      "rzem": 4712,
      "ĠgÅĤ": 4713,
      "Ġbroni": 4714,
      "ĠAmery": 4715,
      "ĠDom": 4716,
      "ĠIV": 4717,
      "dystry": 4718,
      "ĠHy": 4719,
      "Ġ34": 4720,
      "Ġinfor": 4721,
      "ake": 4722,
      "ĠÐ¡": 4723,
      "Ġwiele": 4724,
      "Ġwojen": 4725,
      "strument": 4726,
      "fff": 4727,
      "obiekt": 4728,
      "Ġ1968": 4729,
      "piÅĤkarz": 4730,
      "ĠFrancisz": 4731,
      "ĠWielkopol": 4732,
      "znaczenie": 4733,
      "Rosja": 4734,
      "Ġtechni": 4735,
      "sortname": 4736,
      "Ġzamieszkiwa": 4737,
      "ĠwysokoÅĽci": 4738,
      "Ġapostolska": 4739,
      "transfermarkt": 4740,
      "978": 4741,
      "Gi": 4742,
      "Ser": 4743,
      "ima": 4744,
      "jan": 4745,
      "pÅĤy": 4746,
      "ure": 4747,
      "Õ¡": 4748,
      "Ġeg": 4749,
      "Ġska": 4750,
      "lip": 4751,
      "liny": 4752,
      "skrÃ³t": 4753,
      "Ġsa": 4754,
      "ĠkoÅĽcioÅĤa": 4755,
      "miu": 4756,
      "lak": 4757,
      "ĠMag": 4758,
      "ĠBal": 4759,
      "Ġgry": 4760,
      "cade": 4761,
      "ĠDol": 4762,
      "ĠZimowych": 4763,
      "ĠJag": 4764,
      "zacji": 4765,
      "ulation": 4766,
      "ĠUS": 4767,
      "ĠreÅ¼yser": 4768,
      "owanego": 4769,
      "administr": 4770,
      "search": 4771,
      "orea": 4772,
      "ography": 4773,
      "grzysk": 4774,
      "ecnie": 4775,
      "wojewÃ³dztwa": 4776,
      "ĠWojciech": 4777,
      "Ġwydanie": 4778,
      "aksymal": 4779,
      "lizacja": 4780,
      "ĠwspÃ³l": 4781,
      "discogs": 4782,
      "ĠspoÅĤe": 4783,
      "Ġzakres": 4784,
      "Ġspotk": 4785,
      "census": 4786,
      "ĠBrytania": 4787,
      "Sportowiec": 4788,
      ".<": 4789,
      "Co": 4790,
      "HL": 4791,
      "He": 4792,
      "Przed": 4793,
      "Sk": 4794,
      "WÅĤad": 4795,
      "ban": 4796,
      "fer": 4797,
      "gia": 4798,
      "gol": 4799,
      "hel": 4800,
      "lob": 4801,
      "lian": 4802,
      "lÃ©": 4803,
      "monety": 4804,
      "ux": 4805,
      "Ã½": 4806,
      "liz": 4807,
      "liÅĦski": 4808,
      "kapi": 4809,
      "ĠSzy": 4810,
      "nieje": 4811,
      "wikin": 4812,
      "ĠMad": 4813,
      "ĠRod": 4814,
      "ĠAleksand": 4815,
      "osÃ³b": 4816,
      "ryt": 4817,
      "ĠwyÅĽci": 4818,
      "ciem": 4819,
      "wych": 4820,
      "wyznanie": 4821,
      "dycja": 4822,
      "Ġinnymi": 4823,
      "ÅĤot": 4824,
      "stawia": 4825,
      "organiz": 4826,
      "Ġreda": 4827,
      "ical": 4828,
      "258": 4829,
      "ssocia": 4830,
      "aturze": 4831,
      "Ġopera": 4832,
      "Ġczynne": 4833,
      "ĠgÅĤÃ³wnie": 4834,
      "football": 4835,
      "Ġolimpijskich": 4836,
      "Ġreprezentacji": 4837,
      "Ġpozosta": 4838,
      "ondon": 4839,
      "Ġorganizacji": 4840,
      "ĠOkrÄĻg": 4841,
      "ĠPrix": 4842,
      "producent": 4843,
      "erzego": 4844,
      "illiam": 4845,
      "debiutowaÅĤ": 4846,
      "ĠzamkniÄĻcia": 4847,
      "Ġlekkoatletyce": 4848,
      "wikinews": 4849,
      "!!": 4850,
      "){{": 4851,
      "Ki": 4852,
      "Przy": 4853,
      "bank": 4854,
      "ex": 4855,
      "ger": 4856,
      "history": 4857,
      "mos": 4858,
      "mpl": 4859,
      "oko": 4860,
      "rin": 4861,
      "rwi": 4862,
      "|+": 4863,
      "stanie": 4864,
      "ĠpÅĤ": 4865,
      "Ġpog": 4866,
      "Ġpiechoty": 4867,
      "rzu": 4868,
      "Ġda": 4869,
      "Ġnapis": 4870,
      "sztyn": 4871,
      "kal": 4872,
      "ĠPZ": 4873,
      "cem": 4874,
      "ĠSm": 4875,
      "wana": 4876,
      "isa": 4877,
      "isu": 4878,
      "obro": 4879,
      "ĠKor": 4880,
      "ĠKlub": 4881,
      "ĠAzji": 4882,
      "kowska": 4883,
      "Ġakty": 4884,
      "cami": 4885,
      "ĠNad": 4886,
      "Ġlok": 4887,
      "ĠHu": 4888,
      "eks": 4889,
      "eth": 4890,
      "ĠJak": 4891,
      "baker": 4892,
      "system": 4893,
      "Ġ38": 4894,
      "wiar": 4895,
      "Ġcer": 4896,
      "owicach": 4897,
      "Ġjednostki": 4898,
      "Ġtek": 4899,
      "results": 4900,
      "sach": 4901,
      "arzÄħd": 4902,
      "Ġwojska": 4903,
      "ÐµÑĢ": 4904,
      "orzÄħdz": 4905,
      "polski": 4906,
      "Ġvon": 4907,
      "pozytor": 4908,
      "UTC": 4909,
      "ĠAngeles": 4910,
      "Ġwykorzy": 4911,
      "kurencja": 4912,
      "atalogue": 4913,
      "owaniu": 4914,
      "ederacji": 4915,
      "ĠLove": 4916,
      "ĠXIX": 4917,
      "Ġkonsekracji": 4918,
      "ĠGranicznej": 4919,
      "kolumna": 4920,
      "AL": 4921,
      "Absol": 4922,
      "CZ": 4923,
      "GC": 4924,
      "Gali": 4925,
      "Her": 4926,
      "Pierw": 4927,
      "dÃ³w": 4928,
      "hu": 4929,
      "ira": 4930,
      "kro": 4931,
      "lon": 4932,
      "np": 4933,
      "prowincja": 4934,
      "tok": 4935,
      "vy": 4936,
      "|âĢĵ": 4937,
      "Ġ:": 4938,
      "Ġnich": 4939,
      "Ġ|[[": 4940,
      "Ġwprowadz": 4941,
      "atury": 4942,
      "Ġpas": 4943,
      "rzÄħdz": 4944,
      "Ġds": 4945,
      "Ġnational": 4946,
      "lease": 4947,
      "dziÅĤ": 4948,
      "oper": 4949,
      "lamentu": 4950,
      "jek": 4951,
      "ĠWier": 4952,
      "tekt": 4953,
      "Ġgrzy": 4954,
      "Ġgospodar": 4955,
      "met": 4956,
      "mech": 4957,
      "Ġoficjal": 4958,
      "ĠGdy": 4959,
      "mad": 4960,
      "Ġpoja": 4961,
      "ĠZbroj": 4962,
      "ĠFi": 4963,
      "ets": 4964,
      "ublin": 4965,
      "Ġodkry": 4966,
      "adania": 4967,
      "Ġjednym": 4968,
      "Ġteat": 4969,
      "cts": 4970,
      "hire": 4971,
      "]]''</": 4972,
      "Ġgrafika": 4973,
      "Ġrazem": 4974,
      "Ġ1969": 4975,
      "Ġwile": 4976,
      "ĠMuzy": 4977,
      "ĠzwiÄħzani": 4978,
      "ĠszerokoÅĽÄĩ": 4979,
      "ĠObrony": 4980,
      "ochod": 4981,
      "media": 4982,
      "rewnia": 4983,
      "ĠkoÅĦca": 4984,
      "ĠGdaÅĦsk": 4985,
      "Ġsztuki": 4986,
      "Ð¸Ñĩ": 4987,
      "rzymskokatoli": 4988,
      "awodnik": 4989,
      "Ġponownie": 4990,
      "Hol": 4991,
      "Historia": 4992,
      "Jerzy": 4993,
      "NE": 4994,
      "Rad": 4995,
      "bin": 4996,
      "dal": 4997,
      "ding": 4998,
      "doc": 4999,
      "doby": 5000,
      "pon": 5001,
      "Ñħ": 5002,
      "iec": 5003,
      "stor": 5004,
      "strona": 5005,
      "ortu": 5006,
      "czony": 5007,
      "enty": 5008,
      "kacji": 5009,
      "ceae": 5010,
      "nya": 5011,
      "rzeÅĽci": 5012,
      "1918": 5013,
      "Ġstrona": 5014,
      "dacji": 5015,
      "ĠgÃ³r": 5016,
      "ĠClub": 5017,
      "Ġuzna": 5018,
      "ĠTri": 5019,
      "Ġzakon": 5020,
      "owymi": 5021,
      "wytwÃ³rnia": 5022,
      "ĠZap": 5023,
      "wierzÄĻ": 5024,
      "ĠHistory": 5025,
      "okrÄĻ": 5026,
      "Ġlikwi": 5027,
      "Ġmaszy": 5028,
      "Ġ51": 5029,
      "bytek": 5030,
      "miny": 5031,
      "Ġha": 5032,
      "Stan": 5033,
      "mator": 5034,
      "Wyniki": 5035,
      "books": 5036,
      "ÅĤonkowie": 5037,
      "ĠOdrodz": 5038,
      "Ġstudi": 5039,
      "ĠLudowa": 5040,
      "ĠzostaÅĤo": 5041,
      "Ġsiatkowej": 5042,
      "rzymskokatolicki": 5043,
      "hongo": 5044,
      "Ġbudynku": 5045,
      "Ġwygener": 5046,
      "dgoszcz": 5047,
      "ĠzabytkÃ³w": 5048,
      "ĠMaryi": 5049,
      "bigniew": 5050,
      "\",": 5051,
      "/?": 5052,
      "Da": 5053,
      "Gu": 5054,
      "Lub": 5055,
      "SM": 5056,
      "king": 5057,
      "rs": 5058,
      "ust": 5059,
      "wÅĤa": 5060,
      "|âĪĴ": 5061,
      "ĠÂ": 5062,
      "iet": 5063,
      "sters": 5064,
      "ÅĤop": 5065,
      "orÄħ": 5066,
      "ars": 5067,
      "reÅ¼": 5068,
      "skar": 5069,
      "Ġnale": 5070,
      "ĠSpraw": 5071,
      "ĠSuper": 5072,
      "wice": 5073,
      "jaw": 5074,
      "Ġ1920": 5075,
      "zycja": 5076,
      "ĠRu": 5077,
      "ĠAmer": 5078,
      "Ġau": 5079,
      "kupa": 5080,
      "ĠLot": 5081,
      "Ġuch": 5082,
      "Ġwydaw": 5083,
      "koszykÃ³wka": 5084,
      "ude": 5085,
      "oxing": 5086,
      "Ġrek": 5087,
      "ÅĤugo": 5088,
      "Ġtytu": 5089,
      "ĠÐ½": 5090,
      "***": 5091,
      "Ġpowiatu": 5092,
      "marÅĤ": 5093,
      "Ġ1948": 5094,
      "Ð½Ð°": 5095,
      "Paul": 5096,
      "viz": 5097,
      "ĠdzieÅĦ": 5098,
      "Ġwith": 5099,
      "landii": 5100,
      "ĠutworÃ³w": 5101,
      "Ġbota": 5102,
      "Ġkilku": 5103,
      "ĠwojewÃ³dztwa": 5104,
      "Ukraina": 5105,
      "ĠPiÅĤce": 5106,
      "athletes": 5107,
      "ĠJuniorÃ³w": 5108,
      "Ġwygenerowany": 5109,
      "!}}": 5110,
      "=|": 5111,
      "Nau": 5112,
      "jo": 5113,
      "num": 5114,
      "pÄĻ": 5115,
      "run": 5116,
      "ye": 5117,
      "áĥ": 5118,
      "Ġ?": 5119,
      "Ġhe": 5120,
      "Ġhi": 5121,
      "ĠwÅĽrÃ³d": 5122,
      "czba": 5123,
      "Å¼enia": 5124,
      "ĠPrzed": 5125,
      "Ġmistrz": 5126,
      "Ġmazowie": 5127,
      "tudes": 5128,
      "ĠSie": 5129,
      "lag": 5130,
      "jew": 5131,
      "1936": 5132,
      "ĠKoÅĽci": 5133,
      "ĠKorpus": 5134,
      "oss": 5135,
      "umu": 5136,
      "Ġulicy": 5137,
      "ĠzajÄħÅĤ": 5138,
      "Ġlo": 5139,
      "okraty": 5140,
      "Ġprzemy": 5141,
      "plom": 5142,
      "ront": 5143,
      "riusz": 5144,
      "oju": 5145,
      "miÄĻdzy": 5146,
      "ology": 5147,
      "anton": 5148,
      "1970": 5149,
      "Ġlecz": 5150,
      "All": 5151,
      "status": 5152,
      "Inne": 5153,
      "ĠmiaÅĤa": 5154,
      "1946": 5155,
      "ĠKomite": 5156,
      "Ġwydania": 5157,
      "Ġsezon": 5158,
      "Ġeksp": 5159,
      "Ġumie": 5160,
      "ĠukoÅĦczyÅĤ": 5161,
      "Ġprzenie": 5162,
      "ĠZasÅĤugi": 5163,
      "SWE": 5164,
      "Ġkiedy": 5165,
      "aneczkarstwie": 5166,
      ".'''": 5167,
      "Bor": 5168,
      "CO": 5169,
      "Kana": 5170,
      "Rod": 5171,
      "UK": 5172,
      "WÅĤadysÅĤaw": 5173,
      "ceg": 5174,
      "dÄĻ": 5175,
      "ena": 5176,
      "field": 5177,
      "prÄĻdkoÅĽÄĩ": 5178,
      "ÅĤm": 5179,
      "nami": 5180,
      "Ġper": 5181,
      "erni": 5182,
      "enc": 5183,
      "Ġmis": 5184,
      "Ġsyn": 5185,
      "ĠSlo": 5186,
      "jedyn": 5187,
      "ÅĦcz": 5188,
      "'''<": 5189,
      "wita": 5190,
      "zyden": 5191,
      "ĠBog": 5192,
      "Ġgre": 5193,
      "ĠApost": 5194,
      "ĠCor": 5195,
      "ĠOly": 5196,
      "map": 5197,
      "ĠZwiÄħzku": 5198,
      "||+": 5199,
      "pisu": 5200,
      "Ġ45": 5201,
      "ĠStanisÅĤaw": 5202,
      "Ġ500": 5203,
      "arts": 5204,
      "ĠrozwiÄħz": 5205,
      "Ġpracow": 5206,
      "cof": 5207,
      "Ġnomina": 5208,
      "Ġ1970": 5209,
      "1974": 5210,
      "podlegÅĤ": 5211,
      "Ġwielkopol": 5212,
      "ĠÅ¼ycia": 5213,
      "ĠTech": 5214,
      "dukcja": 5215,
      "poprzednie": 5216,
      "ĠokrÄĻgu": 5217,
      "Äħcych": 5218,
      "ĠPanny": 5219,
      "Ġgromady": 5220,
      "celona": 5221,
      "Ġobecnie": 5222,
      "Ġregionie": 5223,
      "ÅĤodzieÅ¼": 5224,
      "Ġrejonie": 5225,
      "ĠsiedzibÄħ": 5226,
      "doktor": 5227,
      "ĠpodwÃ³jna": 5228,
      "Ġlikwidacji": 5229,
      ">-": 5230,
      "AZ": 5231,
      "AUS": 5232,
      "Di": 5233,
      "Klub": 5234,
      "Lekkoatlety": 5235,
      "Mad": 5236,
      "Os": 5237,
      "Su": 5238,
      "Tak": 5239,
      "UCN": 5240,
      "WTA": 5241,
      "ction": 5242,
      "konsek": 5243,
      "porzÄħdz": 5244,
      "rd": 5245,
      "rpl": 5246,
      "unika": 5247,
      "wory": 5248,
      "ÄĽ": 5249,
      "Ġ|-": 5250,
      "nagrody": 5251,
      "retar": 5252,
      "Ġnawy": 5253,
      "Ġserii": 5254,
      "Ġkatoli": 5255,
      "cio": 5256,
      "tain": 5257,
      "tami": 5258,
      "jewski": 5259,
      "ĠWol": 5260,
      "1959": 5261,
      "ĠBeÅĤ": 5262,
      "Ġbli": 5263,
      "Ġbur": 5264,
      "Ġozna": 5265,
      "ĠzaÅĤoÅ¼y": 5266,
      "got": 5267,
      "etoi": 5268,
      "ĠÅĽlÄħ": 5269,
      "ckÄħ": 5270,
      "||{{": 5271,
      "ĠreÅ¼": 5272,
      "andard": 5273,
      "Ġ43": 5274,
      "czeÅĽniej": 5275,
      "Ġniekt": 5276,
      "ĠrÄĻ": 5277,
      "olet": 5278,
      "antÃ³w": 5279,
      "unisty": 5280,
      "ĠleÅ¼": 5281,
      "Ġchemi": 5282,
      "Ġ1965": 5283,
      "Ġpierwszej": 5284,
      "ĠUnited": 5285,
      "kontyn": 5286,
      "ĠswojÄħ": 5287,
      "dzkim": 5288,
      "gminy": 5289,
      "aktywnoÅĽÄĩ": 5290,
      "mistrzostw": 5291,
      "ĠÃ©c": 5292,
      "ĠskÅĤada": 5293,
      "ĠKultury": 5294,
      "wareka": 5295,
      "Ġherbu": 5296,
      "Ġakademi": 5297,
      "thletic": 5298,
      "mechaniz": 5299,
      "Lekkoatletyka": 5300,
      "At": 5301,
      "Szwaj": 5302,
      "Ta": 5303,
      "dr": 5304,
      "fl": 5305,
      "mod": 5306,
      "mian": 5307,
      "pas": 5308,
      "sen": 5309,
      "via": 5310,
      "vens": 5311,
      "orer": 5312,
      "orusi": 5313,
      "cht": 5314,
      "chaÅĤ": 5315,
      "Ġpasa": 5316,
      "Ġzre": 5317,
      "Ġzni": 5318,
      "Ġdodat": 5319,
      "szek": 5320,
      "ĠPla": 5321,
      "Ġkur": 5322,
      "ĠSza": 5323,
      "waÅĤy": 5324,
      "ĠMc": 5325,
      "ĠMiejscowoÅĽci": 5326,
      "ĠMusic": 5327,
      "Ġ1919": 5328,
      "ĠstaÅĤ": 5329,
      "ĠKry": 5330,
      "====": 5331,
      "ĠtwÃ³r": 5332,
      "ĠDob": 5333,
      "derem": 5334,
      "ciec": 5335,
      "unki": 5336,
      "ĠHenry": 5337,
      "Ġprzeprowadz": 5338,
      "eto": 5339,
      "sion": 5340,
      "Ġczar": 5341,
      "miera": 5342,
      "ĠPolskich": 5343,
      "ktÃ³w": 5344,
      "Ġ48": 5345,
      "Åºnie": 5346,
      "ĠStatysty": 5347,
      "Ġprzypad": 5348,
      "Ġ1983": 5349,
      "ssweb": 5350,
      "Ġ1977": 5351,
      "1985": 5352,
      "1979": 5353,
      "ĠMaria": 5354,
      "Arty": 5355,
      "Ġorganiz": 5356,
      "graÅĤ": 5357,
      "ugh": 5358,
      "ĠCoun": 5359,
      "ĠAustra": 5360,
      "ĠNajÅĽwiÄĻtszej": 5361,
      "ĠâĪĴ": 5362,
      "ĠSaint": 5363,
      "Ġdwu": 5364,
      "ĠrÃ³Å¼nych": 5365,
      "Ġwszystkich": 5366,
      "ĠÃ©tudes": 5367,
      "Ġnumera": 5368,
      "ĠVirtu": 5369,
      "ĠOdrodzenia": 5370,
      "AS": 5371,
      "As": 5372,
      "RO": 5373,
      "RP": 5374,
      "Ze": 5375,
      "ZwierzÄĻ": 5376,
      "],": 5377,
      "ep": 5378,
      "kost": 5379,
      "lne": 5380,
      "nh": 5381,
      "oÅĤy": 5382,
      "ppe": 5383,
      "punkt": 5384,
      "sis": 5385,
      "]]]]": 5386,
      "Ġwska": 5387,
      "anowie": 5388,
      "ated": 5389,
      "czak": 5390,
      "odi": 5391,
      "ĠPer": 5392,
      "ĠPOL": 5393,
      "ĠPAN": 5394,
      "Ġmaksymal": 5395,
      "Ġkan": 5396,
      "Ġkontra": 5397,
      "ĠMal": 5398,
      "Ġ1927": 5399,
      "ĠRi": 5400,
      "ĠKaw": 5401,
      "Ġgran": 5402,
      "ĠTi": 5403,
      "ĠTom": 5404,
      "ĠzadebiutowaÅĤ": 5405,
      "Ġtom": 5406,
      "otografi": 5407,
      "Ġodpowie": 5408,
      "Ġ32": 5409,
      "Ġczte": 5410,
      "owanej": 5411,
      "heads": 5412,
      "Ġoby": 5413,
      "ezji": 5414,
      "ministra": 5415,
      "Ġszcz": 5416,
      "Ġ1941": 5417,
      "Ġ1942": 5418,
      "ĠNarciarstwie": 5419,
      "Institu": 5420,
      "budowy": 5421,
      "ĠOrg": 5422,
      "ĠPrzemy": 5423,
      "lerii": 5424,
      "ĠAugu": 5425,
      "ĠCentrum": 5426,
      "ĠpeÅĤniÅĤ": 5427,
      "...": 5428,
      "zydenta": 5429,
      "IMC": 5430,
      "wenci": 5431,
      "ruby": 5432,
      "ĠdolnoÅĽlÄħ": 5433,
      "Halowe": 5434,
      "ĠBrygada": 5435,
      "Institut": 5436,
      "Diecezja": 5437,
      "Eli": 5438,
      "Gold": 5439,
      "Hiszp": 5440,
      "Linia": 5441,
      "Man": 5442,
      "Nad": 5443,
      "Super": 5444,
      "Tu": 5445,
      "funk": 5446,
      "fred": 5447,
      "gan": 5448,
      "sÅĤawa": 5449,
      "ves": 5450,
      "weg": 5451,
      "ÅĤem": 5452,
      "linia": 5453,
      "Ġpta": 5454,
      "roid": 5455,
      "erma": 5456,
      "nin": 5457,
      "nicki": 5458,
      "Ġdek": 5459,
      "led": 5460,
      "ĠĠĠĠĠĠĠĠĠĠĠĠĠĠĠĠĠĠĠĠĠĠĠĠĠĠĠĠĠĠĠĠ": 5461,
      "ĠPiot": 5462,
      "tyka": 5463,
      "mir": 5464,
      "cycl": 5465,
      "niesie": 5466,
      "tana": 5467,
      "Ġstat": 5468,
      "ĠKolej": 5469,
      "gach": 5470,
      "ĠTran": 5471,
      "ĠZostaÅĤ": 5472,
      "Ġjeszcze": 5473,
      "amp": 5474,
      "randen": 5475,
      "ligi": 5476,
      "poka": 5477,
      "Ġlista": 5478,
      "Ġ37": 5479,
      "ull": 5480,
      "ange": 5481,
      "Ġhokeju": 5482,
      "Ġproble": 5483,
      "paÅĦstwolink": 5484,
      "Ġ800": 5485,
      "Ġ70": 5486,
      "Ð¸Ð¹": 5487,
      "app": 5488,
      "1983": 5489,
      "Ġ1959": 5490,
      "Ġ1935": 5491,
      "schÃ³d": 5492,
      "Wydawnictwo": 5493,
      "Armia": 5494,
      "igh": 5495,
      "ĠCzerw": 5496,
      "Ġnaukowy": 5497,
      "Ġcolor": 5498,
      "Ġznajd": 5499,
      "Ġszerok": 5500,
      "Ġpierwszym": 5501,
      "ĠpoÅĤowie": 5502,
      "Ġcelu": 5503,
      "ĠLudowej": 5504,
      "koÅĤaj": 5505,
      "ĠRepubliki": 5506,
      "medal": 5507,
      "Rosyj": 5508,
      "Ġpiosen": 5509,
      "ĠnaleÅ¼aÅĤa": 5510,
      "onomiques": 5511,
      "TSN": 5512,
      "WÅĤochy": 5513,
      "ĠAfryki": 5514,
      "wodniczÄħcy": 5515,
      "Ġstatistique": 5516,
      "alifornia": 5517,
      "ĠÃ©conomiques": 5518,
      "Bre": 5519,
      "Bud": 5520,
      "NA": 5521,
      "SV": 5522,
      "af": 5523,
      "fal": 5524,
      "klasy": 5525,
      "vin": 5526,
      "wu": 5527,
      "won": 5528,
      "wej": 5529,
      "zas": 5530,
      "||-": 5531,
      "à¥": 5532,
      "ston": 5533,
      "ÅĤuma": 5534,
      "iad": 5535,
      "iang": 5536,
      "Ġwol": 5537,
      "czno": 5538,
      "skrzyd": 5539,
      "raÅĤ": 5540,
      "oda": 5541,
      "Å¼wiar": 5542,
      "ĠmÅĤod": 5543,
      "tyw": 5544,
      "ĠkoÅĽ": 5545,
      "Ġkrwi": 5546,
      "cesy": 5547,
      "cis": 5548,
      "cyzm": 5549,
      "ÅĤawie": 5550,
      "wil": 5551,
      "urch": 5552,
      "zyn": 5553,
      "ĠAssocia": 5554,
      "kowego": 5555,
      "ĠCal": 5556,
      "mel": 5557,
      "ĠLista": 5558,
      "kov": 5559,
      "ĠDan": 5560,
      "Ġ{{!}}": 5561,
      "ĠZak": 5562,
      "ild": 5563,
      "zacja": 5564,
      "zaleÅ¼": 5565,
      "ublinie": 5566,
      "ckey": 5567,
      "ĠEd": 5568,
      "cyjnego": 5569,
      "Ġpodwod": 5570,
      "Ġ46": 5571,
      "Ġ55": 5572,
      "Ġobejmu": 5573,
      "ĠÐŁ": 5574,
      "Ġ1981": 5575,
      "Ð¾Ð´": 5576,
      "ĠArmii": 5577,
      "Ġ1961": 5578,
      "Ġkoncer": 5579,
      "feum": 5580,
      "steroid": 5581,
      "Ġparlament": 5582,
      "Ġstanowisko": 5583,
      "zoolog": 5584,
      "rejonie": 5585,
      "ByÅĤ": 5586,
      "Ġlokaliza": 5587,
      "Ġklasa": 5588,
      "Ġnarciarstwie": 5589,
      "Ġpodstawowa": 5590,
      "wyciÄĻzca": 5591,
      "omocnik": 5592,
      "konsekr": 5593,
      "GBR": 5594,
      "Mag": 5595,
      "cko": 5596,
      "class": 5597,
      "fel": 5598,
      "ght": 5599,
      "nowa": 5600,
      "off": 5601,
      "sur": 5602,
      "set": 5603,
      "Ã¢": 5604,
      "Ã¥": 5605,
      "Ãº": 5606,
      "Äģ": 5607,
      "Î¿": 5608,
      "Ġ}}": 5609,
      "Ġrzymskokatoli": 5610,
      "Ġ====": 5611,
      "Ġwier": 5612,
      "liÅĤ": 5613,
      "Ġpw": 5614,
      "ĠprÄĻdkoÅĽÄĩ": 5615,
      "ones": 5616,
      "Äħt": 5617,
      "inni": 5618,
      "Ġmian": 5619,
      "Ġmniej": 5620,
      "tus": 5621,
      "Ġkoniec": 5622,
      "cina": 5623,
      "tacja": 5624,
      "wiÅĤ": 5625,
      "ĠMiÄĻdzynarod": 5626,
      "Ġ1930": 5627,
      "ĠKobiet": 5628,
      "Ġgit": 5629,
      "Ġborder": 5630,
      "Ġbram": 5631,
      "cas": 5632,
      "ĠNow": 5633,
      "Ġwyda": 5634,
      "Ġtar": 5635,
      "Ġtram": 5636,
      "Ġtzw": 5637,
      "ĠDu": 5638,
      "ĠJar": 5639,
      "syjski": 5640,
      "Å¼ynie": 5641,
      "Ġ41": 5642,
      "Ð°Ð²": 5643,
      "Ġnor": 5644,
      "Star": 5645,
      "Ġpowstania": 5646,
      "Ġ1943": 5647,
      "1984": 5648,
      "Ġ1950": 5649,
      "Ġ1931": 5650,
      "doi": 5651,
      "Ġwice": 5652,
      "tekst": 5653,
      "niczka": 5654,
      "riarch": 5655,
      "Ġolimpijskie": 5656,
      "CHN": 5657,
      "formacja": 5658,
      "Ġdwuk": 5659,
      "Ġliteraturze": 5660,
      "grupa": 5661,
      "Ġszyb": 5662,
      "ĠTowarzystwa": 5663,
      "zjaty": 5664,
      "PosÅĤowie": 5665,
      "wÅĤaÅĽci": 5666,
      "120": 5667,
      "DC": 5668,
      "FA": 5669,
      "IV": 5670,
      "Mel": 5671,
      "Naj": 5672,
      "TF": 5673,
      "XV": 5674,
      "Zygm": 5675,
      "dÅ¼": 5676,
      "hal": 5677,
      "jego": 5678,
      "lli": 5679,
      "rÃ©": 5680,
      "sl": 5681,
      "ÅĻ": 5682,
      "Ñĩ": 5683,
      "ĠrzÄħd": 5684,
      "strze": 5685,
      "anci": 5686,
      "atory": 5687,
      "lim": 5688,
      "czar": 5689,
      "nihongo": 5690,
      "Ġzg": 5691,
      "ĠzwyciÄĻ": 5692,
      "ÅĽw": 5693,
      "szty": 5694,
      "Ġmod": 5695,
      "Ġspa": 5696,
      "wik": 5697,
      "1957": 5698,
      "ĠBad": 5699,
      "ĠRok": 5700,
      "Ġbe": 5701,
      "kowane": 5702,
      "spa": 5703,
      "ĠTele": 5704,
      "ĠwyposaÅ¼": 5705,
      "ĠtrÃ³j": 5706,
      "Ġpojedyn": 5707,
      "Ġdoktor": 5708,
      "ruce": 5709,
      "Ġprzej": 5710,
      "brÄħz": 5711,
      "Ġodn": 5712,
      "ander": 5713,
      "Ġ53": 5714,
      "Ð°ÑĤ": 5715,
      "muz": 5716,
      "cznymi": 5717,
      "erson": 5718,
      "ĠInstytu": 5719,
      "ĠokrÄĻg": 5720,
      "Ġpolskiego": 5721,
      "Ġpolskiej": 5722,
      "mark": 5723,
      "wodu": 5724,
      "1986": 5725,
      "siÄħÅ¼ÄĻ": 5726,
      "bour": 5727,
      "ĠnajwiÄĻk": 5728,
      "ĠWojska": 5729,
      "Ġwielok": 5730,
      "ĠWiktor": 5731,
      "Ã¤r": 5732,
      "ĠznajdujÄħ": 5733,
      "Stanach": 5734,
      "ĠcaÅĤkowi": 5735,
      "Ġtrzech": 5736,
      "ĠwzglÄĻdu": 5737,
      "ĠwynosiÅĤa": 5738,
      "ĠokreÅĽl": 5739,
      "ĠWÅĤoch": 5740,
      "estiwal": 5741,
      "Absolwenci": 5742,
      "Ġtytular": 5743,
      "ĠÐ½Ð°": 5744,
      ">\\": 5745,
      "BEL": 5746,
      "Con": 5747,
      "Ele": 5748,
      "Fin": 5749,
      "Jezi": 5750,
      "Mie": 5751,
      "Mecz": 5752,
      "SP": 5753,
      "SU": 5754,
      "SIMC": 5755,
      "Uczest": 5756,
      "bl": 5757,
      "bok": 5758,
      "dÅº": 5759,
      "nowe": 5760,
      "pw": 5761,
      "sowie": 5762,
      "soÅĤe": 5763,
      "Ġ_": 5764,
      "ĠwÅĤo": 5765,
      "Ġwody": 5766,
      "atÃ³w": 5767,
      "rzbie": 5768,
      "Ġdel": 5769,
      "Ġmiej": 5770,
      "wacji": 5771,
      "ĠMit": 5772,
      "Ġ1914": 5773,
      "rzew": 5774,
      "Ġstart": 5775,
      "Ġstruk": 5776,
      "dach": 5777,
      "Ġgodz": 5778,
      "osi": 5779,
      "ĠCO": 5780,
      "mej": 5781,
      "ĠNowy": 5782,
      "ĠTrybu": 5783,
      "demar": 5784,
      "ĠZo": 5785,
      "not": 5786,
      "Ġjezi": 5787,
      "okrzy": 5788,
      "ÅĤota": 5789,
      "ĠJerzego": 5790,
      "ÅĤym": 5791,
      "ĠEng": 5792,
      "rÃ³la": 5793,
      "Ġ33": 5794,
      "Ġreg": 5795,
      "Ġfr": 5796,
      "anina": 5797,
      "olic": 5798,
      "olina": 5799,
      "Åºnia": 5800,
      "166": 5801,
      "Ġtys": 5802,
      "Ġdzi": 5803,
      "ĠktÃ³rÄħ": 5804,
      "ĠWyb": 5805,
      "wierÄĩ": 5806,
      "ĠprzedsiÄĻbior": 5807,
      "Ġrodzin": 5808,
      "ĠBarcelona": 5809,
      "ciÄħgu": 5810,
      "Ġpolityk": 5811,
      "ĠMedy": 5812,
      "ĠDivis": 5813,
      "Ġsingel": 5814,
      "Henryk": 5815,
      "Ġwiejska": 5816,
      "Ġpobli": 5817,
      "Ġkonkurencji": 5818,
      "uploads": 5819,
      "Filmy": 5820,
      "Ġzawiera": 5821,
      "Ġlokalizacyjna": 5822,
      ")''": 5823,
      "BC": 5824,
      "Ju": 5825,
      "National": 5826,
      "POP": 5827,
      "Ti": 5828,
      "Zak": 5829,
      "Zim": 5830,
      "bÃ³w": 5831,
      "cego": 5832,
      "ea": 5833,
      "gorz": 5834,
      "hor": 5835,
      "puszcz": 5836,
      "wersja": 5837,
      "iero": 5838,
      "stok": 5839,
      "Ġwia": 5840,
      "anowski": 5841,
      "ats": 5842,
      "rez": 5843,
      "lic": 5844,
      "ĠpuÅĤk": 5845,
      "erwo": 5846,
      "Ã³sÅĤ": 5847,
      "ĠzwiÄħzek": 5848,
      "Ġdro": 5849,
      "ĠPowie": 5850,
      "ture": 5851,
      "Ġsc": 5852,
      "Ġser": 5853,
      "Ġscen": 5854,
      "cep": 5855,
      "cim": 5856,
      "Ġid": 5857,
      "ĠMiejsce": 5858,
      "ĠRol": 5859,
      "ĠKie": 5860,
      "gaz": 5861,
      "Ġona": 5862,
      "udy": 5863,
      "wybor": 5864,
      "nook": 5865,
      "ĠlÄħd": 5866,
      "usin": 5867,
      "site": 5868,
      "brid": 5869,
      "rodziny": 5870,
      "Ġlisty": 5871,
      "rid": 5872,
      "ĠUrzÄħd": 5873,
      "tip": 5874,
      "owanÄħ": 5875,
      "ktro": 5876,
      "ĠStanisÅĤawa": 5877,
      "ĠChar": 5878,
      "Ġ1976": 5879,
      "wizji": 5880,
      "1982": 5881,
      "1971": 5882,
      "Ð½Ð¾": 5883,
      "ĠSzczecin": 5884,
      "Ġ1934": 5885,
      "Ġ1960": 5886,
      "Instytut": 5887,
      "uÅĤgar": 5888,
      "ralna": 5889,
      "ĠNarodowy": 5890,
      "ÃŃn": 5891,
      "ĠÅ¼Ã³ÅĤ": 5892,
      "CzÅĤonkowie": 5893,
      "ĠwspÃ³ÅĤczes": 5894,
      "Å»y": 5895,
      "Ġstatystycznego": 5896,
      "rzÄħt": 5897,
      "finaÅĤ": 5898,
      "ĠNorth": 5899,
      "Berlin": 5900,
      "ĠSports": 5901,
      "player": 5902,
      "KrzyÅ¼": 5903,
      "Ġzbrojne": 5904,
      "ĠamerykaÅĦski": 5905,
      "ĠKrzyÅ¼em": 5906,
      "ĠMistrzÃ³w": 5907,
      "ĠzamieszkiwaÅĤo": 5908,
      "Õ¡Õ": 5909,
      "JÃ³ze": 5910,
      "Pal": 5911,
      "Pary": 5912,
      "Ri": 5913,
      "catalogue": 5914,
      "fin": 5915,
      "gs": 5916,
      "katalog": 5917,
      "tre": 5918,
      "wet": 5919,
      "Ġleft": 5920,
      "ÅĤodzi": 5921,
      "Ġwej": 5922,
      "ĠwÃ³wczas": 5923,
      "ream": 5924,
      "ĠPort": 5925,
      "olot": 5926,
      "ĠsÅĤowa": 5927,
      "Ġsukces": 5928,
      "Ġkategorii": 5929,
      "omb": 5930,
      "ÅĤawi": 5931,
      "wich": 5932,
      "ĠMuseum": 5933,
      "ĠBre": 5934,
      "ĠBir": 5935,
      "ĠBoÅ¼": 5936,
      "Ġbr": 5937,
      "ĠCD": 5938,
      "ĠCan": 5939,
      "ĠurzÄħdz": 5940,
      "Ġwyniku": 5941,
      "ĠOficer": 5942,
      "Ġpotem": 5943,
      "ĠFer": 5944,
      "ĠHokeju": 5945,
      "uss": 5946,
      "chium": 5947,
      "Ġlidze": 5948,
      "rium": 5949,
      "ĠUrzÄĻd": 5950,
      "tha": 5951,
      "Ġpodg": 5952,
      "miecka": 5953,
      "czeÅĦ": 5954,
      "hips": 5955,
      "ewski": 5956,
      "ĠVol": 5957,
      "sada": 5958,
      "150": 5959,
      "ĠInter": 5960,
      "ĠInstitu": 5961,
      "Ġex": 5962,
      "Ġ1974": 5963,
      "occer": 5964,
      "Ġ1940": 5965,
      "1977": 5966,
      "ĠSzkoÅĤa": 5967,
      "profes": 5968,
      "produkcja": 5969,
      "Wybory": 5970,
      "Republi": 5971,
      "Indy": 5972,
      "Francisz": 5973,
      "wiÄħza": 5974,
      "ÐºÐ°": 5975,
      "Ġswojego": 5976,
      "ĠPark": 5977,
      "ĠYork": 5978,
      "atholic": 5979,
      "Ġsezonu": 5980,
      "prng": 5981,
      "Wojska": 5982,
      "ĠRosji": 5983,
      "ĠUniwersytet": 5984,
      "Ġwspom": 5985,
      "ĠPowszech": 5986,
      "ION": 5987,
      "bardziej": 5988,
      "giero": 5989,
      "liwoÅĽci": 5990,
      "Ġparafialny": 5991,
      "ĠmogÄħ": 5992,
      "ĠUkrainy": 5993,
      "Ġzakonnych": 5994,
      "\"|[[": 5995,
      "Brytyj": 5996,
      "Eug": 5997,
      "Pat": 5998,
      "Per": 5999,
      "Wschod": 6000,
      "gal": 6001,
      "mera": 6002,
      "parafia": 6003,
      "ys": 6004,
      "owcy": 6005,
      "aniem": 6006,
      "czki": 6007,
      "niÃ³sÅĤ": 6008,
      "Ġdni": 6009,
      "ĠPos": 6010,
      "ĠPara": 6011,
      "dzkie": 6012,
      "ced": 6013,
      "ĠSc": 6014,
      "'''|": 6015,
      "ĠMaÅĤ": 6016,
      "ĠKsiÄĻ": 6017,
      "kowaÅĤ": 6018,
      "kowana": 6019,
      "Ġam": 6020,
      "Ġasy": 6021,
      "ĠCel": 6022,
      "wot": 6023,
      "files": 6024,
      "Ġrosyj": 6025,
      "ĠTar": 6026,
      "ĠGen": 6027,
      "mana": 6028,
      "Ġdokona": 6029,
      "czych": 6030,
      "czyni": 6031,
      "okÃ³ÅĤ": 6032,
      "stad": 6033,
      "zabytek": 6034,
      "side": 6035,
      "odziel": 6036,
      "rit": 6037,
      "Ġ42": 6038,
      "ĠcÃ³r": 6039,
      "Ġniego": 6040,
      "Ġ54": 6041,
      "Ġszczy": 6042,
      "]]''.": 6043,
      "ĠktÃ³rzy": 6044,
      "Ġnowo": 6045,
      "ukra": 6046,
      "Ġprojekt": 6047,
      "ĠWyd": 6048,
      "Ġpowszech": 6049,
      "ĠInternational": 6050,
      "Ġkad": 6051,
      "ĠArt": 6052,
      "erwis": 6053,
      "projekt": 6054,
      "strÃ³w": 6055,
      "Wynik": 6056,
      "ient": 6057,
      "ÅļlÄħ": 6058,
      "ĠwÅĤadz": 6059,
      "uÅ¼el": 6060,
      "Ġokresu": 6061,
      "ĠRepublika": 6062,
      "iled": 6063,
      "ĠPancer": 6064,
      "CDMA": 6065,
      "ĠciÄĻÅ¼": 6066,
      "ÅĤodzieÅ¼y": 6067,
      "ĠEuropejskiego": 6068,
      "AmerykaÅĦscy": 6069,
      "ĠJÃ³zefa": 6070,
      "ĠpuÅĤku": 6071,
      "ĠÅĽwiecie": 6072,
      "ĠartykuÅĤ": 6073,
      "Ġsprzeda": 6074,
      "Ġinforma": 6075,
      "vizier": 6076,
      "Ġnumeracyjna": 6077,
      "ĠAssociation": 6078,
      "soÅĤectwo": 6079,
      "):": 6080,
      "CUB": 6081,
      "Ku": 6082,
      "Miasta": 6083,
      "Wo": 6084,
      "cm": 6085,
      "gier": 6086,
      "pla": 6087,
      "wano": 6088,
      "Ø§": 6089,
      "Ġrugby": 6090,
      "stos": 6091,
      "iak": 6092,
      "ĠwpÅĤyw": 6093,
      "ors": 6094,
      "anga": 6095,
      "anej": 6096,
      "arm": 6097,
      "litar": 6098,
      "Ġpt": 6099,
      "Ġport": 6100,
      "rody": 6101,
      "ĠdÅĤugoÅĽÄĩ": 6102,
      "Äħca": 6103,
      "lej": 6104,
      "lew": 6105,
      "Ġmon": 6106,
      "olo": 6107,
      "Ġsym": 6108,
      "Ġspisu": 6109,
      "cisk": 6110,
      "taks": 6111,
      "osto": 6112,
      "wicza": 6113,
      "jach": 6114,
      "Ġ1925": 6115,
      "ĠBiaÅĤy": 6116,
      "Ġgatunek": 6117,
      "Ġbada": 6118,
      "ĠCre": 6119,
      "spy": 6120,
      "Ġzagro": 6121,
      "ogle": 6122,
      "ĠDE": 6123,
      "ĠOs": 6124,
      "cielem": 6125,
      "ĠpomiÄĻdzy": 6126,
      "czym": 6127,
      "wyk": 6128,
      "ĠZiel": 6129,
      "20130": 6130,
      "ĠEle": 6131,
      "pole": 6132,
      "poczta": 6133,
      "ielsowie": 6134,
      "ther": 6135,
      "architektura": 6136,
      "dzieÅĦ": 6137,
      "ÅĽciu": 6138,
      "ukcesy": 6139,
      "ĠÐ¸": 6140,
      "Ġ80": 6141,
      "ĠWydaw": 6142,
      "ĠIndon": 6143,
      ").</": 6144,
      "Ġosoby": 6145,
      "Ð¸Ðº": 6146,
      "1981": 6147,
      "ĠAll": 6148,
      "ĠÅģowie": 6149,
      "onii": 6150,
      "Ġpierwszego": 6151,
      "szczegÃ³l": 6152,
      "1944": 6153,
      "ĠczÄĻsto": 6154,
      "ralnej": 6155,
      "siÄĻcy": 6156,
      "ĠnajwyÅ¼": 6157,
      "Ġvan": 6158,
      "Francji": 6159,
      "Ġfilmy": 6160,
      "ĠcaÅĤÄħ": 6161,
      "Anna": 6162,
      "ĠczÅĤonek": 6163,
      "Ġprawdopod": 6164,
      "ĠKrzyÅ¼a": 6165,
      "ĠAndrzej": 6166,
      "ĠpracÄĻ": 6167,
      "ĠPowÄħz": 6168,
      "ARG": 6169,
      "kolej": 6170,
      "ĠwiÄĻksz": 6171,
      "eksyk": 6172,
      "ĠuzyskaÅĤ": 6173,
      "ĠKazimierza": 6174,
      "Ġjedynie": 6175,
      "PoznaÅĦ": 6176,
      "rzeÅĽcija": 6177,
      "umunia": 6178,
      "erwona": 6179,
      "bridge": 6180,
      "Am": 6181,
      "Cmentarz": 6182,
      "DS": 6183,
      "Grand": 6184,
      "Iz": 6185,
      "Kole": 6186,
      "MaÅĤ": 6187,
      "Pow": 6188,
      "Tor": 6189,
      "War": 6190,
      "acy": 6191,
      "bb": 6192,
      "cle": 6193,
      "gry": 6194,
      "godzina": 6195,
      "lc": 6196,
      "lt": 6197,
      "pet": 6198,
      "xls": 6199,
      "Å£": 6200,
      "Ġew": 6201,
      "aron": 6202,
      "lice": 6203,
      "czen": 6204,
      "rop": 6205,
      "Ġdiecezji": 6206,
      "ÄħÅ¼": 6207,
      "ÅĽla": 6208,
      "ĠnastÄĻpu": 6209,
      "szar": 6210,
      "ĠPL": 6211,
      "Ġkre": 6212,
      "waÄĩ": 6213,
      "tailed": 6214,
      "ĠWroc": 6215,
      "'''[[": 6216,
      "ĠMer": 6217,
      "Ġ1916": 6218,
      "rzesz": 6219,
      "zyki": 6220,
      "ĠBoxing": 6221,
      "ĠKana": 6222,
      "ĠbÄĻd": 6223,
      "Ġaby": 6224,
      "orial": 6225,
      "ryj": 6226,
      "ejon": 6227,
      "ĠGri": 6228,
      "ĠGeneral": 6229,
      "ĠDow": 6230,
      "ĠDis": 6231,
      "dys": 6232,
      "pag": 6233,
      "|-|-": 6234,
      "cks": 6235,
      "cker": 6236,
      "bad": 6237,
      "emat": 6238,
      "cyjnej": 6239,
      "biÃ³r": 6240,
      "title": 6241,
      "Ġpodob": 6242,
      "stych": 6243,
      "Ġjas": 6244,
      "cownicy": 6245,
      "Ġspecjal": 6246,
      "Ġprace": 6247,
      "Ġdecy": 6248,
      "eniu": 6249,
      "arzÄħdu": 6250,
      "czÄħce": 6251,
      "ffcc": 6252,
      "Alma": 6253,
      "onitor": 6254,
      "Ġpierwsze": 6255,
      "Ġmiast": 6256,
      "Ġdziedz": 6257,
      "Ġkontyn": 6258,
      "1949": 6259,
      "ĠCzas": 6260,
      "Ġlubel": 6261,
      "ĠNarodowego": 6262,
      "ĠDetailed": 6263,
      "stein": 6264,
      "Szwe": 6265,
      "ĠPartii": 6266,
      "rzegorz": 6267,
      "PiÅĤkarz": 6268,
      "anizacja": 6269,
      "ĠMater": 6270,
      "ĠFormuÅĤa": 6271,
      "ĠgÅĤÃ³wnej": 6272,
      "Ġcell": 6273,
      "Ġgrup": 6274,
      "ĠogÃ³l": 6275,
      "CAN": 6276,
      "uacja": 6277,
      "PRNG": 6278,
      "partament": 6279,
      "ĠElÅ¼bie": 6280,
      "ĠpowstaÅĤ": 6281,
      "ĠStudi": 6282,
      "Ġrozgrywek": 6283,
      "Ġprzeciwko": 6284,
      "ĠAdministra": 6285,
      "ĠstopieÅĦ": 6286,
      "ederacja": 6287,
      "Ġnarciar": 6288,
      "Krzysztof": 6289,
      "Ġzagrani": 6290,
      "ĠFootball": 6291,
      "Ġperon": 6292,
      "kontynuacja": 6293,
      "130": 6294,
      "Alex": 6295,
      "Du": 6296,
      "Fina": 6297,
      "GÅĤÃ³w": 6298,
      "Pri": 6299,
      "Parafie": 6300,
      "Raj": 6301,
      "Sg": 6302,
      "Sal": 6303,
      "Tat": 6304,
      "Wis": 6305,
      "ZÅĤoty": 6306,
      "Zawodnik": 6307,
      "aut": 6308,
      "bg": 6309,
      "cd": 6310,
      "hat": 6311,
      "hokej": 6312,
      "ire": 6313,
      "jum": 6314,
      "ktu": 6315,
      "krÃ³lestwo": 6316,
      "mund": 6317,
      "nu": 6318,
      "vak": 6319,
      "yo": 6320,
      "sten": 6321,
      "nae": 6322,
      "ĠwczeÅĽniej": 6323,
      "orza": 6324,
      "ance": 6325,
      "lich": 6326,
      "Ã³z": 6327,
      "lewo": 6328,
      "alne": 6329,
      "tyczne": 6330,
      "wajÄħc": 6331,
      "jaz": 6332,
      "1914": 6333,
      "1922": 6334,
      "ĠBot": 6335,
      "ĠBlack": 6336,
      "ĠKam": 6337,
      "ĠKoÅĽcioÅĤa": 6338,
      "ĠoÅĤ": 6339,
      "ĠNowe": 6340,
      "Ġwycof": 6341,
      "ĠGali": 6342,
      "ĠOficjal": 6343,
      "Ġpoza": 6344,
      "ĠIz": 6345,
      "wyp": 6346,
      "ĠHall": 6347,
      "pool": 6348,
      "Ġ39": 6349,
      "Ġcze": 6350,
      "ric": 6351,
      "ulat": 6352,
      "andia": 6353,
      "tiona": 6354,
      "anic": 6355,
      "anika": 6356,
      "azur": 6357,
      "sey": 6358,
      "Ġjedna": 6359,
      "Ġmacie": 6360,
      "ĠdziÄĻki": 6361,
      "itwy": 6362,
      "moni": 6363,
      "Ġpolsko": 6364,
      "Ð¸Ñı": 6365,
      "uszki": 6366,
      "1978": 6367,
      "podgromada": 6368,
      "ĠmieÅĽcie": 6369,
      "Maria": 6370,
      "eneraÅĤ": 6371,
      "ÅĤuÅ¼ony": 6372,
      "rywat": 6373,
      "Ġkierunku": 6374,
      "elena": 6375,
      "ĠParlamentu": 6376,
      "ĠPodla": 6377,
      "ĠdruÅ¼yny": 6378,
      "OkrÄĻ": 6379,
      "ichard": 6380,
      "Ġstudyj": 6381,
      "Wojciech": 6382,
      "poprzednik": 6383,
      "Ġmocy": 6384,
      "racowaÄĩ": 6385,
      "ĠdziaÅĤacz": 6386,
      "ĠAkademia": 6387,
      "ĠPrezy": 6388,
      "Ġelektry": 6389,
      "ĠplacÃ³w": 6390,
      "ĠPolitech": 6391,
      "ĠwyrÃ³Å¼nia": 6392,
      "BiaÅĤoru": 6393,
      "ĠRadzieckich": 6394,
      "ĠMinistra": 6395,
      "Ġaktyw": 6396,
      "encmuz": 6397,
      "porzÄħdzenie": 6398,
      "Artysta": 6399,
      "Zimowe": 6400,
      "ParyÅ¼": 6401,
      "SgKP": 6402,
      "AE": 6403,
      "Miejsce": 6404,
      "ND": 6405,
      "Naz": 6406,
      "Pop": 6407,
      "Rada": 6408,
      "Region": 6409,
      "Sto": 6410,
      "Sezon": 6411,
      "dane": 6412,
      "fc": 6413,
      "mniej": 6414,
      "przed": 6415,
      "ujÄħcy": 6416,
      "var": 6417,
      "wart": 6418,
      "wane": 6419,
      "wschod": 6420,
      "iego": 6421,
      "nau": 6422,
      "orum": 6423,
      "anda": 6424,
      "oden": 6425,
      "ins": 6426,
      "dzenia": 6427,
      "Ġsch": 6428,
      "Ġsate": 6429,
      "Ġsami": 6430,
      "ĠSeni": 6431,
      "cyna": 6432,
      "obwodzie": 6433,
      "Ġ1915": 6434,
      "Ġ1923": 6435,
      "zym": 6436,
      "Ġsto": 6437,
      "ĠAz": 6438,
      "osci": 6439,
      "gad": 6440,
      "Ġuz": 6441,
      "Ġwyzna": 6442,
      "kosz": 6443,
      "Ġtworz": 6444,
      "ĠOst": 6445,
      "deÅĤ": 6446,
      "unkÃ³w": 6447,
      "ĠZag": 6448,
      "Ġinne": 6449,
      "papieÅ¼": 6450,
      "ĠJose": 6451,
      "Å¼yseria": 6452,
      "biskupi": 6453,
      "Ġrun": 6454,
      "Ġobu": 6455,
      "angeli": 6456,
      "eryj": 6457,
      "ĠÐ³": 6458,
      "ĠNagrody": 6459,
      "ĠChin": 6460,
      "Ġpolskie": 6461,
      "Ġskrzyd": 6462,
      "obiety": 6463,
      "illy": 6464,
      "PaÅĦstw": 6465,
      "Marian": 6466,
      "boszcz": 6467,
      "Ġ1967": 6468,
      "ĠdzieÅĤa": 6469,
      "scena": 6470,
      "Ġczym": 6471,
      "Ġpomor": 6472,
      "ĠJapo": 6473,
      "Ġuczestni": 6474,
      "godnie": 6475,
      "ĠjÄĻzyka": 6476,
      "Ġlitera": 6477,
      "Czech": 6478,
      "issn": 6479,
      "ubernator": 6480,
      "Ġnauczyciel": 6481,
      "AmerykaÅĦskie": 6482,
      "ĠzwierzÄħt": 6483,
      "ĠpoÅĽwiÄĻ": 6484,
      "aktualnosci": 6485,
      "Ġcharaktery": 6486,
      "Ġanim": 6487,
      "Discogs": 6488,
      "ĠAmeryki": 6489,
      "Ġumieszcz": 6490,
      "Ġprzeniesi": 6491,
      "funkcja": 6492,
      "ĠPiotra": 6493,
      "Gminy": 6494,
      "IR": 6495,
      "Jap": 6496,
      "Kazimierz": 6497,
      "Mona": 6498,
      "No": 6499,
      "Ol": 6500,
      "PN": 6501,
      "Pom": 6502,
      "Tadeusz": 6503,
      "Vb": 6504,
      "caria": 6505,
      "esk": 6506,
      "gold": 6507,
      "kg": 6508,
      "para": 6509,
      "press": 6510,
      "ror": 6511,
      "solid": 6512,
      "tv": 6513,
      "xon": 6514,
      "|(": 6515,
      "Ġata": 6516,
      "ĠÅĤu": 6517,
      "Ġone": 6518,
      "ÅĤecz": 6519,
      "ĠwÅĤÄħcz": 6520,
      "Ġpie": 6521,
      "czania": 6522,
      "Ã³Å¼": 6523,
      "Ġdr": 6524,
      "odes": 6525,
      "ÅĽle": 6526,
      "ÅĽwiÄĻ": 6527,
      "ĠPu": 6528,
      "ĠPowiat": 6529,
      "alen": 6530,
      "olski": 6531,
      "mith": 6532,
      "ĠSty": 6533,
      "opera": 6534,
      "lam": 6535,
      "lav": 6536,
      "ostat": 6537,
      "omoty": 6538,
      "Ã³wki": 6539,
      "ĠWest": 6540,
      "ĠMiasta": 6541,
      "Ġ1926": 6542,
      "rzez": 6543,
      "ĠBor": 6544,
      "ĠKi": 6545,
      "Ġgrzbie": 6546,
      "Ġbry": 6547,
      "Ġbazie": 6548,
      "ĠAdam": 6549,
      "osÃ©": 6550,
      "metal": 6551,
      "spektor": 6552,
      "Ġrosyjski": 6553,
      "ryp": 6554,
      "ĠTer": 6555,
      "Ġtren": 6556,
      "ĠOpol": 6557,
      "defa": 6558,
      "wyst": 6559,
      "ĠZwiÄħzek": 6560,
      "ameryka": 6561,
      "rano": 6562,
      "emu": 6563,
      "rÃ³cz": 6564,
      "onat": 6565,
      "ĠUm": 6566,
      "Ġrelig": 6567,
      "akÃ³w": 6568,
      "mien": 6569,
      "ĠsposÃ³b": 6570,
      "Ġprakty": 6571,
      "warz": 6572,
      "imna": 6573,
      "Ġsku": 6574,
      "lue": 6575,
      "ÐµÑĤ": 6576,
      "ĠÅģÃ³dÅº": 6577,
      "ĠLee": 6578,
      "Ġdyplom": 6579,
      "book": 6580,
      "erial": 6581,
      "Poczta": 6582,
      "ĠgminÄĻ": 6583,
      "check": 6584,
      "ĠProdu": 6585,
      "ÅļwiÄĻ": 6586,
      "Ġfunkcjon": 6587,
      "Nagroda": 6588,
      "Ġswoim": 6589,
      "ISO": 6590,
      "woju": 6591,
      "Ġdowolnym": 6592,
      "Ġolimpijczycy": 6593,
      "rish": 6594,
      "|'''[[": 6595,
      "Ġograni": 6596,
      "ĠRepublik": 6597,
      "Biogram": 6598,
      "rÄĻdkoÅĽci": 6599,
      "mistrzostwo": 6600,
      "Ġgromad": 6601,
      "ĠXVIII": 6602,
      "Ġmistrzostwach": 6603,
      "bilisi": 6604,
      "Ġzajm": 6605,
      "uchowny": 6606,
      "Ġpostaci": 6607,
      "Ġsakralny": 6608,
      "ference": 6609,
      "ĠdziaÅĤalnoÅĽci": 6610,
      "Ġrefor": 6611,
      "walifikacje": 6612,
      "Ekstra": 6613,
      "witalizacji": 6614,
      "ÅĤawiu": 6615,
      "ĠUrzÄĻdowy": 6616,
      "%)": 6617,
      "Ana": 6618,
      "BL": 6619,
      "Bez": 6620,
      "Dan": 6621,
      "Imperium": 6622,
      "Jak": 6623,
      "Kor": 6624,
      "Klas": 6625,
      "Medal": 6626,
      "Partia": 6627,
      "Prowincja": 6628,
      "Ruch": 6629,
      "Stu": 6630,
      "Uch": 6631,
      "Uwagi": 6632,
      "Wa": 6633,
      "WÄĻg": 6634,
      "William": 6635,
      "gf": 6636,
      "historia": 6637,
      "kategoria": 6638,
      "ln": 6639,
      "low": 6640,
      "lton": 6641,
      "mÃ³w": 6642,
      "podziaÅĤ": 6643,
      "sÅĤownik": 6644,
      "Ãµ": 6645,
      "ĠÃ³w": 6646,
      "ĠÄĩ": 6647,
      "Ġà¤": 6648,
      "ÅĤanÃ³w": 6649,
      "ÄĻdzi": 6650,
      "rec": 6651,
      "reda": 6652,
      "rejestr": 6653,
      "Äħce": 6654,
      "kas": 6655,
      "Ġkodu": 6656,
      "ĠScien": 6657,
      "ĠWsp": 6658,
      "ĠWedÅĤug": 6659,
      "ĠWOP": 6660,
      "ÅĤam": 6661,
      "ÅĦskÄħ": 6662,
      "ĠMel": 6663,
      "obec": 6664,
      "Ġ1912": 6665,
      "uri": 6666,
      "1919": 6667,
      "1934": 6668,
      "1950": 6669,
      "ĠstraÅ¼": 6670,
      "ĠBie": 6671,
      "ĠAsteroid": 6672,
      "Ġoznacz": 6673,
      "Ġoficer": 6674,
      "Ġustal": 6675,
      "ĠTown": 6676,
      "asia": 6677,
      "ĠOpis": 6678,
      "uton": 6679,
      "maz": 6680,
      "Ġdotych": 6681,
      "ÅĤosz": 6682,
      "brat": 6683,
      "pozna": 6684,
      "Ġpodpis": 6685,
      "opisma": 6686,
      "Ġtemat": 6687,
      "znak": 6688,
      "ĠobowiÄħz": 6689,
      "Ġstylu": 6690,
      "Ġordyna": 6691,
      "ĠrozdziaÅĤ": 6692,
      "ico": 6693,
      "lozo": 6694,
      "Ġtakich": 6695,
      "abry": 6696,
      "Ġpowiat": 6697,
      "edag": 6698,
      "owanym": 6699,
      "ĠÅģy": 6700,
      "ĠMasters": 6701,
      "Ġczasu": 6702,
      "arzyna": 6703,
      "dziaÅĤy": 6704,
      "1964": 6705,
      "wÃ³rnia": 6706,
      "ĠKomisji": 6707,
      "Ġwydany": 6708,
      "ĠOrder": 6709,
      "fikacja": 6710,
      "rÄħÅ¼": 6711,
      "stÄĻpuje": 6712,
      "ĠMosk": 6713,
      "EFEF": 6714,
      "kinheads": 6715,
      "ÅºrÃ³dÅĤo": 6716,
      "Koszykarze": 6717,
      "Ġobszar": 6718,
      "grup": 6719,
      "ĠToruniu": 6720,
      "DDR": 6721,
      "ĠSocjalistycznych": 6722,
      "Ġeuropej": 6723,
      "ĠzespoÅĤÃ³w": 6724,
      "ĠSztuk": 6725,
      "ĠpowoÅĤania": 6726,
      "ĠChampionship": 6727,
      "ĠJagiel": 6728,
      "ĠszczegÃ³l": 6729,
      "JÃ³zef": 6730,
      "Ġdotychczas": 6731,
      ".).": 6732,
      "Bitwa": 6733,
      "Com": 6734,
      "Gatunek": 6735,
      "Los": 6736,
      "Lau": 6737,
      "Sm": 6738,
      "but": 6739,
      "box": 6740,
      "cat": 6741,
      "fen": 6742,
      "gus": 6743,
      "han": 6744,
      "iro": 6745,
      "krÃ³t": 6746,
      "lnych": 6747,
      "oy": 6748,
      "pÅĤ": 6749,
      "rlan": 6750,
      "Ġel": 6751,
      "owskich": 6752,
      "Ġwers": 6753,
      "ÄĻdzie": 6754,
      "'').": 6755,
      "rect": 6756,
      "liwa": 6757,
      "}}:": 6758,
      "iner": 6759,
      "insee": 6760,
      "lena": 6761,
      "lewski": 6762,
      "refek": 6763,
      "Ġso": 6764,
      "ĠsiÅĤ": 6765,
      "Ġkrzy": 6766,
      "ĠkrÃ³l": 6767,
      "cek": 6768,
      "mic": 6769,
      "ĠWit": 6770,
      "ĠWomen": 6771,
      "ÅĦsku": 6772,
      "ĠMam": 6773,
      "jana": 6774,
      "rzeka": 6775,
      "1921": 6776,
      "day": 6777,
      "ĠRog": 6778,
      "ĠgÄĻstoÅĽÄĩ": 6779,
      "Ġbal": 6780,
      "Ġboj": 6781,
      "calit": 6782,
      "ĠTrÃ³j": 6783,
      "ĠGod": 6784,
      "maj": 6785,
      "maga": 6786,
      "Ġpozna": 6787,
      "elle": 6788,
      "rusz": 6789,
      "ĠHor": 6790,
      "|---": 6791,
      "ots": 6792,
      "briel": 6793,
      "rodze": 6794,
      "|||": 6795,
      "||âĢŀ": 6796,
      "ularia": 6797,
      "tico": 6798,
      "Ġ47": 6799,
      "Ġ58": 6800,
      "Ġszcze": 6801,
      "Ġszkol": 6802,
      "ĠszkoÅĤy": 6803,
      "angers": 6804,
      "muzeum": 6805,
      "load": 6806,
      "Ġadministracyjnie": 6807,
      "siÄħg": 6808,
      "Ġ1937": 6809,
      "ĠLigi": 6810,
      "sche": 6811,
      "Ġdrugie": 6812,
      "ĠAlpejskim": 6813,
      "haus": 6814,
      "ĠMay": 6815,
      "ĠPaweÅĤ": 6816,
      "Ġdystry": 6817,
      "Ġ1964": 6818,
      "ĠNarodÃ³w": 6819,
      "shing": 6820,
      "Ġmuzyczne": 6821,
      "Ġbarwach": 6822,
      "]]||[[": 6823,
      "misja": 6824,
      "ĠdowÃ³dca": 6825,
      "Ġmini": 6826,
      "Niemiec": 6827,
      "Wojsko": 6828,
      "CAF": 6829,
      "ĠpeÅĤni": 6830,
      "ĠpowstaÅĤa": 6831,
      "ĠwystÄĻpowania": 6832,
      "orped": 6833,
      "ĠÅļlÄħska": 6834,
      "Czechy": 6835,
      "bilitacja": 6836,
      "ĠComp": 6837,
      "singel": 6838,
      "ĠTowarzystwo": 6839,
      "||||||": 6840,
      "ĠdziaÅĤalnoÅĽÄĩ": 6841,
      "ĠCzÄĻstoch": 6842,
      "Ġigrzyskach": 6843,
      "ĠkarierÄĻ": 6844,
      "MiÄĻdzynarodowa": 6845,
      "CZE": 6846,
      "orÄħÅ¼y": 6847,
      "Ġgranic": 6848,
      "Id": 6849,
      "Jose": 6850,
      "Kos": 6851,
      "Pier": 6852,
      "Plan": 6853,
      "Rek": 6854,
      "Rejon": 6855,
      "db": 6856,
      "diecezji": 6857,
      "eszt": 6858,
      "fek": 6859,
      "four": 6860,
      "kh": 6861,
      "kanie": 6862,
      "maty": 6863,
      "nt": 6864,
      "nÃ³w": 6865,
      "pri": 6866,
      "sr": 6867,
      "sel": 6868,
      "two": 6869,
      "uv": 6870,
      "zan": 6871,
      "Ã§": 6872,
      "Ġcom": 6873,
      "ĠÑģ": 6874,
      "owcÃ³w": 6875,
      "Ġprowadzi": 6876,
      "Ġprywat": 6877,
      "ĠprÄĻdkoÅĽci": 6878,
      "rzenie": 6879,
      "ÅĽciej": 6880,
      "Ġnastaw": 6881,
      "ĠPh": 6882,
      "oltip": 6883,
      "ĠSand": 6884,
      "ĠSÅĤowa": 6885,
      "ĠSkinheads": 6886,
      "cyk": 6887,
      "niemie": 6888,
      "tab": 6889,
      "ostaÅĤa": 6890,
      "ĠMed": 6891,
      "ĠMiasto": 6892,
      "Ġ1906": 6893,
      "urga": 6894,
      "ĠKol": 6895,
      "ĠKrÃ³l": 6896,
      "ĠAbd": 6897,
      "osÅĤowa": 6898,
      "kowskiego": 6899,
      "Ġastro": 6900,
      "ĠCur": 6901,
      "sper": 6902,
      "ryd": 6903,
      "ĠTadeusz": 6904,
      "Ġwys": 6905,
      "Ġteryt": 6906,
      "ĠGUS": 6907,
      "unn": 6908,
      "ella": 6909,
      "ĠZdoby": 6910,
      "Ġlogo": 6911,
      "ruga": 6912,
      "Ġinni": 6913,
      "ĠHerb": 6914,
      "okÅĤad": 6915,
      "Ġprzesz": 6916,
      "ĠEx": 6917,
      "ĠUwagi": 6918,
      "andl": 6919,
      "aktor": 6920,
      "styl": 6921,
      "ĠjednÄħ": 6922,
      "Ġtemper": 6923,
      "Ġobra": 6924,
      "arach": 6925,
      "ctogram": 6926,
      "Ġjapo": 6927,
      "Ġdziennik": 6928,
      "ĠprzyjÄĻ": 6929,
      "ĠÐ·": 6930,
      "mater": 6931,
      "warta": 6932,
      "240": 6933,
      "abs": 6934,
      "ĠInforma": 6935,
      "Ġeli": 6936,
      "Ġ1947": 6937,
      "unii": 6938,
      "1973": 6939,
      "cÃ³wka": 6940,
      "ĠAlbum": 6941,
      "Ġczasowa": 6942,
      "1962": 6943,
      "olumbia": 6944,
      "Ġfilmu": 6945,
      "Ġnauki": 6946,
      "opolskie": 6947,
      "Ġzawodach": 6948,
      "ĠOrderem": 6949,
      "Ġforma": 6950,
      "ĠTeat": 6951,
      "znaczony": 6952,
      "ĠStanach": 6953,
      "Ġsportowy": 6954,
      "Ġpictogram": 6955,
      "Carmen": 6956,
      "Ġgranicy": 6957,
      "Ġmechani": 6958,
      "ĠduÅ¼y": 6959,
      "zachod": 6960,
      "ĠzakoÅĦczyÅĤ": 6961,
      "Stefan": 6962,
      "ĠHerceg": 6963,
      "Ġsingla": 6964,
      "Ġostatni": 6965,
      "ographic": 6966,
      "ĠniektÃ³ry": 6967,
      "ĠpobliÅ¼u": 6968,
      "ĠPowietrz": 6969,
      ");": 6970,
      "300": 6971,
      "500": 6972,
      "Amer": 6973,
      "Bundes": 6974,
      "Fe": 6975,
      "Gra": 6976,
      "Ham": 6977,
      "Jana": 6978,
      "Kraj": 6979,
      "KsiÄĻ": 6980,
      "PP": 6981,
      "Pan": 6982,
      "cowaÅĤ": 6983,
      "loria": 6984,
      "pia": 6985,
      "tow": 6986,
      "trze": 6987,
      "wskim": 6988,
      "|}}": 6989,
      "Ðļ": 6990,
      "start": 6991,
      "nale": 6992,
      "ĠwewnÄĻtrz": 6993,
      "orks": 6994,
      "Ġpunkty": 6995,
      "nina": 6996,
      "rach": 6997,
      "Ġdrewnia": 6998,
      "ĠPie": 6999,
      "ĠPic": 7000,
      "ĠswÃ³j": 7001,
      "Ġsejm": 7002,
      "Ġkos": 7003,
      "ĠkrÃ³le": 7004,
      "ceÅĦ": 7005,
      "ĠSaneczkarstwie": 7006,
      "lach": 7007,
      "omia": 7008,
      "'''.": 7009,
      "ĠMistrzy": 7010,
      "tele": 7011,
      "tedy": 7012,
      "teres": 7013,
      "Ġbrzeg": 7014,
      "Ġbadania": 7015,
      "ĠAda": 7016,
      "kowatych": 7017,
      "Ġana": 7018,
      "cast": 7019,
      "ĠCru": 7020,
      "ĠCast": 7021,
      "spis": 7022,
      "fice": 7023,
      "ĠTak": 7024,
      "ĠTomasz": 7025,
      "Ġwyra": 7026,
      "Ġtowarzy": 7027,
      "ĠDon": 7028,
      "ĠData": 7029,
      "ĠDÄħbr": 7030,
      "ĠDavid": 7031,
      "Ġpochodzi": 7032,
      "ister": 7033,
      "Ġdok": 7034,
      "wydawnictwo": 7035,
      "ĠZab": 7036,
      "ĠZmechaniz": 7037,
      "ĠFe": 7038,
      "ĠHay": 7039,
      "ĠJudo": 7040,
      "bach": 7041,
      "Ġ/>,": 7042,
      "Ġ3166": 7043,
      "git": 7044,
      "bir": 7045,
      "Ġfa": 7046,
      "Ġfont": 7047,
      "108": 7048,
      "duje": 7049,
      "czeÅĦstwa": 7050,
      "Ġniewiel": 7051,
      "Ġrunda": 7052,
      "Ġjednost": 7053,
      "Ġbyli": 7054,
      "prezes": 7055,
      "Ġnowe": 7056,
      "Ġnowego": 7057,
      "Ġ03": 7058,
      "ĠÐ¾": 7059,
      "mpic": 7060,
      "ĠPoczÄħt": 7061,
      "imnaz": 7062,
      "ĠpaÅĤa": 7063,
      "Ġrakie": 7064,
      "ĠMarian": 7065,
      "ĠÅģÄħ": 7066,
      "Mark": 7067,
      "Ġoper": 7068,
      "1941": 7069,
      "Minister": 7070,
      "1960": 7071,
      "1965": 7072,
      "Ġkolejowe": 7073,
      "Ġmuzyce": 7074,
      "ĠzawodnikÃ³w": 7075,
      "ĠPodczas": 7076,
      "ĠpoÅĤud": 7077,
      "ĠJako": 7078,
      "Ġpremier": 7079,
      "Ġrzecz": 7080,
      "super": 7081,
      "ĠRock": 7082,
      "ĠgraÅĤ": 7083,
      "ĠThomas": 7084,
      "Ġniemiecki": 7085,
      "down": 7086,
      "ĠpÃ³ÅĤnocno": 7087,
      "ĠpÃ³ÅĤnocnej": 7088,
      "Ġgatunki": 7089,
      "Ġmedy": 7090,
      "ĠwystÄĻpowaÅĤ": 7091,
      "ĠwystÄĻpujÄħcy": 7092,
      "ĠDywizji": 7093,
      "reaci": 7094,
      "Ġwybuch": 7095,
      "formowanie": 7096,
      "errari": 7097,
      "illiams": 7098,
      "MEX": 7099,
      "serial": 7100,
      "ĠPÃ³ÅĤnocnej": 7101,
      "ĠPeters": 7102,
      "holm": 7103,
      "ĠQu": 7104,
      "ĠPoÅĤudniowej": 7105,
      "ĠurzÄĻdowych": 7106,
      "Ġsztafe": 7107,
      "Thomas": 7108,
      "ĠwojewÃ³dz": 7109,
      "Ġtermin": 7110,
      "ZasÅĤuÅ¼ony": 7111,
      "administrator": 7112,
      "Ġmazowieckie": 7113,
      "ĠpasaÅ¼er": 7114,
      "Ġkontrakt": 7115,
      "ĠOficjalna": 7116,
      "wÃ³rniaÅĦski": 7117,
      "|-----": 7118,
      "230": 7119,
      "Afry": 7120,
      "BS": 7121,
      "Bab": 7122,
      "Bieg": 7123,
      "Db": 7124,
      "Dro": 7125,
      "Daw": 7126,
      "Dina": 7127,
      "Lw": 7128,
      "NF": 7129,
      "PÃ³ÅĤ": 7130,
      "Ru": 7131,
      "SÅĤowa": 7132,
      "gÅĤÃ³w": 7133,
      "lna": 7134,
      "lla": 7135,
      "piÄĻ": 7136,
      "pes": 7137,
      "pres": 7138,
      "powiÄħz": 7139,
      "ries": 7140,
      "ssa": 7141,
      "ule": 7142,
      "wskie": 7143,
      "¹rÃ³dÅĤo": 7144,
      "Ð¡": 7145,
      "Ġub": 7146,
      "ÅĤowy": 7147,
      "ÅĤowe": 7148,
      "owca": 7149,
      "iam": 7150,
      "Ġwersja": 7151,
      "ortable": 7152,
      "ates": 7153,
      "redi": 7154,
      "skop": 7155,
      "Ã³g": 7156,
      "enri": 7157,
      "onog": 7158,
      "Ġdal": 7159,
      "Ġdach": 7160,
      "Ġnatu": 7161,
      "Ġnazy": 7162,
      "leÅĽ": 7163,
      "ĠPRL": 7164,
      "Ġmedalista": 7165,
      "ĠSpa": 7166,
      "ĠSÅĤu": 7167,
      "ĠSak": 7168,
      "ÅĤach": 7169,
      "wii": 7170,
      "ĠMiej": 7171,
      "obel": 7172,
      "oboju": 7173,
      "Ġ1908": 7174,
      "1927": 7175,
      "1954": 7176,
      "Ġbas": 7177,
      "ĠAthletic": 7178,
      "umie": 7179,
      "umunii": 7180,
      "ĠList": 7181,
      "ĠTop": 7182,
      "ĠTul": 7183,
      "Ġwykazu": 7184,
      "ĠGÃ³ra": 7185,
      "uto": 7186,
      "nomi": 7187,
      "past": 7188,
      "ĠJej": 7189,
      "ĠÅĽlub": 7190,
      "ematy": 7191,
      "ĠEv": 7192,
      "Ġlist": 7193,
      "onale": 7194,
      "wiazda": 7195,
      "bip": 7196,
      "azz": 7197,
      "Ġniez": 7198,
      "âĢĿ<": 7199,
      "Ġnp": 7200,
      "loty": 7201,
      "ukr": 7202,
      "Polski": 7203,
      "ĠWyÅ¼": 7204,
      "ĠWydziaÅĤu": 7205,
      "edalem": 7206,
      "Ġznalaz": 7207,
      "work": 7208,
      "ĠpaÅĦstwa": 7209,
      "Ġosad": 7210,
      "ardi": 7211,
      "miana": 7212,
      "pean": 7213,
      "Reprezent": 7214,
      "Ġkonstruk": 7215,
      "ralne": 7216,
      "Ġnajbardziej": 7217,
      "orzÃ³w": 7218,
      "1963": 7219,
      "1969": 7220,
      "landia": 7221,
      "lassi": 7222,
      "Ġsied": 7223,
      "Ã¼n": 7224,
      "IND": 7225,
      "Warszawie": 7226,
      "ograficzny": 7227,
      "Stacja": 7228,
      "adeusza": 7229,
      "omorskie": 7230,
      "ĠspoÅĤecz": 7231,
      "ilip": 7232,
      "Ġdomu": 7233,
      "botanika": 7234,
      "czÄħcych": 7235,
      "Ġwykonaw": 7236,
      "ĠpiÅĤkarski": 7237,
      "SCO": 7238,
      "players": 7239,
      "Ġpoprzedniego": 7240,
      "ĠRobert": 7241,
      "Ġcenter": 7242,
      "ĠMichaÅĤa": 7243,
      "Charles": 7244,
      "Ġszlache": 7245,
      "Ġodznaczenia": 7246,
      "ĠdowÃ³dcy": 7247,
      "egional": 7248,
      "ĠWielkopolski": 7249,
      "ĠreÅ¼yserii": 7250,
      "Szwajcaria": 7251,
      "odiversity": 7252,
      "Ġwiernych": 7253,
      "wÅĤaÅĽciciel": 7254,
      "puszczal": 7255,
      "ĠBoÅ¼ej": 7256,
      "ĠWrocÅĤawiu": 7257,
      "scenariusz": 7258,
      "UchwaÅĤa": 7259,
      "WÄĻgry": 7260,
      "%;": 7261,
      "BO": 7262,
      "EX": 7263,
      "IA": 7264,
      "MS": 7265,
      "Mal": 7266,
      "Sing": 7267,
      "SEE": 7268,
      "TV": 7269,
      "UkÅĤad": 7270,
      "Wit": 7271,
      "black": 7272,
      "dd": 7273,
      "fra": 7274,
      "gh": 7275,
      "iony": 7276,
      "kier": 7277,
      "koÅĽci": 7278,
      "lr": 7279,
      "vet": 7280,
      "wem": 7281,
      "yal": 7282,
      "|!": 7283,
      "ÄĨ": 7284,
      "Î±": 7285,
      "Ðĵ": 7286,
      "ÑĦ": 7287,
      "Ġsko": 7288,
      "Ġopubli": 7289,
      "ĠciÄħgu": 7290,
      "ienica": 7291,
      "stia": 7292,
      "strii": 7293,
      "nada": 7294,
      "national": 7295,
      "Ġwart": 7296,
      "Ġwoka": 7297,
      "ĠwrocÅĤaw": 7298,
      "ĠwaÅ¼": 7299,
      "rep": 7300,
      "reÅ¼yseria": 7301,
      "ĠpodziaÅĤ": 7302,
      "sky": 7303,
      "nit": 7304,
      "nionie": 7305,
      "nicka": 7306,
      "Ġzde": 7307,
      "ende": 7308,
      "ender": 7309,
      "onogi": 7310,
      "szard": 7311,
      "ĠPom": 7312,
      "ĠPap": 7313,
      "ĠPlan": 7314,
      "alna": 7315,
      "alerii": 7316,
      "tum": 7317,
      "dzkiego": 7318,
      "Ġkons": 7319,
      "Ġkraw": 7320,
      "miona": 7321,
      "cik": 7322,
      "ĠMur": 7323,
      "Ġ1917": 7324,
      "Ġ1922": 7325,
      "oÅĽcin": 7326,
      "1920": 7327,
      "1958": 7328,
      "1956": 7329,
      "Ġstoli": 7330,
      "ĠKru": 7331,
      "ĠKiel": 7332,
      "ĠCH": 7333,
      "meta": 7334,
      "ĠLos": 7335,
      "Ġuj": 7336,
      "Ġukra": 7337,
      "ĠTor": 7338,
      "Ġzalicz": 7339,
      "ĠzastÄĻp": 7340,
      "Ġtro": 7341,
      "ĠGi": 7342,
      "ĠGrand": 7343,
      "Ġ||'''": 7344,
      "wykona": 7345,
      "noty": 7346,
      "20120": 7347,
      "paÅĽ": 7348,
      "zaj": 7349,
      "rania": 7350,
      "cke": 7351,
      "ĠUr": 7352,
      "Ġrez": 7353,
      "architekt": 7354,
      "mieniu": 7355,
      "Ġmag": 7356,
      "ĠStrzelcÃ³w": 7357,
      "Ġobwodu": 7358,
      "ĠspÃ³ÅĤ": 7359,
      "Å¼eli": 7360,
      "rÄĻb": 7361,
      "artist": 7362,
      "ĠVer": 7363,
      "Ġ04": 7364,
      "ĠÐº": 7365,
      "ĠÐĳ": 7366,
      "Ġhonor": 7367,
      "inae": 7368,
      "ĠChor": 7369,
      "sienne": 7370,
      "siÄħc": 7371,
      "ĠMilitar": 7372,
      "edaliÅĽci": 7373,
      "Armator": 7374,
      "Christ": 7375,
      "Ġdyskiem": 7376,
      "mpedia": 7377,
      "doch": 7378,
      "Poch": 7379,
      "Ġwzniesi": 7380,
      "1961": 7381,
      "1966": 7382,
      "Ġpopular": 7383,
      "ĠpowieÅĽci": 7384,
      "ĠrÃ³wno": 7385,
      "Ġmieszka": 7386,
      "Ġwido": 7387,
      "wald": 7388,
      "Ġstacja": 7389,
      "ĠMoorer": 7390,
      "Å»uÅ¼el": 7391,
      "Dekanat": 7392,
      "CHL": 7393,
      "walifi": 7394,
      "ĠnazwÄħ": 7395,
      "dison": 7396,
      "ĠKatowice": 7397,
      "ĠOpera": 7398,
      "Ġwalki": 7399,
      "George": 7400,
      "Park": 7401,
      "Ġfinans": 7402,
      "Mosk": 7403,
      "ĠskÅĤadzie": 7404,
      "liwoÅĽÄĩ": 7405,
      "ĠBiaÅĤorusi": 7406,
      "ĠBrytanii": 7407,
      "ĠodcinkÃ³w": 7408,
      "Ġotwarcia": 7409,
      "ĠCzech": 7410,
      "Anglia": 7411,
      "infty": 7412,
      "Jean": 7413,
      "Australia": 7414,
      "Ġpierwot": 7415,
      "ĠÅĽwiÄĻceÅĦ": 7416,
      "Akademia": 7417,
      "ĠpunktÃ³w": 7418,
      "region": 7419,
      "Ġoznacza": 7420,
      "Ġprzypadku": 7421,
      "ÅĤodzimierz": 7422,
      "Ġmacierzy": 7423,
      "Japonia": 7424,
      "default": 7425,
      "ĠOrderu": 7426,
      "ĠniektÃ³rych": 7427,
      "imnazjum": 7428,
      "%|": 7429,
      ".\"": 7430,
      "400": 7431,
      "AC": 7432,
      "AG": 7433,
      "Cent": 7434,
      "Del": 7435,
      "Er": 7436,
      "Federal": 7437,
      "Hokej": 7438,
      "Lo": 7439,
      "Meg": 7440,
      "Rok": 7441,
      "SUN": 7442,
      "Tran": 7443,
      "Tomasz": 7444,
      "Zbigniew": 7445,
      "cowa": 7446,
      "cri": 7447,
      "dent": 7448,
      "eta": 7449,
      "gn": 7450,
      "ida": 7451,
      "krÄĻg": 7452,
      "poÅĽ": 7453,
      "srebro": 7454,
      "td": 7455,
      "valign": 7456,
      "Ġes": 7457,
      "owod": 7458,
      "orowi": 7459,
      "Ġprem": 7460,
      "rol": 7461,
      "Ã³re": 7462,
      "Ġdniu": 7463,
      "ÅĽred": 7464,
      "dzkiej": 7465,
      "ĠShi": 7466,
      "taÅĤ": 7467,
      "ĠWÄħ": 7468,
      "winiÄĻ": 7469,
      "ĠMont": 7470,
      "Ġ1929": 7471,
      "urs": 7472,
      "1926": 7473,
      "Ġstrze": 7474,
      "dami": 7475,
      "ĠKy": 7476,
      "cago": 7477,
      "ĠCode": 7478,
      "kuje": 7479,
      "ategor": 7480,
      "Ġrole": 7481,
      "ĠtÅĤuma": 7482,
      "ĠDra": 7483,
      "ĠDen": 7484,
      "istor": 7485,
      "czyÄĩ": 7486,
      "Ġlw": 7487,
      "ĠHel": 7488,
      "cking": 7489,
      "allen": 7490,
      "ĠEdu": 7491,
      "onad": 7492,
      "Ġpodp": 7493,
      "105": 7494,
      "vezda": 7495,
      "ĠStowarzy": 7496,
      "ĠspÄĻ": 7497,
      "ĠVan": 7498,
      "erytor": 7499,
      "ĠÐľ": 7500,
      "Ġdebiut": 7501,
      "Ġprogra": 7502,
      "Ġprogram": 7503,
      "ograf": 7504,
      "scar": 7505,
      "ĠNames": 7506,
      "nÄħÅĤ": 7507,
      "Ġfizy": 7508,
      "oclc": 7509,
      "ĠArmia": 7510,
      "uniÄĻ": 7511,
      "aliz": 7512,
      "Ġ1953": 7513,
      "ĠSzwe": 7514,
      "podrodzina": 7515,
      "habilitacja": 7516,
      "ĠÅģuka": 7517,
      "Ġ1962": 7518,
      "Ġarcy": 7519,
      "1947": 7520,
      "ĠNarodowe": 7521,
      "1968": 7522,
      "kÄħt": 7523,
      "ÅĤowia": 7524,
      "ĠnastÄĻpnego": 7525,
      "Ġprez": 7526,
      "Ġtrakcie": 7527,
      "Wojsk": 7528,
      "ĠzachÃ³d": 7529,
      "kowice": 7530,
      "Uniwersytecie": 7531,
      "ĠwystÄĻpuje": 7532,
      "Ġobszarze": 7533,
      "ĠHouse": 7534,
      "ĠEncyklopedia": 7535,
      "ĠGames": 7536,
      "ĠdobÄĻ": 7537,
      "RozporzÄħdzenie": 7538,
      "wydanie": 7539,
      "Ġakcji": 7540,
      "ĠÅºrÃ³d": 7541,
      "ĠJÃ³zef": 7542,
      "Peter": 7543,
      "Silver": 7544,
      "rystyna": 7545,
      "ĠÅ¼oÅĤnierzy": 7546,
      "library": 7547,
      "Ġuczelni": 7548,
      "Ġuczelnia": 7549,
      "Ġmedalistka": 7550,
      "dystrykt": 7551,
      "ĠZapasach": 7552,
      "ĠApostoÅĤÃ³w": 7553,
      "doktorat": 7554,
      "etoid": 7555,
      "ĠVirtuti": 7556,
      "Hiszpania": 7557,
      "Î¿Ï": 7558,
      "riarchatu": 7559,
      "Ġtytularny": 7560,
      "nooker": 7561,
      "Ġukrai": 7562,
      "ĠMilitari": 7563,
      "/#": 7564,
      "Bal": 7565,
      "EG": 7566,
      "Fer": 7567,
      "HUN": 7568,
      "Jar": 7569,
      "KZ": 7570,
      "Mas": 7571,
      "Pla": 7572,
      "Reg": 7573,
      "Tra": 7574,
      "VI": 7575,
      "bre": 7576,
      "bara": 7577,
      "earch": 7578,
      "gor": 7579,
      "jona": 7580,
      "kre": 7581,
      "klu": 7582,
      "mas": 7583,
      "ried": 7584,
      "uty": 7585,
      "wsp": 7586,
      "zÅĤ": 7587,
      "|#": 7588,
      "Ġx": 7589,
      "Ġrzut": 7590,
      "strzy": 7591,
      "ÅĤog": 7592,
      "ÅĤowski": 7593,
      "Ġwez": 7594,
      "arczyk": 7595,
      "lish": 7596,
      "lipp": 7597,
      "skotor": 7598,
      "erica": 7599,
      "rzad": 7600,
      "Ġzew": 7601,
      "Ġzniesi": 7602,
      "Ġdor": 7603,
      "ĠdÅº": 7604,
      "inka": 7605,
      "Ġnaczel": 7606,
      "lesi": 7607,
      "less": 7608,
      "ĠPon": 7609,
      "ĠmÃ³w": 7610,
      "olia": 7611,
      "olan": 7612,
      "ceum": 7613,
      "ĠSÄħ": 7614,
      "ĠSur": 7615,
      "ĠSejm": 7616,
      "Ġil": 7617,
      "wad": 7618,
      "Ã³wku": 7619,
      "ĠWspÃ³ÅĤ": 7620,
      "ison": 7621,
      "Ġstref": 7622,
      "ĠBole": 7623,
      "ĠKos": 7624,
      "Ġgro": 7625,
      "ĠAk": 7626,
      "ĠAni": 7627,
      "ĠAcade": 7628,
      "ĠamerykaÅĦ": 7629,
      "ĠCir": 7630,
      "fini": 7631,
      "Ġukaza": 7632,
      "ĠTu": 7633,
      "ĠTam": 7634,
      "ĠzakÅĤa": 7635,
      "Ġ''(": 7636,
      "Ġtre": 7637,
      "Ġtworzy": 7638,
      "iÄĻg": 7639,
      "asi": 7640,
      "ogrÃ³": 7641,
      "ĠGro": 7642,
      "ĠGroup": 7643,
      "deo": 7644,
      "departament": 7645,
      "Ġpokry": 7646,
      "ĠposzczegÃ³l": 7647,
      "zeta": 7648,
      "ĠZygm": 7649,
      "ÅĤote": 7650,
      "ĠJerzy": 7651,
      "ĠEast": 7652,
      "poÅ¼y": 7653,
      "ciach": 7654,
      "Ġcztery": 7655,
      "wiadom": 7656,
      "rick": 7657,
      "biodiversity": 7658,
      "Ġpoda": 7659,
      "miesia": 7660,
      "103": 7661,
      "116": 7662,
      "vec": 7663,
      "ĠStrona": 7664,
      "ĠobjÄħÅĤ": 7665,
      "ezja": 7666,
      "Ġspra": 7667,
      "ĠVII": 7668,
      "Ġdetails": 7669,
      "noÅĽciÄħ": 7670,
      "gula": 7671,
      "guez": 7672,
      "bliote": 7673,
      "Ġ82": 7674,
      "Ġ89": 7675,
      "sson": 7676,
      "abu": 7677,
      "Ġosi": 7678,
      "Ġosied": 7679,
      "Ġ1949": 7680,
      "Ð½Ñĭ": 7681,
      "Ġ1957": 7682,
      "atecznie": 7683,
      "Ġchroni": 7684,
      "Art": 7685,
      "ÑĢÐ¾": 7686,
      "Ġoprac": 7687,
      "Ġ1966": 7688,
      "uÅĤkow": 7689,
      "paratysty": 7690,
      "chester": 7691,
      "wierdz": 7692,
      "polska": 7693,
      "ĠwÅĤadzy": 7694,
      "Ġswoich": 7695,
      "Dzie": 7696,
      "ĠYou": 7697,
      "Ġmetra": 7698,
      "ĠWiteb": 7699,
      "ãģĦ": 7700,
      "narodowoÅĽÄĩ": 7701,
      "Ġgrupa": 7702,
      "Ġminister": 7703,
      "koÅĤaja": 7704,
      "yama": 7705,
      "czelnia": 7706,
      "ÅĤowieka": 7707,
      "mbas": 7708,
      "IMDb": 7709,
      "Ġludzi": 7710,
      "struktor": 7711,
      "ĠPÃ³ÅĤnocna": 7712,
      "wydany": 7713,
      "kanatu": 7714,
      "katolicyzm": 7715,
      "ĠResearch": 7716,
      "Ġpochodzenia": 7717,
      "Ġplanetoid": 7718,
      "ĠrolÄĻ": 7719,
      "grey": 7720,
      "Ġzakresie": 7721,
      "Ġspotkania": 7722,
      "Ġlokomoty": 7723,
      "Galium": 7724,
      "Ġrekord": 7725,
      "Ġburmistrz": 7726,
      "ĠszerokoÅĽci": 7727,
      "ĠCOA": 7728,
      "ĠAdministracji": 7729,
      "ĠoÅĤt": 7730,
      "Ġstudyjny": 7731,
      "ĠJagiello": 7732,
      "*:": 7733,
      ">:": 7734,
      "Ad": 7735,
      "GKS": 7736,
      "Is": 7737,
      "Kanton": 7738,
      "Martin": 7739,
      "Metro": 7740,
      "Monitor": 7741,
      "Sza": 7742,
      "West": 7743,
      "brze": 7744,
      "cro": 7745,
      "gÄĻ": 7746,
      "gÃ³w": 7747,
      "gdy": 7748,
      "hb": 7749,
      "ken": 7750,
      "lus": 7751,
      "umi": 7752,
      "uzy": 7753,
      "uel": 7754,
      "ujÄħc": 7755,
      "vers": 7756,
      "xas": 7757,
      "zor": 7758,
      "ÐĴ": 7759,
      "Ġ'": 7760,
      "ĠĠĊ": 7761,
      "ÅĤody": 7762,
      "iaÅĤo": 7763,
      "Ġwchodz": 7764,
      "atur": 7765,
      "real": 7766,
      "Ġpart": 7767,
      "rap": 7768,
      "Ġzb": 7769,
      "Ġzbi": 7770,
      "Ġzniesie": 7771,
      "eno": 7772,
      "Ġ1000": 7773,
      "szpa": 7774,
      "szczenia": 7775,
      "Å¼na": 7776,
      "ĠPot": 7777,
      "ĠPers": 7778,
      "Ġmel": 7779,
      "tua": 7780,
      "Ġsu": 7781,
      "Ġsortable": 7782,
      "ĠSing": 7783,
      "lah": 7784,
      "ĠiÅ¼": 7785,
      "ĠMand": 7786,
      "obole": 7787,
      "1924": 7788,
      "1923": 7789,
      "ĠgÅĤÄĻ": 7790,
      "Ġbatalion": 7791,
      "Ġuda": 7792,
      "ĠTbilisi": 7793,
      "Ġwyje": 7794,
      "Ġwybud": 7795,
      "ĠOn": 7796,
      "ĠOsiÄħg": 7797,
      "istrzem": 7798,
      "czyÅĦski": 7799,
      "ĠZawod": 7800,
      "nova": 7801,
      "ĠprzeszedÅĤ": 7802,
      "ĠJohan": 7803,
      "sit": 7804,
      "ĠEr": 7805,
      "ese": 7806,
      "ĠoddziaÅĤ": 7807,
      "ĠÅł": 7808,
      "rodzie": 7809,
      "cial": 7810,
      "Ġrepubli": 7811,
      "szyn": 7812,
      "104": 7813,
      "109": 7814,
      "Ġnazwi": 7815,
      "Ġnazwie": 7816,
      "idi": 7817,
      "ĠobjÄĻ": 7818,
      "Ġprawo": 7819,
      "Ġprzyja": 7820,
      "ĠÐĴ": 7821,
      "String": 7822,
      "wikisÅĤownik": 7823,
      "Ã©ri": 7824,
      "ĠWystÄĻp": 7825,
      "arzenia": 7826,
      "ĠpowrÃ³ciÅĤ": 7827,
      "Ġstylem": 7828,
      "Ġradi": 7829,
      "ĠMichael": 7830,
      "Ġ1956": 7831,
      "ĠMarii": 7832,
      "oryginalny": 7833,
      "manga": 7834,
      "board": 7835,
      "orami": 7836,
      "Ġareszt": 7837,
      "Ġklubowa": 7838,
      "1942": 7839,
      "skupa": 7840,
      "ĠUnion": 7841,
      "ĠwrzeÅĽniu": 7842,
      "UrodziÅĤ": 7843,
      "rywany": 7844,
      "ĠzawodÃ³w": 7845,
      "Ã¼r": 7846,
      "ĠMatej": 7847,
      "niczych": 7848,
      "ĠMoore": 7849,
      "Japo": 7850,
      "wyciÄĻstwa": 7851,
      "Austria": 7852,
      "\">''": 7853,
      "Ġniemiecka": 7854,
      "Ġniemieckiej": 7855,
      "ĠBerlin": 7856,
      "ĠKatowicach": 7857,
      "mistrzostwach": 7858,
      "System": 7859,
      "ĠnaleÅ¼Äħ": 7860,
      "Rocznik": 7861,
      "Ġminut": 7862,
      "ĠreprezentantÃ³w": 7863,
      "Ġpancer": 7864,
      "Europa": 7865,
      "wyciÄĻzcy": 7866,
      "Ġtrwania": 7867,
      "Ġbiegu": 7868,
      "ĠnagrÃ³d": 7869,
      "ĠkaÅ¼dy": 7870,
      "Ġsamej": 7871,
      "ĠWiersz": 7872,
      "ĠGdynia": 7873,
      "ĠÂ«": 7874,
      "Ġwielkopolskie": 7875,
      "konsekrator": 7876,
      "Uczestnicy": 7877,
      "ĠlÄħdowe": 7878,
      "ĠTrÃ³jcy": 7879,
      "Niemieccy": 7880,
      "miesiac": 7881,
      ".),": 7882,
      "220": 7883,
      "Black": 7884,
      "Data": 7885,
      "Ir": 7886,
      "Kalifornia": 7887,
      "NIS": 7888,
      "Ph": 7889,
      "Play": 7890,
      "Rez": 7891,
      "Tro": 7892,
      "XX": 7893,
      "Zam": 7894,
      "cing": 7895,
      "cone": 7896,
      "cÅĤaw": 7897,
      "hard": 7898,
      "mÄĻ": 7899,
      "rÃŃ": 7900,
      "sum": 7901,
      "tka": 7902,
      "try": 7903,
      "tand": 7904,
      "trener": 7905,
      "unek": 7906,
      "zam": 7907,
      "ÑĪ": 7908,
      "ÙĦ": 7909,
      "Ġedu": 7910,
      "]]</": 7911,
      "orek": 7912,
      "anka": 7913,
      "arski": 7914,
      "arium": 7915,
      "chody": 7916,
      "'']]": 7917,
      "Ġpunk": 7918,
      "czona": 7919,
      "rolet": 7920,
      "skÅĤad": 7921,
      "niÄĩ": 7922,
      "Ġziemi": 7923,
      "}})</": 7924,
      "Ġdark": 7925,
      "ÄħÅĤ": 7926,
      "inu": 7927,
      "inen": 7928,
      "lege": 7929,
      "sznie": 7930,
      "âĢ¦": 7931,
      "alf": 7932,
      "Ġmomen": 7933,
      "tyki": 7934,
      "dzis": 7935,
      "ceph": 7936,
      "mits": 7937,
      "ĠSze": 7938,
      "ladel": 7939,
      "ciÅĦski": 7940,
      "wija": 7941,
      "with": 7942,
      "ĠMorf": 7943,
      "Ġ1910": 7944,
      "Ġ1905": 7945,
      "zyli": 7946,
      "1930": 7947,
      "ĠBez": 7948,
      "Ġgwiazd": 7949,
      "osc": 7950,
      "osp": 7951,
      "spie": 7952,
      "fic": 7953,
      "ĠLou": 7954,
      "ĠLondon": 7955,
      "owady": 7956,
      "ĠTro": 7957,
      "ĠTen": 7958,
      "skach": 7959,
      "ĠzaleÅ¼": 7960,
      "Ġwych": 7961,
      "udio": 7962,
      "ĠtÄĻ": 7963,
      "unku": 7964,
      "main": 7965,
      "czykÃ³w": 7966,
      "edÅ¼er": 7967,
      "ette": 7968,
      "cklist": 7969,
      "bawi": 7970,
      "allmusic": 7971,
      "ĠEarth": 7972,
      "esa": 7973,
      "ĠUczest": 7974,
      "mieckie": 7975,
      "kardyna": 7976,
      "106": 7977,
      "113": 7978,
      "114": 7979,
      "ĠmaÅĤych": 7980,
      "Ġ59": 7981,
      "toch": 7982,
      "istrzostwo": 7983,
      "ucha": 7984,
      "ĠVIII": 7985,
      "Ġprzygot": 7986,
      "ĠÐĲ": 7987,
      "Ġadministr": 7988,
      "mov": 7989,
      "scen": 7990,
      "Ġ87": 7991,
      "count": 7992,
      "edale": 7993,
      "miary": 7994,
      "apweb": 7995,
      "Ġrad": 7996,
      "podpis": 7997,
      "obieta": 7998,
      "ĠXII": 7999,
      "hai": 8000,
      "Ġopol": 8001,
      "Ġ1963": 8002,
      "sterdam": 8003,
      "Liczba": 8004,
      "1940": 8005,
      "ohater": 8006,
      "ĠProces": 8007,
      "Ġprzedstawia": 8008,
      "Ġsamochod": 8009,
      "Ġvs": 8010,
      "Ġvalign": 8011,
      "Ġpopulation": 8012,
      "ournal": 8013,
      "koÅĦczyÅĤ": 8014,
      "ÅģÃ³dÅº": 8015,
      "oÅ¼li": 8016,
      "Ġturysty": 8017,
      "ĠKarl": 8018,
      "Ġpartii": 8019,
      "Ġmetal": 8020,
      "Ġszef": 8021,
      "wojny": 8022,
      "ĠObecnie": 8023,
      "Ġdowol": 8024,
      "Ġpierwszych": 8025,
      "ĠZabyt": 8026,
      "ĠzdobyÅĤa": 8027,
      "prl": 8028,
      "pring": 8029,
      "nagrywany": 8030,
      "ÑĥÑĤ": 8031,
      "ĠmeczÃ³w": 8032,
      "Ġekonomi": 8033,
      "ĠpozostaÅĤ": 8034,
      "Ġseniorzy": 8035,
      "hammad": 8036,
      "Ġbramek": 8037,
      "Biskupi": 8038,
      "waniem": 8039,
      "domek": 8040,
      "ĠuÅ¼yt": 8041,
      "Ġwykony": 8042,
      "bottom": 8043,
      "ĠXVI": 8044,
      "ĠRobot": 8045,
      "Ġkomputer": 8046,
      "arÃ³wno": 8047,
      "Ġdawna": 8048,
      "ĠjednoczeÅĽnie": 8049,
      "ĠDemokraty": 8050,
      "Ġcharakter": 8051,
      "Narod": 8052,
      "Ġsekretar": 8053,
      "basketball": 8054,
      "ĠRzeszÃ³w": 8055,
      "ĠFranciszek": 8056,
      "banknoty": 8057,
      "ĠrozwiÄħzania": 8058,
      "Ġnominacji": 8059,
      "ĠdolnoÅĽlÄħskie": 8060,
      "Ġtramwaj": 8061,
      "Wschodnionie": 8062,
      "ÅļlÄħsk": 8063,
      "wykle": 8064,
      "ĠSeniorÃ³w": 8065,
      "Ġrundzie": 8066,
      "ĠStyle": 8067,
      "ĠÃ³wczes": 8068,
      "ĠMistrzyÅĦ": 8069,
      "Reprezentanci": 8070,
      "oÅĽcinnie": 8071,
      "wykonawca": 8072,
      "poÅĽred": 8073,
      "ĠWitebsku": 8074,
      "ĠOsiÄħgniÄĻcia": 8075,
      "Ġdarkgrey": 8076,
      "Wschodnioniemiecka": 8077,
      "Ani": 8078,
      "Bur": 8079,
      "COL": 8080,
      "Em": 8081,
      "Earth": 8082,
      "IUCN": 8083,
      "MK": 8084,
      "Mont": 8085,
      "Mit": 8086,
      "MedaliÅĽci": 8087,
      "Red": 8088,
      "Res": 8089,
      "Richard": 8090,
      "TD": 8091,
      "Tar": 8092,
      "UG": 8093,
      "Unia": 8094,
      "Zap": 8095,
      "__": 8096,
      "bf": 8097,
      "bus": 8098,
      "catholic": 8099,
      "dorf": 8100,
      "lie": 8101,
      "mont": 8102,
      "una": 8103,
      "zÅĤoto": 8104,
      "Â»": 8105,
      "ÃĹ": 8106,
      "ÅĤoÅĽci": 8107,
      "ÅĤek": 8108,
      "ower": 8109,
      "owal": 8110,
      "ĠwÄħ": 8111,
      "Ġwpis": 8112,
      "anin": 8113,
      "atek": 8114,
      "ÄĻbi": 8115,
      "chu": 8116,
      "''{{": 8117,
      "reet": 8118,
      "reprezenta": 8119,
      "ĠporÃ³w": 8120,
      "czer": 8121,
      "czego": 8122,
      "rzaÅĤ": 8123,
      "rael": 8124,
      "Ġzmiany": 8125,
      "odcin": 8126,
      "inz": 8127,
      "ĠPog": 8128,
      "tyj": 8129,
      "Ġsobie": 8130,
      "Ġkrea": 8131,
      "ĠSukcesy": 8132,
      "ĠWÄĻgier": 8133,
      "ÅĦcy": 8134,
      "wini": 8135,
      "wica": 8136,
      "ĠMen": 8137,
      "ĠMod": 8138,
      "ĠMis": 8139,
      "ĠMet": 8140,
      "1935": 8141,
      "1951": 8142,
      "ĠBab": 8143,
      "ĠKole": 8144,
      "ĠKlasy": 8145,
      "ĠCON": 8146,
      "metro": 8147,
      "ryg": 8148,
      "ĠwystÄħpiÅĤ": 8149,
      "ĠGer": 8150,
      "ĠOce": 8151,
      "unta": 8152,
      "google": 8153,
      "ĠIgrzysk": 8154,
      "wym": 8155,
      "wyszuki": 8156,
      "ĠFK": 8157,
      "amo": 8158,
      "ĠÅĽpie": 8159,
      "ranie": 8160,
      "bast": 8161,
      "sim": 8162,
      "Å¼yt": 8163,
      "andra": 8164,
      "archii": 8165,
      "mierzy": 8166,
      "101": 8167,
      "ider": 8168,
      "ĠStany": 8169,
      "ĠStandard": 8170,
      "Ġobron": 8171,
      "Ġobrony": 8172,
      "Ġszkole": 8173,
      "ĠVI": 8174,
      "Ġ01": 8175,
      "ĠÐļ": 8176,
      "enis": 8177,
      "Ġprof": 8178,
      "niejszych": 8179,
      "eracja": 8180,
      "Polonia": 8181,
      "Ã©r": 8182,
      "ĠWydziale": 8183,
      "ĠwieÅ¼": 8184,
      "nikami": 8185,
      "Ġskrzy": 8186,
      "Ġradzie": 8187,
      "podrzÄħd": 8188,
      "podtyp": 8189,
      "Ġchor": 8190,
      "ÑĢÐµ": 8191
    },
    "merges": [
      [
        "Ġ",
        "Ġ"
      ],
      [
        "ĠĠ",
        "ĠĠ"
      ],
      [
        "ĠĠĠĠ",
        "ĠĠĠĠ"
      ],
      [
        "i",
        "e"
      ],
      [
        "Ġ",
        "|"
      ],
      [
        "Ġ",
        "="
      ],
      [
        "]",
        "]"
      ],
      [
        "[",
        "["
      ],
      [
        "s",
        "t"
      ],
      [
        "Å",
        "Ĥ"
      ],
      [
        "n",
        "a"
      ],
      [
        "o",
        "w"
      ],
      [
        "Ġ",
        "[["
      ],
      [
        "i",
        "a"
      ],
      [
        "Ġ",
        "w"
      ],
      [
        "o",
        "r"
      ],
      [
        "a",
        "n"
      ],
      [
        "a",
        "r"
      ],
      [
        "a",
        "t"
      ],
      [
        "Ä",
        "Ļ"
      ],
      [
        "c",
        "h"
      ],
      [
        "'",
        "'"
      ],
      [
        "r",
        "e"
      ],
      [
        "l",
        "i"
      ],
      [
        "Ġ",
        "p"
      ],
      [
        "c",
        "z"
      ],
      [
        "r",
        "o"
      ],
      [
        "s",
        "k"
      ],
      [
        "e",
        "r"
      ],
      [
        "Ã",
        "³"
      ],
      [
        "r",
        "z"
      ],
      [
        "n",
        "i"
      ],
      [
        "2",
        "0"
      ],
      [
        "r",
        "a"
      ],
      [
        "Ġ",
        "z"
      ],
      [
        "e",
        "n"
      ],
      [
        "o",
        "n"
      ],
      [
        "{",
        "{"
      ],
      [
        "}",
        "}"
      ],
      [
        "Ġ",
        "d"
      ],
      [
        "Ġ",
        "Ċ"
      ],
      [
        "Ä",
        "ħ"
      ],
      [
        "Ġ",
        "1"
      ],
      [
        "o",
        "d"
      ],
      [
        "Å",
        "Ľ"
      ],
      [
        "i",
        "n"
      ],
      [
        "Ġ",
        "na"
      ],
      [
        "l",
        "e"
      ],
      [
        "s",
        "z"
      ],
      [
        "ĠĠĠĠĠĠĠĠ",
        "ĠĠĠĠĠĠĠĠ"
      ],
      [
        "k",
        "a"
      ],
      [
        "â",
        "Ģ"
      ],
      [
        "Ġ",
        "("
      ],
      [
        "Å",
        "¼"
      ],
      [
        "Ġ",
        "P"
      ],
      [
        "a",
        "l"
      ],
      [
        "Ġ",
        "m"
      ],
      [
        "t",
        "u"
      ],
      [
        "t",
        "y"
      ],
      [
        "o",
        "l"
      ],
      [
        "e",
        "g"
      ],
      [
        "re",
        "f"
      ],
      [
        "d",
        "z"
      ],
      [
        "Ġ",
        "s"
      ],
      [
        "Ġ",
        "k"
      ],
      [
        "c",
        "e"
      ],
      [
        "m",
        "i"
      ],
      [
        "n",
        "e"
      ],
      [
        "Ġ",
        "S"
      ],
      [
        "o",
        "p"
      ],
      [
        "Ġ",
        "20"
      ],
      [
        "l",
        "a"
      ],
      [
        "c",
        "i"
      ],
      [
        "Ġ",
        "i"
      ],
      [
        "k",
        "i"
      ],
      [
        "c",
        "y"
      ],
      [
        "n",
        "ie"
      ],
      [
        "w",
        "a"
      ],
      [
        "t",
        "a"
      ],
      [
        "j",
        "e"
      ],
      [
        "o",
        "st"
      ],
      [
        "ĠĠ",
        "Ġ"
      ],
      [
        "o",
        "m"
      ],
      [
        "Ã³",
        "w"
      ],
      [
        "Ġ",
        "W"
      ],
      [
        "ÅĤ",
        "a"
      ],
      [
        "n",
        "y"
      ],
      [
        "i",
        "s"
      ],
      [
        "Å",
        "Ħ"
      ],
      [
        "''",
        "'"
      ],
      [
        "ĠĠĠĠĠĠĠĠ",
        "ĠĠĠĠ"
      ],
      [
        "w",
        "i"
      ],
      [
        "âĢ",
        "ĵ"
      ],
      [
        "sk",
        "i"
      ],
      [
        "Ġ",
        "M"
      ],
      [
        "j",
        "a"
      ],
      [
        "o",
        "b"
      ],
      [
        "Ġ1",
        "9"
      ],
      [
        "at",
        "a"
      ],
      [
        "rz",
        "e"
      ],
      [
        "t",
        "e"
      ],
      [
        "o",
        "ÅĽ"
      ],
      [
        "w",
        "w"
      ],
      [
        "u",
        "r"
      ],
      [
        "z",
        "y"
      ],
      [
        "1",
        "9"
      ],
      [
        "h",
        "t"
      ],
      [
        "Ġ",
        "st"
      ],
      [
        "d",
        "a"
      ],
      [
        "Ġ",
        "B"
      ],
      [
        "ie",
        "j"
      ],
      [
        "Ġ",
        "R"
      ],
      [
        "Ġ",
        "K"
      ],
      [
        "Ġ",
        "g"
      ],
      [
        "Ġ",
        "b"
      ],
      [
        "=",
        "\""
      ],
      [
        "Ġ",
        "A"
      ],
      [
        "o",
        "s"
      ],
      [
        "rz",
        "y"
      ],
      [
        "k",
        "ow"
      ],
      [
        "Ġ",
        "a"
      ],
      [
        "c",
        "a"
      ],
      [
        "u",
        "m"
      ],
      [
        "=",
        "="
      ],
      [
        "Ġ",
        "C"
      ],
      [
        "<",
        "/"
      ],
      [
        "u",
        "b"
      ],
      [
        "m",
        "e"
      ],
      [
        "n",
        "ia"
      ],
      [
        "k",
        "u"
      ],
      [
        "]]",
        ","
      ],
      [
        "w",
        "o"
      ],
      [
        "s",
        "p"
      ],
      [
        "g",
        "a"
      ],
      [
        "or",
        "ia"
      ],
      [
        "at",
        "eg"
      ],
      [
        "f",
        "i"
      ],
      [
        "Ġ",
        "âĢĵ"
      ],
      [
        "t",
        "p"
      ],
      [
        "Ä",
        "ĩ"
      ],
      [
        "ie",
        "r"
      ],
      [
        "Ġ",
        "ro"
      ],
      [
        "/",
        "/"
      ],
      [
        "ht",
        "tp"
      ],
      [
        ":",
        "//"
      ],
      [
        "Ġ",
        "L"
      ],
      [
        "ow",
        "a"
      ],
      [
        "Ġ",
        "o"
      ],
      [
        "r",
        "y"
      ],
      [
        "Ġ",
        "u"
      ],
      [
        "j",
        "ÄĻ"
      ],
      [
        "Ġ",
        "N"
      ],
      [
        "ateg",
        "oria"
      ],
      [
        "eg",
        "o"
      ],
      [
        "an",
        "y"
      ],
      [
        "Ġ",
        "T"
      ],
      [
        "sk",
        "a"
      ],
      [
        "K",
        "ategoria"
      ],
      [
        "Ġz",
        "a"
      ],
      [
        "Ġw",
        "y"
      ],
      [
        ")",
        "|"
      ],
      [
        "k",
        "o"
      ],
      [
        "u",
        "d"
      ],
      [
        "d",
        "ata"
      ],
      [
        "Ġ",
        "''"
      ],
      [
        "e",
        "j"
      ],
      [
        "Ġ",
        "t"
      ],
      [
        "i",
        "ÄĻ"
      ],
      [
        "a",
        "s"
      ],
      [
        "o",
        "g"
      ],
      [
        "ow",
        "y"
      ],
      [
        "Ġ",
        "G"
      ],
      [
        "Ġ",
        "D"
      ],
      [
        "Ġ",
        "{{"
      ],
      [
        "Ġ",
        "O"
      ],
      [
        "tu",
        "ÅĤ"
      ],
      [
        "d",
        "e"
      ],
      [
        "c",
        "ie"
      ],
      [
        "u",
        "n"
      ],
      [
        "ty",
        "tuÅĤ"
      ],
      [
        "ÄĻ",
        "p"
      ],
      [
        "u",
        "t"
      ],
      [
        "g",
        "o"
      ],
      [
        "m",
        "a"
      ],
      [
        "Ġp",
        "o"
      ],
      [
        "sk",
        "ie"
      ],
      [
        "i",
        "st"
      ],
      [
        "Ġ=",
        "="
      ],
      [
        "e",
        "l"
      ],
      [
        "Ġd",
        "o"
      ],
      [
        "Ġ20",
        "1"
      ],
      [
        "iej",
        "s"
      ],
      [
        "Ġ|",
        "|"
      ],
      [
        "j",
        "i"
      ],
      [
        "cz",
        "y"
      ],
      [
        "Ġ",
        "I"
      ],
      [
        "w",
        "y"
      ],
      [
        "z",
        "e"
      ],
      [
        "d",
        "y"
      ],
      [
        "Ġ",
        "2"
      ],
      [
        "Ġ",
        "Z"
      ],
      [
        "n",
        "o"
      ],
      [
        "c",
        "ja"
      ],
      [
        "Ġ",
        "l"
      ],
      [
        "en",
        "t"
      ],
      [
        ">",
        "{{"
      ],
      [
        "r",
        "u"
      ],
      [
        "ww",
        "w"
      ],
      [
        "20",
        "1"
      ],
      [
        "Ġna",
        "me"
      ],
      [
        "j",
        "Äħ"
      ],
      [
        "Ġ",
        "je"
      ],
      [
        "tu",
        "j"
      ],
      [
        "i",
        "l"
      ],
      [
        "w",
        "ie"
      ],
      [
        "Ġ",
        "in"
      ],
      [
        "c",
        "om"
      ],
      [
        "ĠĠĠĠĠĠĠĠĠĠĠĠĠĠĠĠ",
        "ĠĠĠĠ"
      ],
      [
        "Ġ",
        "F"
      ],
      [
        "}}",
        "</"
      ],
      [
        "p",
        "a"
      ],
      [
        "oÅĽ",
        "ci"
      ],
      [
        "Ġ",
        "H"
      ],
      [
        "0",
        "0"
      ],
      [
        "o",
        "k"
      ],
      [
        "a",
        "m"
      ],
      [
        "]]",
        "."
      ],
      [
        "e",
        "k"
      ],
      [
        "u",
        "s"
      ],
      [
        "|",
        "-"
      ],
      [
        "e",
        "d"
      ],
      [
        "oÅĽ",
        "Äĩ"
      ],
      [
        "ÅĤ",
        "o"
      ],
      [
        "st",
        "a"
      ],
      [
        "Ġp",
        "rze"
      ],
      [
        "e",
        "t"
      ],
      [
        "Ġ",
        "J"
      ],
      [
        "z",
        "a"
      ],
      [
        "ub",
        "li"
      ],
      [
        "ÄĻp",
        "u"
      ],
      [
        "Ġ",
        "ÅĽ"
      ],
      [
        "r",
        "an"
      ],
      [
        "p",
        "l"
      ],
      [
        "c",
        "k"
      ],
      [
        "/",
        ">"
      ],
      [
        "o",
        "t"
      ],
      [
        "c",
        "ji"
      ],
      [
        "ch",
        "i"
      ],
      [
        "b",
        "a"
      ],
      [
        "e",
        "m"
      ],
      [
        "ur",
        "l"
      ],
      [
        "li",
        "g"
      ],
      [
        "Ã³",
        "ÅĤ"
      ],
      [
        "Ġd",
        "ost"
      ],
      [
        "s",
        "i"
      ],
      [
        "Ġ",
        "http"
      ],
      [
        "Ġdost",
        "ÄĻpu"
      ],
      [
        "al",
        "l"
      ],
      [
        "en",
        "ia"
      ],
      [
        "jÄĻ",
        "zy"
      ],
      [
        "or",
        "y"
      ],
      [
        "p",
        "i"
      ],
      [
        "ÅĤ",
        "y"
      ],
      [
        "ow",
        "ie"
      ],
      [
        "b",
        "r"
      ],
      [
        "Ġ",
        "E"
      ],
      [
        "p",
        "o"
      ],
      [
        "Ġ",
        "/>"
      ],
      [
        "e",
        "s"
      ],
      [
        "Ġs",
        "iÄĻ"
      ],
      [
        "Ġ",
        "od"
      ],
      [
        "ĠĠĠĠĠĠĠĠ",
        "ĠĠĠ"
      ],
      [
        "Ġ",
        "Å"
      ],
      [
        "la",
        "ga"
      ],
      [
        "r",
        "Ã³"
      ],
      [
        "Ġ20",
        "0"
      ],
      [
        "Ġro",
        "ku"
      ],
      [
        "ni",
        "k"
      ],
      [
        "ro",
        "n"
      ],
      [
        "s",
        "y"
      ],
      [
        "ro",
        "dz"
      ],
      [
        "C",
        "y"
      ],
      [
        "Ġ",
        "li"
      ],
      [
        "or",
        "g"
      ],
      [
        "Ġ",
        "3"
      ],
      [
        "cy",
        "j"
      ],
      [
        "jÄĻzy",
        "k"
      ],
      [
        "Å¼",
        "y"
      ],
      [
        "od",
        "z"
      ],
      [
        "c",
        "ia"
      ],
      [
        "ĠĠĠĠĠĠĠĠ",
        "Ġ"
      ],
      [
        "o",
        "na"
      ],
      [
        "lig",
        "n"
      ],
      [
        "Ġ",
        "cz"
      ],
      [
        "g",
        "i"
      ],
      [
        "iejs",
        "ce"
      ],
      [
        "Cy",
        "tuj"
      ],
      [
        "o",
        "x"
      ],
      [
        "sk",
        "o"
      ],
      [
        "kow",
        "any"
      ],
      [
        "|",
        "|"
      ],
      [
        "w",
        "ia"
      ],
      [
        "r",
        "i"
      ],
      [
        "u",
        "l"
      ],
      [
        "Ġ",
        "U"
      ],
      [
        "z",
        "wa"
      ],
      [
        "ie",
        "l"
      ],
      [
        "Ġ",
        "re"
      ],
      [
        "b",
        "i"
      ],
      [
        "op",
        "ubli"
      ],
      [
        "an",
        "d"
      ],
      [
        "t",
        "h"
      ],
      [
        "20",
        "0"
      ],
      [
        "Ġ20",
        "2"
      ],
      [
        "p",
        "is"
      ],
      [
        "st",
        "wo"
      ],
      [
        "opubli",
        "kowany"
      ],
      [
        "at",
        "y"
      ],
      [
        "Ġin",
        "f"
      ],
      [
        "ÅĤ",
        "u"
      ],
      [
        "sz",
        "a"
      ],
      [
        "t",
        "i"
      ],
      [
        "ĠĠĠĠĠĠĠĠ",
        "ĠĠ"
      ],
      [
        "]]",
        "<"
      ],
      [
        "a",
        "k"
      ],
      [
        "w",
        "e"
      ],
      [
        "sz",
        "y"
      ],
      [
        "Ġp",
        "od"
      ],
      [
        "ne",
        "j"
      ],
      [
        "ow",
        "an"
      ],
      [
        "st",
        "y"
      ],
      [
        "a",
        "d"
      ],
      [
        "s",
        "m"
      ],
      [
        "ar",
        "chi"
      ],
      [
        "op",
        "is"
      ],
      [
        "ĠĠĠĠĠĠĠĠĠĠĠĠ",
        "Ġ"
      ],
      [
        "ny",
        "ch"
      ],
      [
        "ob",
        "ox"
      ],
      [
        "Ġinf",
        "obox"
      ],
      [
        "on",
        "s"
      ],
      [
        "w",
        "Ã³"
      ],
      [
        "st",
        "ra"
      ],
      [
        "m",
        "ie"
      ],
      [
        "ra",
        "fi"
      ],
      [
        "ĠP",
        "ol"
      ],
      [
        "k",
        "ar"
      ],
      [
        ">",
        "."
      ],
      [
        "Ġ",
        "f"
      ],
      [
        "an",
        "i"
      ],
      [
        "ĠĠĠĠĠĠĠĠĠĠĠĠ",
        "ĠĠĠ"
      ],
      [
        "a",
        "ÅĤ"
      ],
      [
        "1",
        "0"
      ],
      [
        "sm",
        "all"
      ],
      [
        "k",
        "t"
      ],
      [
        "a",
        "z"
      ],
      [
        "d",
        "u"
      ],
      [
        "h",
        "e"
      ],
      [
        "t",
        "er"
      ],
      [
        "Ġ",
        "4"
      ],
      [
        "Ġna",
        "z"
      ],
      [
        "skie",
        "go"
      ],
      [
        "o",
        "j"
      ],
      [
        "Ġst",
        "ron"
      ],
      [
        "cz",
        "e"
      ],
      [
        "ow",
        "e"
      ],
      [
        "Ġstron",
        "ÄĻ"
      ],
      [
        "o",
        "li"
      ],
      [
        "Ġ",
        "c"
      ],
      [
        "na",
        "zwa"
      ],
      [
        "Ġhttp",
        "s"
      ],
      [
        "Ġ",
        "nie"
      ],
      [
        "|",
        "[["
      ],
      [
        "1",
        "1"
      ],
      [
        "re",
        "n"
      ],
      [
        "ow",
        "i"
      ],
      [
        "in",
        "g"
      ],
      [
        "ĠĠĠĠĠĠĠĠĠĠĠĠ",
        "ĠĠ"
      ],
      [
        "Ġ",
        "r"
      ],
      [
        "s",
        "e"
      ],
      [
        "a",
        "lign"
      ],
      [
        "Ġ",
        "tytuÅĤ"
      ],
      [
        "Ġje",
        "d"
      ],
      [
        "v",
        "e"
      ],
      [
        "ÅĦ",
        "ski"
      ],
      [
        "Ġm",
        "a"
      ],
      [
        "pis",
        "y"
      ],
      [
        "i",
        "d"
      ],
      [
        "on",
        "y"
      ],
      [
        "rzy",
        "pisy"
      ],
      [
        "Å",
        "º"
      ],
      [
        "mi",
        "ÄĻ"
      ],
      [
        "ĠS",
        "t"
      ],
      [
        "Ġ",
        "te"
      ],
      [
        "Ġ",
        "!"
      ],
      [
        "dz",
        "ie"
      ],
      [
        "1",
        "8"
      ],
      [
        "âĢ",
        "ŀ"
      ],
      [
        "f",
        "laga"
      ],
      [
        "âĢ",
        "Ŀ"
      ],
      [
        "1",
        "2"
      ],
      [
        "i",
        "ÅĤ"
      ],
      [
        "Ġ19",
        "9"
      ],
      [
        "Ġ",
        "'''"
      ],
      [
        "Ġd",
        "ata"
      ],
      [
        "Ġ",
        "5"
      ],
      [
        "b",
        "y"
      ],
      [
        "ie",
        "m"
      ],
      [
        "an",
        "ia"
      ],
      [
        "z",
        "na"
      ],
      [
        "sk",
        "iej"
      ],
      [
        "Ġ",
        "ob"
      ],
      [
        "or",
        "t"
      ],
      [
        "Ġb",
        "y"
      ],
      [
        "ar",
        "a"
      ],
      [
        "Ġ",
        "-"
      ],
      [
        "ia",
        "ÅĤ"
      ],
      [
        "re",
        "s"
      ],
      [
        "Ġ1",
        "8"
      ],
      [
        "ĠĠĠĠ",
        "ĠĠĠ"
      ],
      [
        "ist",
        "rz"
      ],
      [
        "c",
        "ki"
      ],
      [
        "a",
        "j"
      ],
      [
        "we",
        "b"
      ],
      [
        "c",
        "t"
      ],
      [
        "Ġ",
        "ja"
      ],
      [
        "Ġ",
        "âĢŀ"
      ],
      [
        "ow",
        "ej"
      ],
      [
        "e",
        "z"
      ],
      [
        "n",
        "ost"
      ],
      [
        "stra",
        "cyj"
      ],
      [
        "k",
        "Ã³w"
      ],
      [
        "wi",
        "sko"
      ],
      [
        "c",
        "ow"
      ],
      [
        "ro",
        "k"
      ],
      [
        "mi",
        "ni"
      ],
      [
        "ĠĠĠĠ",
        "ĠĠ"
      ],
      [
        "d",
        "jÄĻ"
      ],
      [
        "h",
        "i"
      ],
      [
        "Ġ",
        "sz"
      ],
      [
        "e",
        "w"
      ],
      [
        "ÅĦ",
        "stwo"
      ],
      [
        "t",
        "o"
      ],
      [
        "p",
        "y"
      ],
      [
        "I",
        "I"
      ],
      [
        "Ġs",
        "p"
      ],
      [
        "\"",
        ">{{"
      ],
      [
        "c",
        "ent"
      ],
      [
        "m",
        "iejsce"
      ],
      [
        "1",
        "6"
      ],
      [
        "]]",
        "''"
      ],
      [
        "]]",
        ")"
      ],
      [
        "19",
        "9"
      ],
      [
        "Å¼",
        "e"
      ],
      [
        "on",
        "e"
      ],
      [
        "Ġst",
        "y"
      ],
      [
        "Ġ",
        "ty"
      ],
      [
        "ut",
        "or"
      ],
      [
        "Ġd",
        "z"
      ],
      [
        "n",
        "ego"
      ],
      [
        "istrz",
        "ost"
      ],
      [
        "Ġz",
        "ost"
      ],
      [
        "mi",
        "na"
      ],
      [
        "t",
        "Ã³"
      ],
      [
        "}}",
        "."
      ],
      [
        "com",
        "m"
      ],
      [
        "Ð",
        "°"
      ],
      [
        "p",
        "re"
      ],
      [
        "u",
        "ch"
      ],
      [
        "Ġk",
        "tÃ³"
      ],
      [
        "20",
        "2"
      ],
      [
        "ar",
        "sza"
      ],
      [
        "Ġ",
        "or"
      ],
      [
        "li",
        "cz"
      ],
      [
        "Ġ",
        "n"
      ],
      [
        "ĠĠĠĠĠĠĠĠĠĠĠĠĠĠĠĠ",
        "ĠĠĠ"
      ],
      [
        "nost",
        "ka"
      ],
      [
        "f",
        "t"
      ],
      [
        "ĠĠĠĠĠĠĠĠĠĠĠĠĠĠĠĠ",
        "ĠĠ"
      ],
      [
        "comm",
        "ons"
      ],
      [
        "r",
        "ÄĻ"
      ],
      [
        "on",
        "t"
      ],
      [
        "ar",
        "t"
      ],
      [
        "ĠÅ",
        "ļ"
      ],
      [
        "u",
        "p"
      ],
      [
        "Ġ''",
        "[["
      ],
      [
        "Ġa",
        "d"
      ],
      [
        "Ġro",
        "z"
      ],
      [
        "o",
        "le"
      ],
      [
        "Ġ",
        "V"
      ],
      [
        "s",
        "a"
      ],
      [
        "Ġp",
        "ra"
      ],
      [
        "sp",
        "Ã³ÅĤ"
      ],
      [
        "Ġprze",
        "z"
      ],
      [
        "an",
        "g"
      ],
      [
        "ĠR",
        "D"
      ],
      [
        "n",
        "g"
      ],
      [
        "m",
        "u"
      ],
      [
        "Ġ",
        "0"
      ],
      [
        "Ġ",
        "url"
      ],
      [
        "ĠĠĠĠ",
        "Ġ"
      ],
      [
        "Ġp",
        "rzy"
      ],
      [
        "iejs",
        "cow"
      ],
      [
        "g",
        "ro"
      ],
      [
        "ÅĽ",
        "ci"
      ],
      [
        "i",
        "i"
      ],
      [
        "i",
        "c"
      ],
      [
        "l",
        "o"
      ],
      [
        "cz",
        "ny"
      ],
      [
        "1",
        "7"
      ],
      [
        "u",
        "k"
      ],
      [
        "rz",
        "ÄĻ"
      ],
      [
        "er",
        "y"
      ],
      [
        "3",
        "0"
      ],
      [
        "ĠĠĠĠĠĠĠĠĠĠĠĠĠĠĠĠ",
        "Ġ"
      ],
      [
        "i",
        "t"
      ],
      [
        "Ġ",
        "Ð"
      ],
      [
        "a",
        "w"
      ],
      [
        "Ġd",
        "e"
      ],
      [
        "m",
        "in"
      ],
      [
        "an",
        "ie"
      ],
      [
        "Ġ",
        "h"
      ],
      [
        "Ġad",
        "mini"
      ],
      [
        "1",
        "5"
      ],
      [
        "m",
        "ier"
      ],
      [
        "da",
        "w"
      ],
      [
        "m",
        "o"
      ],
      [
        "Ġo",
        "f"
      ],
      [
        "er",
        "s"
      ],
      [
        "istrzost",
        "wa"
      ],
      [
        "cy",
        "tuj"
      ],
      [
        "ĠĠĠĠĠĠĠĠĠĠĠĠĠĠĠĠĠĠĠĠ",
        "Ġ"
      ],
      [
        "u",
        "ro"
      ],
      [
        "cent",
        "er"
      ],
      [
        "ia",
        "n"
      ],
      [
        "o",
        "ÅĤ"
      ],
      [
        "1",
        "4"
      ],
      [
        "Ġnaz",
        "wisko"
      ],
      [
        "ht",
        "m"
      ],
      [
        "Ġje",
        "st"
      ],
      [
        "e",
        "ni"
      ],
      [
        "wÃ³",
        "dz"
      ],
      [
        "je",
        "wÃ³dz"
      ],
      [
        "\"",
        "|"
      ],
      [
        "owy",
        "ch"
      ],
      [
        "n",
        "oÅĽci"
      ],
      [
        "c",
        "ol"
      ],
      [
        "g",
        "u"
      ],
      [
        "f",
        "ia"
      ],
      [
        "Ġ",
        "6"
      ],
      [
        "Ġu",
        "rodz"
      ],
      [
        "Ġadmini",
        "stracyj"
      ],
      [
        "0",
        "2"
      ],
      [
        "en",
        "ie"
      ],
      [
        "le",
        "ft"
      ],
      [
        "Ġ",
        "j"
      ],
      [
        "l",
        "ub"
      ],
      [
        "S",
        "t"
      ],
      [
        "li",
        "k"
      ],
      [
        "Ġp",
        "ro"
      ],
      [
        "Ġg",
        "rafi"
      ],
      [
        "or",
        "d"
      ],
      [
        "ia",
        "t"
      ],
      [
        "nie",
        "j"
      ],
      [
        "or",
        "e"
      ],
      [
        "wi",
        "ki"
      ],
      [
        "er",
        "a"
      ],
      [
        "og",
        "ra"
      ],
      [
        "0",
        "5"
      ],
      [
        "ce",
        "s"
      ],
      [
        "m",
        "at"
      ],
      [
        "P",
        "ol"
      ],
      [
        "b",
        "li"
      ],
      [
        "p",
        "h"
      ],
      [
        "w",
        "ar"
      ],
      [
        "0",
        "3"
      ],
      [
        "pa",
        "ÅĦstwo"
      ],
      [
        "Ġor",
        "az"
      ],
      [
        "i",
        "na"
      ],
      [
        "Ã",
        "©"
      ],
      [
        "0",
        "4"
      ],
      [
        "ÅĤa",
        "w"
      ],
      [
        "e",
        "ÅĤ"
      ],
      [
        "ski",
        "ch"
      ],
      [
        "od",
        "n"
      ],
      [
        "j",
        "p"
      ],
      [
        "s",
        "c"
      ],
      [
        "2",
        "5"
      ],
      [
        "pre",
        "z"
      ],
      [
        "Äħ",
        "z"
      ],
      [
        "ol",
        "og"
      ],
      [
        "licz",
        "ba"
      ],
      [
        "Ġ",
        "8"
      ],
      [
        "0",
        "8"
      ],
      [
        "ĠN",
        "a"
      ],
      [
        "Ġ",
        "jÄĻzyk"
      ],
      [
        "Ġ19",
        "8"
      ],
      [
        "1",
        "3"
      ],
      [
        "Ġ",
        "ta"
      ],
      [
        "ski",
        "m"
      ],
      [
        "Â",
        "°"
      ],
      [
        "ĠW",
        "y"
      ],
      [
        "0",
        "9"
      ],
      [
        "ĠP",
        "rzypisy"
      ],
      [
        "ar",
        "z"
      ],
      [
        "2",
        "4"
      ],
      [
        "i",
        "on"
      ],
      [
        "0",
        "1"
      ],
      [
        "ro",
        "d"
      ],
      [
        "i",
        "miÄĻ"
      ],
      [
        "m",
        "pi"
      ],
      [
        "ĠÅĽ",
        "mier"
      ],
      [
        "Ġgrafi",
        "ki"
      ],
      [
        "*",
        "*"
      ],
      [
        "m",
        "y"
      ],
      [
        "ĠC",
        "h"
      ],
      [
        "s",
        "s"
      ],
      [
        "F",
        "laga"
      ],
      [
        "Ġ",
        "opublikowany"
      ],
      [
        "k",
        "od"
      ],
      [
        "http",
        "s"
      ],
      [
        "0",
        "7"
      ],
      [
        "dz",
        "i"
      ],
      [
        "Ġw",
        "ie"
      ],
      [
        "a",
        "b"
      ],
      [
        "a",
        "ch"
      ],
      [
        "Ġ",
        "en"
      ],
      [
        "ĠÅĽmier",
        "ci"
      ],
      [
        "jewÃ³dz",
        "t"
      ],
      [
        "Ġ",
        "9"
      ],
      [
        "at",
        "u"
      ],
      [
        "Ġjed",
        "nostka"
      ],
      [
        "ni",
        "ka"
      ],
      [
        "en",
        "ta"
      ],
      [
        "li",
        "n"
      ],
      [
        "wia",
        "ta"
      ],
      [
        "jp",
        "g"
      ],
      [
        "sp",
        "an"
      ],
      [
        "0",
        "6"
      ],
      [
        "na",
        "l"
      ],
      [
        "2",
        "2"
      ],
      [
        "g",
        "e"
      ],
      [
        "n",
        "Äħ"
      ],
      [
        "Ġ",
        "["
      ],
      [
        "Ġ",
        "fi"
      ],
      [
        "je",
        "d"
      ],
      [
        "ny",
        "m"
      ],
      [
        "ni",
        "u"
      ],
      [
        "e",
        "ren"
      ],
      [
        "s",
        "ie"
      ],
      [
        "c",
        "o"
      ],
      [
        "t",
        "aty"
      ],
      [
        "Ġm",
        "iejsce"
      ],
      [
        "k",
        "ie"
      ],
      [
        "ĠP",
        "o"
      ],
      [
        "Äħ",
        "d"
      ],
      [
        "Ġp",
        "ow"
      ],
      [
        "owa",
        "ÅĤ"
      ],
      [
        "ĠI",
        "n"
      ],
      [
        "ÅĤa",
        "d"
      ],
      [
        "si",
        "Äħ"
      ],
      [
        "jÄħ",
        "cy"
      ],
      [
        "Ġ",
        "<"
      ],
      [
        "|",
        "{{"
      ],
      [
        "st",
        "ÄĻp"
      ],
      [
        "an",
        "e"
      ],
      [
        "ar",
        "y"
      ],
      [
        "Ġja",
        "ko"
      ],
      [
        "sz",
        "e"
      ],
      [
        "P",
        "lik"
      ],
      [
        "Ġurodz",
        "enia"
      ],
      [
        "e",
        "da"
      ],
      [
        "2",
        "3"
      ],
      [
        "M",
        "istrzostwa"
      ],
      [
        "Ð",
        "¾"
      ],
      [
        "i",
        "r"
      ],
      [
        "Ġ",
        "7"
      ],
      [
        "cz",
        "enia"
      ],
      [
        "Ġz",
        "djÄĻ"
      ],
      [
        "htm",
        "l"
      ],
      [
        "Ġo",
        "k"
      ],
      [
        "Ġp",
        "ol"
      ],
      [
        "ow",
        "any"
      ],
      [
        "ĠW",
        "arsza"
      ],
      [
        "archi",
        "ve"
      ],
      [
        "s",
        "cy"
      ],
      [
        "Ġ",
        "e"
      ],
      [
        "er",
        "b"
      ],
      [
        "ck",
        "ie"
[...]
