{
  "version": "1.0",
  "truncation": null,
  "padding": null,
  "added_tokens": [
    {
      "id": 0,
      "content": "<|endoftext|>",
      "single_word": false,
      "lstrip": false,
      "rstrip": false,
      "normalized": false,
      "special": true
    }
  ],
  "normalizer": null,
  "pre_tokenizer": {
    "type": "ByteLevel",
    "add_prefix_space": false,
    "trim_offsets": true,
    "use_regex": true
  },
  "post_processor": null,
  "decoder": {
    "type": "ByteLevel",
    "add_prefix_space": true,
    "trim_offsets": true,
    "use_regex": true
  },
  "model": {
    "type": "BPE",
    "dropout": null,
    "unk_token": null,
    "continuing_subword_prefix": null,
    "end_of_word_suffix": null,
    "fuse_unk": false,
    "byte_fallback": false,
    "ignore_merges": false,
    "vocab": {
      "<|endoftext|>": 0,
      "!": 1,
      "\"": 2,
      "#": 3,
      "$": 4,
      "%": 5,
      "&": 6,
      "'": 7,
      "(": 8,
      ")": 9,
      "*": 10,
      "+": 11,
      ",": 12,
      "-": 13,
      ".": 14,
      "/": 15,
      "0": 16,
      "1": 17,
      "2": 18,
      "3": 19,
      "4": 20,
      "5": 21,
      "6": 22,
      "7": 23,
      "8": 24,
      "9": 25,
      ":": 26,
      ";": 27,
      "<": 28,
      "=": 29,
      ">": 30,
      "?": 31,
      "@": 32,
      "A": 33,
      "B": 34,
      "C": 35,
      "D": 36,
      "E": 37,
      "F": 38,
      "G": 39,
      "H": 40,
      "I": 41,
      "J": 42,
      "K": 43,
      "L": 44,
      "M": 45,
      "N": 46,
      "O": 47,
      "P": 48,
      "Q": 49,
      "R": 50,
      "S": 51,
      "T": 52,
      "U": 53,
      "V": 54,
      "W": 55,
      "X": 56,
      "Y": 57,
      "Z": 58,
      "[": 59,
      "\\": 60,
      "]": 61,
      "^": 62,
      "_": 63,
      "`": 64,
      "a": 65,
      "b": 66,
      "c": 67,
      "d": 68,
      "e": 69,
      "f": 70,
      "g": 71,
      "h": 72,
      "i": 73,
      "j": 74,
      "k": 75,
      "l": 76,
      "m": 77,
      "n": 78,
      "o": 79,
      "p": 80,
      "q": 81,
      "r": 82,
      "s": 83,
      "t": 84,
      "u": 85,
      "v": 86,
      "w": 87,
      "x": 88,
      "y": 89,
      "z": 90,
      "{": 91,
      "|": 92,
      "}": 93,
      "~": 94,
      "¡": 95,
      "¢": 96,
      "£": 97,
      "¤": 98,
      "¥": 99,
      "¦": 100,
      "§": 101,
      "¨": 102,
      "©": 103,
      "ª": 104,
      "«": 105,
      "¬": 106,
      "®": 107,
      "¯": 108,
      "°": 109,
      "±": 110,
      "²": 111,
      "³": 112,
      "´": 113,
      "µ": 114,
      "¶": 115,
      "·": 116,
      "¸": 117,
      "¹": 118,
      "º": 119,
      "»": 120,
      "¼": 121,
      "½": 122,
      "¾": 123,
      "¿": 124,
      "À": 125,
      "Á": 126,
      "Â": 127,
      "Ã": 128,
      "Ä": 129,
      "Å": 130,
      "Æ": 131,
      "Ç": 132,
      "È": 133,
      "É": 134,
      "Ê": 135,
      "Ë": 136,
      "Ì": 137,
      "Í": 138,
      "Î": 139,
      "Ï": 140,
      "Ð": 141,
      "Ñ": 142,
      "Ò": 143,
      "Ó": 144,
      "Ô": 145,
      "Õ": 146,
      "Ö": 147,
      "×": 148,
      "Ø": 149,
      "Ù": 150,
      "Ú": 151,
      "Û": 152,
      "Ü": 153,
      "Ý": 154,
      "Þ": 155,
      "ß": 156,
      "à": 157,
      "á": 158,
      "â": 159,
      "ã": 160,
      "ä": 161,
      "å": 162,
      "æ": 163,
      "ç": 164,
      "è": 165,
      "é": 166,
      "ê": 167,
      "ë": 168,
      "ì": 169,
      "í": 170,
      "î": 171,
      "ï": 172,
      "ð": 173,
      "ñ": 174,
      "ò": 175,
      "ó": 176,
      "ô": 177,
      "õ": 178,
      "ö": 179,
      "÷": 180,
      "ø": 181,
      "ù": 182,
      "ú": 183,
      "û": 184,
      "ü": 185,
      "ý": 186,
      "þ": 187,
      "ÿ": 188,
      "Ā": 189,
      "ā": 190,
      "Ă": 191,
      "ă": 192,
      "Ą": 193,
      "ą": 194,
      "Ć": 195,
      "ć": 196,
      "Ĉ": 197,
      "ĉ": 198,
      "Ċ": 199,
      "ċ": 200,
      "Č": 201,
      "č": 202,
      "Ď": 203,
      "ď": 204,
      "Đ": 205,
      "đ": 206,
      "Ē": 207,
      "ē": 208,
      "Ĕ": 209,
      "ĕ": 210,
      "Ė": 211,
      "ė": 212,
      "Ę": 213,
      "ę": 214,
      "Ě": 215,
      "ě": 216,
      "Ĝ": 217,
      "ĝ": 218,
      "Ğ": 219,
      "ğ": 220,
      "Ġ": 221,
      "ġ": 222,
      "Ģ": 223,
      "ģ": 224,
      "Ĥ": 225,
      "ĥ": 226,
      "Ħ": 227,
      "ħ": 228,
      "Ĩ": 229,
      "ĩ": 230,
      "Ī": 231,
      "ī": 232,
      "Ĭ": 233,
      "ĭ": 234,
      "Į": 235,
      "į": 236,
      "İ": 237,
      "ı": 238,
      "Ĳ": 239,
      "ĳ": 240,
      "Ĵ": 241,
      "ĵ": 242,
      "Ķ": 243,
      "ķ": 244,
      "ĸ": 245,
      "Ĺ": 246,
      "ĺ": 247,
      "Ļ": 248,
      "ļ": 249,
      "Ľ": 250,
      "ľ": 251,
      "Ŀ": 252,
      "ŀ": 253,
      "Ł": 254,
      "ł": 255,
      "Ń": 256,
      "he": 257,
      "Ġt": 258,
      "Ġa": 259,
      "Ġs": 260,
      "Ġw": 261,
      "nd": 262,
      "Ġthe": 263,
      "ed": 264,
      "Ġand": 265,
      "Ġto": 266,
      "Ġb": 267,
      "in": 268,
      "Ġh": 269,
      "Ġwa": 270,
      "re": 271,
      "ou": 272,
      "Ġf": 273,
      "it": 274,
      "Ġc": 275,
      "Ġl": 276,
      "er": 277,
      "Ġd": 278,
      "Ġhe": 279,
      "Ġwas": 280,
      "Ġp": 281,
      "Ġm": 282,
      "om": 283,
      "ĠT": 284,
      "Ġo": 285,
      "ay": 286,
      "ar": 287,
      "ing": 288,
      "is": 289,
      "Ġg": 290,
      "il": 291,
      "id": 292,
      "at": 293,
      "en": 294,
      "Ġn": 295,
      "Ġsa": 296,
      "Ġha": 297,
      "ĠThe": 298,
      "an": 299,
      "ĠS": 300,
      "or": 301,
      "im": 302,
      "on": 303,
      "Ġth": 304,
      "Ġit": 305,
      "ll": 306,
      "le": 307,
      "ĠH": 308,
      "ot": 309,
      "et": 310,
      "ĠHe": 311,
      "ir": 312,
      "Ġher": 313,
      "ĠShe": 314,
      "Ġin": 315,
      "es": 316,
      "ver": 317,
      "ck": 318,
      "ow": 319,
      "ut": 320,
      "Ġe": 321,
      "ld": 322,
      "ĠThey": 323,
      "Ġu": 324,
      "oo": 325,
      "ig": 326,
      "Ġy": 327,
      "Ġst": 328,
      "Ġbe": 329,
      "Ġr": 330,
      "Ġsaid": 331,
      "am": 332,
      "Ġ\"": 333,
      "Ġshe": 334,
      "ce": 335,
      "ĠI": 336,
      "pp": 337,
      "ve": 338,
      "ke": 339,
      "ily": 340,
      "ith": 341,
      "Ġwith": 342,
      "Ġof": 343,
      "On": 344,
      "ked": 345,
      "Ġon": 346,
      "Ġso": 347,
      "Ġhis": 348,
      "Ġyou": 349,
      "ri": 350,
      "very": 351,
      "ad": 352,
      "ĠL": 353,
      "nt": 354,
      "Ġpl": 355,
      "Ġthat": 356,
      "Ġday": 357,
      "Ġup": 358,
      "Ġhad": 359,
      "Ġthey": 360,
      "st": 361,
      "Ġplay": 362,
      "Ġwe": 363,
      "ould": 364,
      "Ġfor": 365,
      "se": 366,
      "un": 367,
      "Ġmom": 368,
      "'s": 369,
      "ĠB": 370,
      "ĠLily": 371,
      "my": 372,
      "Ġli": 373,
      "The": 374,
      "ent": 375,
      "Ġhapp": 376,
      "ly": 377,
      "ch": 378,
      "out": 379,
      "Ġdo": 380,
      "Ġsh": 381,
      "itt": 382,
      "her": 383,
      "ound": 384,
      "Ġwant": 385,
      "all": 386,
      "ome": 387,
      "Ġnot": 388,
      "Ġvery": 389,
      "ime": 390,
      "Ġwh": 391,
      "ht": 392,
      "el": 393,
      "Ġtime": 394,
      "Ġre": 395,
      "al": 396,
      "ra": 397,
      "Ġk": 398,
      "end": 399,
      "ittle": 400,
      "Ġthere": 401,
      "Ġlittle": 402,
      "Ġne": 403,
      "Ġbig": 404,
      "Ġsm": 405,
      "ack": 406,
      "Ġhappy": 407,
      "ry": 408,
      "ĠM": 409,
      "ĠIt": 410,
      "ĠĊ": 411,
      "Ġan": 412,
      "Ġbut": 413,
      "Ġsaw": 414,
      "Ġas": 415,
      "Ġis": 416,
      ".\"": 417,
      "riend": 418,
      "ved": 419,
      "Ġfriend": 420,
      "ug": 421,
      "ore": 422,
      "One": 423,
      "'t": 424,
      "ide": 425,
      "!\"": 426,
      "ter": 427,
      "ake": 428,
      "Ġlo": 429,
      "Once": 430,
      "Ġloo": 431,
      "Ġwere": 432,
      "ec": 433,
      "ard": 434,
      "Ġhim": 435,
      "Ġtoo": 436,
      "Ġse": 437,
      "Ġgo": 438,
      "Ġout": 439,
      "ur": 440,
      "ill": 441,
      "Ġwanted": 442,
      "way": 443,
      "Ġsp": 444,
      "Ġbo": 445,
      "Ġupon": 446,
      "fu": 447,
      "irl": 448,
      "ĠTim": 449,
      "Ġcould": 450,
      "Ġat": 451,
      "Ġgirl": 452,
      "Ġthem": 453,
      "Ġex": 454,
      "Ġj": 455,
      "ĠA": 456,
      "hen": 457,
      "Ġtheir": 458,
      "Ġsmil": 459,
      "round": 460,
      "ind": 461,
      "Ġdid": 462,
      "Ġare": 463,
      "rom": 464,
      "ĠJ": 465,
      "Ġhave": 466,
      "ic": 467,
      "hed": 468,
      "Ġwent": 469,
      "hing": 470,
      "Ġkn": 471,
      "art": 472,
      "ight": 473,
      "ful": 474,
      "lp": 475,
      "one": 476,
      "ain": 477,
      "ood": 478,
      "Ġback": 479,
      "Ġhelp": 480,
      "ark": 481,
      "?\"": 482,
      "Ġall": 483,
      "op": 484,
      "Ġcan": 485,
      "Ġcl": 486,
      "ĠBen": 487,
      "Ġnam": 488,
      "Ġfriends": 489,
      "ĠTom": 490,
      "Ġal": 491,
      "Ġsay": 492,
      "Ġca": 493,
      "um": 494,
      "Ġle": 495,
      "ick": 496,
      "elt": 497,
      "Ġaround": 498,
      "Ġfun": 499,
      "You": 500,
      "Ġno": 501,
      "side": 502,
      "Ġsmiled": 503,
      "Ġfelt": 504,
      "ice": 505,
      "oug": 506,
      "Ġloved": 507,
      "Ġman": 508,
      "Ġsc": 509,
      "Ġtoy": 510,
      "ĠW": 511,
      "Ġnamed": 512,
      "Ġtre": 513,
      "ame": 514,
      "Ġasked": 515,
      "Ġsee": 516,
      "Ġlooked": 517,
      "Ġfe": 518,
      "ĠOne": 519,
      "omet": 520,
      "as": 521,
      "Ġro": 522,
      "Ġwould": 523,
      "Ġbir": 524,
      "ro": 525,
      "Ġme": 526,
      "ure": 527,
      "Ġstart": 528,
      "Ġlike": 529,
      "Ġsome": 530,
      "Ġsomet": 531,
      "get": 532,
      "Ġwor": 533,
      "ong": 534,
      "Ġbird": 535,
      "dd": 536,
      "Ġaway": 537,
      "Ġfa": 538,
      "ings": 539,
      "ĠTimmy": 540,
      "Ġboy": 541,
      ",\"": 542,
      "own": 543,
      "Ġran": 544,
      "oud": 545,
      "Ġco": 546,
      "ared": 547,
      "if": 548,
      "Ġstarted": 549,
      "king": 550,
      "ade": 551,
      "ĠBut": 552,
      "Ġsomething": 553,
      "Ġwhat": 554,
      "Ã¢": 555,
      "âĤ": 556,
      "âĤ¬": 557,
      "ie": 558,
      "Ġhome": 559,
      "gether": 560,
      "Ġsays": 561,
      "ble": 562,
      "Ġfrom": 563,
      "Ġag": 564,
      "Ġcar": 565,
      "pped": 566,
      "ited": 567,
      "Ġexc": 568,
      "ĠYou": 569,
      "ther": 570,
      "Ġpark": 571,
      "ell": 572,
      "Ġmade": 573,
      "ag": 574,
      "ook": 575,
      "Ġtogether": 576,
      "Ġla": 577,
      "Ġnew": 578,
      "Ġother": 579,
      "Ġhug": 580,
      "Ġwal": 581,
      "pl": 582,
      "Ġdog": 583,
      "Ġmake": 584,
      "ep": 585,
      "Ġfl": 586,
      "Lily": 587,
      "Ġwho": 588,
      "Ġwhen": 589,
      "Ġpr": 590,
      "ĠE": 591,
      "Ġmu": 592,
      "est": 593,
      "Ġch": 594,
      "ally": 595,
      "Ġput": 596,
      "Ġtree": 597,
      "ous": 598,
      "Ġthen": 599,
      "Ġbr": 600,
      "Ġgood": 601,
      "uck": 602,
      "Ġagain": 603,
      "hat": 604,
      "Ġget": 605,
      "Ġsw": 606,
      "Ġdec": 607,
      "Ġsad": 608,
      "Ġfound": 609,
      "ach": 610,
      "Ġexcited": 611,
      "ss": 612,
      "ought": 613,
      "ried": 614,
      "fe": 615,
      "Ġthings": 616,
      "Ġplaying": 617,
      "ĠD": 618,
      "ue": 619,
      "Ġthan": 620,
      "Ġone": 621,
      "Ġbec": 622,
      "ĠMom": 623,
      "ny": 624,
      "Ġevery": 625,
      "Ġscared": 626,
      "bb": 627,
      "ouse": 628,
      "Ġcame": 629,
      "Ġliked": 630,
      "Ġdecid": 631,
      "udd": 632,
      "Ġpo": 633,
      "Ġbl": 634,
      "Ġdecided": 635,
      "Ġcare": 636,
      "Ġgot": 637,
      "ĠF": 638,
      "ise": 639,
      "ust": 640,
      "Ġwill": 641,
      "Ġke": 642,
      "Ġv": 643,
      "Ġfind": 644,
      "Ġyour": 645,
      "ax": 646,
      "us": 647,
      "Ġfeel": 648,
      "Ġdown": 649,
      "ways": 650,
      "nder": 651,
      "na": 652,
      "Ġball": 653,
      "Ġalways": 654,
      "ist": 655,
      "our": 656,
      "Ġab": 657,
      "Ġta": 658,
      "They": 659,
      "ma": 660,
      "Ġgra": 661,
      "Ġold": 662,
      "ned": 663,
      "ĠSam": 664,
      "ave": 665,
      "Ġint": 666,
      "ened": 667,
      "Ġkne": 668,
      "Ġmore": 669,
      "Ġabout": 670,
      "Ġdad": 671,
      "udden": 672,
      "Ġmy": 673,
      "Ġlaug": 674,
      "ers": 675,
      "Ġlot": 676,
      "Ġtook": 677,
      "uddenly": 678,
      "Ġknow": 679,
      "Ġdidn": 680,
      "ret": 681,
      "Ġlear": 682,
      "Ġknew": 683,
      "qu": 684,
      "ant": 685,
      "nna": 686,
      "Ġpe": 687,
      "Ġoutside": 688,
      "eci": 689,
      "ched": 690,
      "Ġthought": 691,
      "Ġclo": 692,
      "ged": 693,
      "ess": 694,
      "Ġho": 695,
      "ite": 696,
      "Ġlook": 697,
      "ĠWe": 698,
      "Ġop": 699,
      "Ġtr": 700,
      "Ġsor": 701,
      "Ġsun": 702,
      "Ġra": 703,
      "Ġmommy": 704,
      "ĠMax": 705,
      "Ġspeci": 706,
      "Ġspecial": 707,
      "Ġtake": 708,
      "Ġhow": 709,
      "But": 710,
      "fter": 711,
      "Ġcom": 712,
      "ang": 713,
      "Ġhouse": 714,
      "ive": 715,
      "Ġany": 716,
      "Ġtw": 717,
      "Ġtoys": 718,
      "Ġrun": 719,
      "ia": 720,
      "Ġheard": 721,
      "Ġcat": 722,
      "Ġshow": 723,
      "Ġexpl": 724,
      "ĠEvery": 725,
      "au": 726,
      "Ġinside": 727,
      "Ġcouldn": 728,
      "Ġmo": 729,
      "Ġinto": 730,
      "Ġsorry": 731,
      "Ġthis": 732,
      "ate": 733,
      "Ġpick": 734,
      "Ġproud": 735,
      "Ġtry": 736,
      "Ġwater": 737,
      "ven": 738,
      "ara": 739,
      "Ġhand": 740,
      "ink": 741,
      "Ġmuch": 742,
      "Ġover": 743,
      "ank": 744,
      "are": 745,
      "Ġtried": 746,
      "Ġsn": 747,
      "Ġor": 748,
      "Ġif": 749,
      "Ġsk": 750,
      "Ġfi": 751,
      "ap": 752,
      "sed": 753,
      "Ġplayed": 754,
      "ause": 755,
      "by": 756,
      "ish": 757,
      "Ġoff": 758,
      "ion": 759,
      "Ġstr": 760,
      "Ġbecause": 761,
      "uc": 762,
      "Ġpret": 763,
      "here": 764,
      "Ġgave": 765,
      "Ġen": 766,
      "Ġroom": 767,
      "Ġflow": 768,
      "Ġbot": 769,
      "Ġhugged": 770,
      "Tom": 771,
      "ine": 772,
      "Ġgre": 773,
      "Ġjust": 774,
      "imal": 775,
      "Ġanimal": 776,
      "Ġunt": 777,
      "pt": 778,
      "ber": 779,
      "dy": 780,
      "ĠJack": 781,
      "Ġuntil": 782,
      "lf": 783,
      "ving": 784,
      "Ġeat": 785,
      "Ġsmall": 786,
      "Ġbu": 787,
      "etter": 788,
      "Ġeach": 789,
      "ak": 790,
      "Ġmany": 791,
      "Ġnever": 792,
      "Ġqu": 793,
      "Ġsl": 794,
      "Ġfo": 795,
      "Ġnice": 796,
      "Ġcall": 797,
      "Ġbra": 798,
      "gry": 799,
      "ild": 800,
      "He": 801,
      "Mom": 802,
      "Ġtold": 803,
      "other": 804,
      "arden": 805,
      "ĠAnna": 806,
      "ear": 807,
      "Ġwat": 808,
      "ort": 809,
      "iz": 810,
      "ies": 811,
      "ves": 812,
      "Ġgarden": 813,
      "'m": 814,
      "Ġfast": 815,
      "Ġbox": 816,
      "Ġneed": 817,
      "ace": 818,
      "Ġlong": 819,
      "urt": 820,
      "ough": 821,
      "Ġcareful": 822,
      "Ġway": 823,
      "ile": 824,
      "Ġsafe": 825,
      "ĠJo": 826,
      "ob": 827,
      "ft": 828,
      "Ġlove": 829,
      "ty": 830,
      "Ġad": 831,
      "Ġby": 832,
      "Ġlearned": 833,
      "and": 834,
      "Ġloud": 835,
      "em": 836,
      "Ġbetter": 837,
      "Th": 838,
      "Ġlaughed": 839,
      "Ġsur": 840,
      "Ġdon": 841,
      "Ġbear": 842,
      "Ġbea": 843,
      "vent": 844,
      "Ġim": 845,
      "ump": 846,
      "ull": 847,
      "lew": 848,
      "ning": 849,
      "ream": 850,
      "Ġthanked": 851,
      "It": 852,
      "Ġbrave": 853,
      "Ġbeaut": 854,
      "Ġlived": 855,
      "Ġfam": 856,
      "Ġkind": 857,
      "ect": 858,
      "Ġstill": 859,
      "ĠC": 860,
      "lly": 861,
      "ĠAnd": 862,
      "Ġanimals": 863,
      "hn": 864,
      "oy": 865,
      "Ġhard": 866,
      "Ġeven": 867,
      "Ġlist": 868,
      "ct": 869,
      "ady": 870,
      "ucy": 871,
      "rm": 872,
      "Ġbest": 873,
      "Ġche": 874,
      "Ġcome": 875,
      "ff": 876,
      "iful": 877,
      "Åĵ": 878,
      "iny": 879,
      "self": 880,
      "Ġcalled": 881,
      "Ġbeautiful": 882,
      "ĠSo": 883,
      "Ġwalked": 884,
      "ĠHis": 885,
      "Ġow": 886,
      "Ġlots": 887,
      "ĠG": 888,
      "ĠSara": 889,
      "Ġtwo": 890,
      "Ġwo": 891,
      "Ġunder": 892,
      "Ġshould": 893,
      "Ġcol": 894,
      "Yes": 895,
      "pr": 896,
      "Ġdra": 897,
      "kay": 898,
      "Ġend": 899,
      "Ġkept": 900,
      "Ġsky": 901,
      "Ġfore": 902,
      "Ġgr": 903,
      "Ġstor": 904,
      "hes": 905,
      "Ġtur": 906,
      "ree": 907,
      "Ġcle": 908,
      "Ġrock": 909,
      "When": 910,
      "Ġgl": 911,
      "Ġits": 912,
      "ople": 913,
      "Ġcu": 914,
      "ĠThen": 915,
      "ummy": 916,
      "fore": 917,
      "ĠÃ¢": 918,
      "so": 919,
      "Ġlet": 920,
      "ĠFrom": 921,
      "Ġrem": 922,
      "ĠMia": 923,
      "Ġfamily": 924,
      "ĠHer": 925,
      "Ġdoor": 926,
      "Ġpeople": 927,
      "Ġte": 928,
      "Ġbad": 929,
      "Ġjump": 930,
      "Ġsurpr": 931,
      "ock": 932,
      "Ġfin": 933,
      "Ġalso": 934,
      "ool": 935,
      "th": 936,
      "ished": 937,
      "ĠSp": 938,
      "Ġnoise": 939,
      "bbit": 940,
      "Ġopened": 941,
      "les": 942,
      "Ġstay": 943,
      "Ġexplore": 944,
      "ase": 945,
      "Ġsoon": 946,
      "ĠDad": 947,
      "Ġground": 948,
      "ner": 949,
      "igh": 950,
      "Ġfire": 951,
      "Ġboth": 952,
      "Ġimp": 953,
      "Ġpic": 954,
      "ĠLucy": 955,
      "Ġhurt": 956,
      "Ġbefore": 957,
      "Ġreal": 958,
      "thing": 959,
      "Ġflew": 960,
      "Ġangry": 961,
      "ised": 962,
      "Ġnow": 963,
      "ĠSuddenly": 964,
      "Ġey": 965,
      "ĠWhen": 966,
      "Ġpicked": 967,
      "ied": 968,
      "uch": 969,
      "Ġfar": 970,
      "illy": 971,
      "Ġfeeling": 972,
      "So": 973,
      "ting": 974,
      "ac": 975,
      "Ġtow": 976,
      "Ġkeep": 977,
      "Ġrabbit": 978,
      "ip": 979,
      "xt": 980,
      "ĠR": 981,
      "Ġun": 982,
      "No": 983,
      "be": 984,
      "led": 985,
      "Ben": 986,
      "Ġde": 987,
      "ary": 988,
      "Ġshare": 989,
      "Ġtruck": 990,
      "Tim": 991,
      "Ġbook": 992,
      "Ġfr": 993,
      "Ġthr": 994,
      "Ġpretty": 995,
      "Ġfood": 996,
      "ndma": 997,
      "Ġfly": 998,
      "Ġforest": 999,
      "ĠP": 1000,
      "Ġcry": 1001,
      "Ġred": 1002,
      "ange": 1003,
      "Ġdoll": 1004,
      "ĠSpot": 1005,
      "ane": 1006,
      "Ġadvent": 1007,
      "Ġeyes": 1008,
      "That": 1009,
      "iced": 1010,
      "Ġwind": 1011,
      "Ġshiny": 1012,
      "âĤ¬â": 1013,
      "Ġclos": 1014,
      "Ġcon": 1015,
      "Ġrepl": 1016,
      "oice": 1017,
      "Ġide": 1018,
      "Ġgoing": 1019,
      "Ġwalking": 1020,
      "Ġwalk": 1021,
      "Ġflowers": 1022,
      "Ġcolor": 1023,
      "Ġafter": 1024,
      "Ġmag": 1025,
      "Ġlooking": 1026,
      "Ġwhile": 1027,
      "Let": 1028,
      "What": 1029,
      "Ġwait": 1030,
      "Ġdif": 1031,
      "Ġsto": 1032,
      "Ġbre": 1033,
      "Ġnear": 1034,
      "ught": 1035,
      "dded": 1036,
      "Ġadventure": 1037,
      "Ġgive": 1038,
      "Ġnext": 1039,
      "Thank": 1040,
      "Ġwonder": 1041,
      "Ġlisten": 1042,
      "Ġidea": 1043,
      "bye": 1044,
      "We": 1045,
      "eet": 1046,
      "ted": 1047,
      "ture": 1048,
      "Ġbed": 1049,
      "Ġnoticed": 1050,
      "Ġvoice": 1051,
      "Ġclean": 1052,
      "Ġcuri": 1053,
      "Ġokay": 1054,
      "llow": 1055,
      "Ġstick": 1056,
      "Ġnodded": 1057,
      "ember": 1058,
      "gan": 1059,
      "kes": 1060,
      "Ġapp": 1061,
      "Ġbeen": 1062,
      "day": 1063,
      "Ħ¢": 1064,
      "âĤ¬âĦ¢": 1065,
      "Ġstore": 1066,
      "Ġwr": 1067,
      "maz": 1068,
      "Ġcloser": 1069,
      "Ġcurious": 1070,
      "ious": 1071,
      "Ġamaz": 1072,
      "fere": 1073,
      "Ġreplied": 1074,
      "ress": 1075,
      "Ġhas": 1076,
      "Ġus": 1077,
      "Suddenly": 1078,
      "ath": 1079,
      "Ġsmile": 1080,
      "ized": 1081,
      "joy": 1082,
      "Ġac": 1083,
      "aybe": 1084,
      "imb": 1085,
      "Ġask": 1086,
      "Ġremember": 1087,
      "Ġimport": 1088,
      "Ġdiffere": 1089,
      "Look": 1090,
      "Ġclimb": 1091,
      "Ġblue": 1092,
      "Ġever": 1093,
      "Ġbeing": 1094,
      "Ġshout": 1095,
      "Ġfollow": 1096,
      "Ġimportant": 1097,
      "Ġhop": 1098,
      "ount": 1099,
      "Ġquick": 1100,
      "ila": 1101,
      "Ġgoodbye": 1102,
      "Ġenjoy": 1103,
      "Ġpicture": 1104,
      "Ġdis": 1105,
      "Ġbecame": 1106,
      "Ġeveryone": 1107,
      "Ġbro": 1108,
      "ĠBob": 1109,
      "ĠAs": 1110,
      "Ġchild": 1111,
      "Ġdifferent": 1112,
      "Ġwarm": 1113,
      "Ġyear": 1114,
      "Ġright": 1115,
      "Ġopen": 1116,
      "age": 1117,
      "Ġcoming": 1118,
      "Ġcook": 1119,
      "Ġthink": 1120,
      "Ġplace": 1121,
      "Ġmagic": 1122,
      "Ġtra": 1123,
      "ered": 1124,
      "Ġsound": 1125,
      "Ġwhere": 1126,
      "Ġbus": 1127,
      "ass": 1128,
      "Ġmean": 1129,
      "Ġnight": 1130,
      "Ġhopped": 1131,
      "Ġwatch": 1132,
      "lease": 1133,
      "irst": 1134,
      "ĠMommy": 1135,
      "Ġquickly": 1136,
      "lie": 1137,
      "Ġar": 1138,
      "Ġjo": 1139,
      "Ġworld": 1140,
      "Ġbright": 1141,
      "ached": 1142,
      "ge": 1143,
      "ĠGra": 1144,
      "Ġstopped": 1145,
      "uff": 1146,
      "Ġfish": 1147,
      "Ġthree": 1148,
      "bbed": 1149,
      "Ġhands": 1150,
      "Ġwork": 1151,
      "Ġstrong": 1152,
      "Ġpond": 1153,
      "Ġshowed": 1154,
      "Ġhigh": 1155,
      "Ġcr": 1156,
      "Ġdel": 1157,
      "Ġbirds": 1158,
      "Ġgreat": 1159,
      "Can": 1160,
      "She": 1161,
      "Ġlea": 1162,
      "Ġrealized": 1163,
      "ĠN": 1164,
      "Ġour": 1165,
      "Ġper": 1166,
      "ĠSue": 1167,
      "Ġyell": 1168,
      "Ġdoes": 1169,
      "ĠJohn": 1170,
      "able": 1171,
      "Ġpull": 1172,
      "Ġmor": 1173,
      "Ġface": 1174,
      "Ġma": 1175,
      "unny": 1176,
      "ng": 1177,
      "Ġfill": 1178,
      "Ġstop": 1179,
      "Ġreached": 1180,
      "Ġbegan": 1181,
      "Ġsweet": 1182,
      "Ġjumped": 1183,
      "Ġshouted": 1184,
      "Jo": 1185,
      "Ġbug": 1186,
      "ons": 1187,
      "Ġwatched": 1188,
      "sh": 1189,
      "Ġtal": 1190,
      "Ġprin": 1191,
      "Ġthank": 1192,
      "Ġdraw": 1193,
      "ĠLet": 1194,
      "Ġwaved": 1195,
      "Ġdr": 1196,
      "Ġhead": 1197,
      "Ġforg": 1198,
      "Ġhappened": 1199,
      "Ġsmell": 1200,
      "Ġsnow": 1201,
      "Ġflower": 1202,
      "ĠJoe": 1203,
      "Ġtell": 1204,
      "Ġfro": 1205,
      "Ġgrabbed": 1206,
      "Ġclose": 1207,
      "Ġsure": 1208,
      "Ġmon": 1209,
      "Ġcont": 1210,
      "Ġpa": 1211,
      "Ġprom": 1212,
      "Ġmum": 1213,
      "ĠTh": 1214,
      "ĠIn": 1215,
      "Ġglad": 1216,
      "Ġbit": 1217,
      "Ġfirst": 1218,
      "Ġlight": 1219,
      "anger": 1220,
      "Ġunderst": 1221,
      "'re": 1222,
      "Ġsing": 1223,
      "Ġgame": 1224,
      "anc": 1225,
      "fully": 1226,
      "Ġlearn": 1227,
      "ĠEveryone": 1228,
      "Ġhere": 1229,
      "ater": 1230,
      "ards": 1231,
      "Ġate": 1232,
      "Ġtouch": 1233,
      "Ġcre": 1234,
      "ather": 1235,
      "Ġrain": 1236,
      "Ġread": 1237,
      "Ġboat": 1238,
      "Ġgrass": 1239,
      "Ġbuy": 1240,
      "Ġste": 1241,
      "Ġsees": 1242,
      "Ġgreen": 1243,
      "Her": 1244,
      "itc": 1245,
      "Ġsoft": 1246,
      "Anna": 1247,
      "Ġyummy": 1248,
      "Ġonly": 1249,
      "ins": 1250,
      "iss": 1251,
      "ired": 1252,
      "Ġready": 1253,
      "Ġkid": 1254,
      "Ġthrough": 1255,
      "Don": 1256,
      "Ġice": 1257,
      "Ġwhy": 1258,
      "Ġpretend": 1259,
      "Ġfarm": 1260,
      "Ġz": 1261,
      "Ġsand": 1262,
      "oney": 1263,
      "Ġfix": 1264,
      "Jack": 1265,
      "Ġfull": 1266,
      "ĠSally": 1267,
      "Ġbutter": 1268,
      "Ġflo": 1269,
      "Ġswing": 1270,
      "Ġstory": 1271,
      "As": 1272,
      "Ġblock": 1273,
      "Ġwood": 1274,
      "Ġbunny": 1275,
      "ĠThat": 1276,
      "Ġfav": 1277,
      "Ġcatch": 1278,
      "Ġmove": 1279,
      "Ġsurprise": 1280,
      "Ġfrog": 1281,
      "After": 1282,
      "where": 1283,
      "Ġcra": 1284,
      "Ġhelped": 1285,
      "Ġtable": 1286,
      "Ġ-": 1287,
      "Ġset": 1288,
      "Ġgi": 1289,
      "Ġhaving": 1290,
      "Ġuse": 1291,
      "Ġbeh": 1292,
      "Ġturn": 1293,
      "Ġfollowed": 1294,
      "ds": 1295,
      "zy": 1296,
      "Ġpus": 1297,
      "Ġkitc": 1298,
      "Ġcarefully": 1299,
      "Ġslide": 1300,
      "Ġkitchen": 1301,
      "ken": 1302,
      "Ġfur": 1303,
      "ars": 1304,
      "Ġgent": 1305,
      "nts": 1306,
      "Ġworry": 1307,
      "Ġcars": 1308,
      "more": 1309,
      "Ġru": 1310,
      "ster": 1311,
      "Ġanything": 1312,
      "akes": 1313,
      "\".": 1314,
      "eddy": 1315,
      "Ġdri": 1316,
      "Ġhair": 1317,
      "imes": 1318,
      "Ġhappily": 1319,
      "Ġfell": 1320,
      "Ġtast": 1321,
      "Ġanymore": 1322,
      "ĠSarah": 1323,
      "co": 1324,
      "Ġclot": 1325,
      "ĠTommy": 1326,
      "John": 1327,
      "bo": 1328,
      "gon": 1329,
      "Ġhat": 1330,
      "Ġmouse": 1331,
      "leep": 1332,
      "Ġspot": 1333,
      "Ġname": 1334,
      "Ġrunning": 1335,
      "Ġslow": 1336,
      "Wow": 1337,
      "air": 1338,
      "iver": 1339,
      "Ġtri": 1340,
      "ren": 1341,
      "Ġlady": 1342,
      "Ġduck": 1343,
      "key": 1344,
      "Ġwhite": 1345,
      "Ġhimself": 1346,
      "Ġseen": 1347,
      "ĠJane": 1348,
      "ask": 1349,
      "Ġvis": 1350,
      "Ġfilled": 1351,
      "Ġbutterf": 1352,
      "olly": 1353,
      "uit": 1354,
      "Ġcake": 1355,
      "Ġdone": 1356,
      "Ġsail": 1357,
      "Ġreally": 1358,
      "ĠDo": 1359,
      "Ġarri": 1360,
      "uffy": 1361,
      "man": 1362,
      "Ġless": 1363,
      "Ġdress": 1364,
      "Ġgone": 1365,
      "Ġlikes": 1366,
      "Ġdoing": 1367,
      "ucky": 1368,
      "Ġlaugh": 1369,
      "cess": 1370,
      "Ġbag": 1371,
      "Ġcount": 1372,
      "Ġheld": 1373,
      "Ġmight": 1374,
      "Ġused": 1375,
      "Ġspl": 1376,
      "Ġtrees": 1377,
      "ross": 1378,
      "Hell": 1379,
      "Ġtop": 1380,
      "Ġmess": 1381,
      "Ġdelic": 1382,
      "Hello": 1383,
      "aught": 1384,
      "Ġmother": 1385,
      "ign": 1386,
      "Ġrest": 1387,
      "Ġfunny": 1388,
      "Ġpoin": 1389,
      "aper": 1390,
      "Mommy": 1391,
      "Ġunderstand": 1392,
      "Ġable": 1393,
      "Ġwished": 1394,
      "ĠEm": 1395,
      "ĠFl": 1396,
      "ĠCan": 1397,
      "Ġsurprised": 1398,
      "Ġwonderful": 1399,
      "Ġkids": 1400,
      "Ġfavor": 1401,
      "Ġsong": 1402,
      "Ġbar": 1403,
      "Ġhun": 1404,
      "reed": 1405,
      "Ġdro": 1406,
      "Ġleft": 1407,
      "Ġenjoyed": 1408,
      "Ġyears": 1409,
      "Ġperf": 1410,
      "Ġcreat": 1411,
      "Ġfloor": 1412,
      "Ġbehind": 1413,
      "Ġfavorite": 1414,
      "Sam": 1415,
      "Ġsat": 1416,
      "Ġdin": 1417,
      "Ġmoment": 1418,
      "Ġanother": 1419,
      "Ġbott": 1420,
      "Ġmaking": 1421,
      "His": 1422,
      "rot": 1423,
      "ued": 1424,
      "ance": 1425,
      "ama": 1426,
      "Ġres": 1427,
      "Ġtrying": 1428,
      "ĠGrandma": 1429,
      "Ġvisit": 1430,
      "Ġarrived": 1431,
      "ger": 1432,
      "ose": 1433,
      "Ġcomp": 1434,
      "Ġdeep": 1435,
      "Ġcolors": 1436,
      "Ġyellow": 1437,
      "ul": 1438,
      "Ġtired": 1439,
      "Ġpain": 1440,
      "ens": 1441,
      "Ġspark": 1442,
      "room": 1443,
      "Ġcold": 1444,
      "Ġremembered": 1445,
      "Ġleaves": 1446,
      "aby": 1447,
      "Ġtall": 1448,
      "ined": 1449,
      "Ġdark": 1450,
      "Ġpare": 1451,
      "Ġfriendly": 1452,
      "Ġfew": 1453,
      "Ġbrother": 1454,
      "Ġown": 1455,
      "Ġfinished": 1456,
      "Ġparents": 1457,
      "Ġtight": 1458,
      "Ġpi": 1459,
      "Ġlooks": 1460,
      "ĠThis": 1461,
      "hy": 1462,
      "Ġsqu": 1463,
      "Ġhor": 1464,
      "rel": 1465,
      "Ġcut": 1466,
      "isy": 1467,
      "ister": 1468,
      "Ġel": 1469,
      "ash": 1470,
      "Ġworked": 1471,
      "Ġexplor": 1472,
      "Ġstrange": 1473,
      "Ġchildren": 1474,
      "Ġcontin": 1475,
      "Ġam": 1476,
      "Ġmat": 1477,
      "ĠLila": 1478,
      "ĠAfter": 1479,
      "Ġcast": 1480,
      "ield": 1481,
      "Ġneeded": 1482,
      "This": 1483,
      "Ġbreak": 1484,
      "Ġforgot": 1485,
      "ient": 1486,
      "Ġair": 1487,
      "Ġarm": 1488,
      "inally": 1489,
      "Ġcried": 1490,
      "Ġdanger": 1491,
      "Ġpaper": 1492,
      "Ġowner": 1493,
      "Ġwindow": 1494,
      "Ġamazing": 1495,
      "Ġhungry": 1496,
      "Ġelse": 1497,
      "'ll": 1498,
      "From": 1499,
      "Ġdream": 1500,
      "Ġherself": 1501,
      "Ġlion": 1502,
      "Ġbuild": 1503,
      "Ġfinally": 1504,
      "Ġdelicious": 1505,
      "oon": 1506,
      "ation": 1507,
      "Then": 1508,
      "Ġfair": 1509,
      "Ġgetting": 1510,
      "Ġhold": 1511,
      "Ġenough": 1512,
      "Ġdragon": 1513,
      "Ġteac": 1514,
      "Timmy": 1515,
      "Ġpictures": 1516,
      "ever": 1517,
      "ppy": 1518,
      "Ġsho": 1519,
      "ĠJim": 1520,
      "Ġcla": 1521,
      "Ġbroken": 1522,
      "Ġlesson": 1523,
      "der": 1524,
      "ix": 1525,
      "oom": 1526,
      "Ġpart": 1527,
      "Ġgrandma": 1528,
      "Ġwrong": 1529,
      "ĠNow": 1530,
      "Ġwoods": 1531,
      "ey": 1532,
      "Ġwet": 1533,
      "Ġhid": 1534,
      "Ġdir": 1535,
      "Ġpu": 1536,
      "enny": 1537,
      "Ġthing": 1538,
      "Ġshop": 1539,
      "ĠJill": 1540,
      "asure": 1541,
      "Ġcarrot": 1542,
      "Ġperfect": 1543,
      "Ġteacher": 1544,
      "ipped": 1545,
      "med": 1546,
      "rew": 1547,
      "Ġpet": 1548,
      "Ġplease": 1549,
      "Ġwear": 1550,
      "icy": 1551,
      "Ġbrought": 1552,
      "Ġswim": 1553,
      "lice": 1554,
      "Ġbow": 1555,
      "eter": 1556,
      "Ġwants": 1557,
      "Ġhole": 1558,
      "Ġbooks": 1559,
      "Ġclothes": 1560,
      "Ġbutterfly": 1561,
      "ike": 1562,
      "Ġcool": 1563,
      "Ġmet": 1564,
      "Ġlost": 1565,
      "Ġtalk": 1566,
      "Ġdinner": 1567,
      "Sara": 1568,
      "Ġhear": 1569,
      "Ġsmiles": 1570,
      "Ġwords": 1571,
      "Ġagreed": 1572,
      "Oh": 1573,
      "Ġsit": 1574,
      "Ġlake": 1575,
      "Ġmakes": 1576,
      "Ġothers": 1577,
      "Ġeverything": 1578,
      "Ġcookies": 1579,
      "Ġmagical": 1580,
      "Ġprincess": 1581,
      "Ġblocks": 1582,
      "Ġslowly": 1583,
      "av": 1584,
      "ually": 1585,
      "ĠK": 1586,
      "Ġjour": 1587,
      "Ġorange": 1588,
      "Ġcontinued": 1589,
      "Ġjourn": 1590,
      "ast": 1591,
      "Ġsleep": 1592,
      "Ġpig": 1593,
      "ĠWhat": 1594,
      "Ġtreat": 1595,
      "Ġcastle": 1596,
      "Ġdangerous": 1597,
      "Ġside": 1598,
      "Ġsister": 1599,
      "Ġbeach": 1600,
      "pping": 1601,
      "ĠBenny": 1602,
      "ĠDaddy": 1603,
      "ling": 1604,
      "orm": 1605,
      "ract": 1606,
      "ĠMaybe": 1607,
      "ope": 1608,
      "Ġleave": 1609,
      "Ġsomeone": 1610,
      "Ġtail": 1611,
      "Ġflying": 1612,
      "Ġmorning": 1613,
      "At": 1614,
      "me": 1615,
      "ĠO": 1616,
      "Ġmix": 1617,
      "ĠTo": 1618,
      "Ġem": 1619,
      "Ġspr": 1620,
      "Ġhelping": 1621,
      "Ġbrown": 1622,
      "Ġsnack": 1623,
      "Ġasks": 1624,
      "ĠFluffy": 1625,
      "cle": 1626,
      "pa": 1627,
      "row": 1628,
      "ated": 1629,
      "ower": 1630,
      "Ġju": 1631,
      "Ġjoy": 1632,
      "ased": 1633,
      "Ġruns": 1634,
      "Ġstepped": 1635,
      "sw": 1636,
      "Ġstre": 1637,
      "Ġbigger": 1638,
      "Ġansw": 1639,
      "Ġexp": 1640,
      "Ġblank": 1641,
      "Ġstayed": 1642,
      "Ġpulled": 1643,
      "aisy": 1644,
      "ire": 1645,
      "Ġhot": 1646,
      "Ġhide": 1647,
      "Ġmar": 1648,
      "igg": 1649,
      "Ġyes": 1650,
      "ames": 1651,
      "Ġshar": 1652,
      "Ġclosed": 1653,
      "Ġfaster": 1654,
      "Ġlistened": 1655,
      "Ġstories": 1656,
      "Ġturned": 1657,
      "Ġacross": 1658,
      "ee": 1659,
      "ere": 1660,
      "ndpa": 1661,
      "Ġwall": 1662,
      "Ġpat": 1663,
      "Ġpro": 1664,
      "Ġpie": 1665,
      "issed": 1666,
      "Ġgif": 1667,
      "Ġele": 1668,
      "Ġliving": 1669,
      "Ġalone": 1670,
      "Ġmus": 1671,
      "Ġfox": 1672,
      "Ġamazed": 1673,
      "Ġsnowman": 1674,
      "de": 1675,
      "Ġwish": 1676,
      "Ġfall": 1677,
      "ĠThere": 1678,
      "less": 1679,
      "Ġrel": 1680,
      "ĠAmy": 1681,
      "Ġland": 1682,
      "Ġtowards": 1683,
      "Ġthinks": 1684,
      "lieved": 1685,
      "Ġblanket": 1686,
      "ich": 1687,
      "ph": 1688,
      "Ġsuch": 1689,
      "Ġwasn": 1690,
      "Ġpre": 1691,
      "Ġpink": 1692,
      "eces": 1693,
      "Ġsea": 1694,
      "ained": 1695,
      "thday": 1696,
      "Ġclimbed": 1697,
      "Ġtrain": 1698,
      "Ġbush": 1699,
      "Ġpromise": 1700,
      "Ġgentle": 1701,
      "Ġpieces": 1702,
      "Ġclapped": 1703,
      "Ġbask": 1704,
      "Ġcloud": 1705,
      "Ġscary": 1706,
      "Ġdaddy": 1707,
      "Ġbasket": 1708,
      "Ġhill": 1709,
      "Ġfield": 1710,
      "Ġpot": 1711,
      "Ġsear": 1712,
      "Ġcand": 1713,
      "Ġroll": 1714,
      "Ġbirthday": 1715,
      "Ġsometimes": 1716,
      "Ġmust": 1717,
      "bby": 1718,
      "Ġgrow": 1719,
      "Ġjoin": 1720,
      "Ġfarmer": 1721,
      "Ġexploring": 1722,
      "app": 1723,
      "te": 1724,
      "ts": 1725,
      "ze": 1726,
      "Ġsign": 1727,
      "Ġwar": 1728,
      "Ġph": 1729,
      "Ġmout": 1730,
      "orn": 1731,
      "cked": 1732,
      "Ġyard": 1733,
      "Ġshared": 1734,
      "Ġseemed": 1735,
      "Ġsinging": 1736,
      "Ġmouth": 1737,
      "que": 1738,
      "Ġteddy": 1739,
      "Ġbath": 1740,
      "Ġfit": 1741,
      "iting": 1742,
      "Ġcream": 1743,
      "Ġmoney": 1744,
      "Ġnum": 1745,
      "ĠMolly": 1746,
      "Ġcoat": 1747,
      "Ġswam": 1748,
      "Ġblack": 1749,
      "Ġfruit": 1750,
      "Ġmoral": 1751,
      "Ġmonster": 1752,
      "ĠEmma": 1753,
      "Ġmusic": 1754,
      "Hi": 1755,
      "Sure": 1756,
      "mor": 1757,
      "Ġdry": 1758,
      "Ġpack": 1759,
      "Ġstand": 1760,
      "Ġrelieved": 1761,
      "Ġworried": 1762,
      "Ġcolorful": 1763,
      "Ġdisapp": 1764,
      "Ġbottle": 1765,
      "ek": 1766,
      "ex": 1767,
      "eared": 1768,
      "Ġsec": 1769,
      "oup": 1770,
      "Ġpur": 1771,
      "ence": 1772,
      "Ġbel": 1773,
      "ĠDaisy": 1774,
      "Ġtower": 1775,
      "Ġcrying": 1776,
      "Ġhope": 1777,
      "br": 1778,
      "Ġsilly": 1779,
      "Ġwise": 1780,
      "Ġbuck": 1781,
      "itting": 1782,
      "Ġalong": 1783,
      "Ġtreasure": 1784,
      "ventually": 1785,
      "Ġthrow": 1786,
      "ead": 1787,
      "gs": 1788,
      "Ġbat": 1789,
      "Ġwaited": 1790,
      "itch": 1791,
      "Ġstar": 1792,
      "stead": 1793,
      "Ġforget": 1794,
      "ĠAll": 1795,
      "Ġtrou": 1796,
      "Ġapples": 1797,
      "Ġpromised": 1798,
      "ple": 1799,
      "Ġsuddenly": 1800,
      "Ġwings": 1801,
      "Ġbike": 1802,
      "Ġheal": 1803,
      "Ġmark": 1804,
      "Ġstu": 1805,
      "ries": 1806,
      "Ġnearby": 1807,
      "Ġbroke": 1808,
      "phant": 1809,
      "Ġbucket": 1810,
      "Mia": 1811,
      "Maybe": 1812,
      "Okay": 1813,
      "la": 1814,
      "ward": 1815,
      "Ġtiny": 1816,
      "Ġwon": 1817,
      "Ġbor": 1818,
      "Ġhit": 1819,
      "Ġdanc": 1820,
      "Ġride": 1821,
      "Ġmonkey": 1822,
      "Ġsquir": 1823,
      "ming": 1824,
      "ment": 1825,
      "to": 1826,
      "Ġfight": 1827,
      "Ġthrew": 1828,
      "Ġbelie": 1829,
      "Ġonto": 1830,
      "Ġdays": 1831,
      "Ġwell": 1832,
      "Ġsmart": 1833,
      "Ġscream": 1834,
      "Ġdeer": 1835,
      "Ġcray": 1836,
      "Ġsquirrel": 1837,
      "Ġbelieve": 1838,
      "Lila": 1839,
      "eb": 1840,
      "fort": 1841,
      "iet": 1842,
      "ident": 1843,
      "Ġplan": 1844,
      "Ġshap": 1845,
      "Ġcoll": 1846,
      "Ġsunny": 1847,
      "ateful": 1848,
      "Ġsnake": 1849,
      "Ġquiet": 1850,
      "Ġcolour": 1851,
      "Ġgrateful": 1852,
      "ountain": 1853,
      "ĠInside": 1854,
      "Ġturns": 1855,
      "Ġelephant": 1856,
      "And": 1857,
      "Do": 1858,
      "lc": 1859,
      "Ġsitting": 1860,
      "Ġblew": 1861,
      "oun": 1862,
      "Ġsame": 1863,
      "cket": 1864,
      "Ġear": 1865,
      "Ġstuck": 1866,
      "Ġpocket": 1867,
      "ier": 1868,
      "set": 1869,
      "Ġer": 1870,
      "Ġve": 1871,
      "Ġwin": 1872,
      "Ġpract": 1873,
      "Ġnest": 1874,
      "Ġround": 1875,
      "sting": 1876,
      "Ġnothing": 1877,
      "Ġkick": 1878,
      "Ġknight": 1879,
      "Ġrace": 1880,
      "Ġlonger": 1881,
      "Ġsounds": 1882,
      "Ġdrink": 1883,
      "Ġarms": 1884,
      "Ġfairy": 1885,
      "red": 1886,
      "Ġtoday": 1887,
      "Ġboun": 1888,
      "Ġfree": 1889,
      "Ġpan": 1890,
      "chool": 1891,
      "Ġneigh": 1892,
      "Ġsmo": 1893,
      "Ġatt": 1894,
      "Ġwouldn": 1895,
      "Ġkey": 1896,
      "ocked": 1897,
      "Ġacc": 1898,
      "Ġdirty": 1899,
      "Ġstreet": 1900,
      "Ġneighb": 1901,
      "OK": 1902,
      "nic": 1903,
      "Ġact": 1904,
      "Ġsu": 1905,
      "Ġschool": 1906,
      "Ġbite": 1907,
      "Ġbaby": 1908,
      "Ġhar": 1909,
      "Ġhoney": 1910,
      "Ġcir": 1911,
      "Ġpen": 1912,
      "Ġmist": 1913,
      "Ġplant": 1914,
      "Ġwelc": 1915,
      "unch": 1916,
      "Ġhappen": 1917,
      "Ġspo": 1918,
      "Ġjar": 1919,
      "Ġintere": 1920,
      "Tommy": 1921,
      "Ġpicnic": 1922,
      "Ġhoped": 1923,
      "Ġpushed": 1924,
      "Ġcreature": 1925,
      "Finally": 1926,
      "Ġaf": 1927,
      "Ġwom": 1928,
      "Ġbur": 1929,
      "ity": 1930,
      "Ġmed": 1931,
      "Ġnaught": 1932,
      "Ġsheep": 1933,
      "Ġupset": 1934,
      "ĠMary": 1935,
      "Ġeverywhere": 1936,
      "Ġcookie": 1937,
      "Ġdropped": 1938,
      "Ġpuppy": 1939,
      "Ġgift": 1940,
      "Ġwoman": 1941,
      "Ġnaughty": 1942,
      "Ġlad": 1943,
      "Ġheart": 1944,
      "anch": 1945,
      "oof": 1946,
      "Ġbee": 1947,
      "Ġyoung": 1948,
      "unk": 1949,
      "alm": 1950,
      "ĠMr": 1951,
      "ugg": 1952,
      "Ġjob": 1953,
      "Ġcave": 1954,
      "Ġbranch": 1955,
      "Ġexplained": 1956,
      "Ġbusy": 1957,
      "aughter": 1958,
      "Ġresp": 1959,
      "Ġparty": 1960,
      "Ġeras": 1961,
      "Why": 1962,
      "os": 1963,
      "Ġgames": 1964,
      "ord": 1965,
      "ont": 1966,
      "Ġinstead": 1967,
      "raid": 1968,
      "fused": 1969,
      "Ġcaught": 1970,
      "Ġexciting": 1971,
      "Ġmud": 1972,
      "Ġgrab": 1973,
      "Ġcomes": 1974,
      "Ġtwins": 1975,
      "Ġmoved": 1976,
      "ĠRex": 1977,
      "Ġsecret": 1978,
      "Ġtrouble": 1979,
      "Ġaccident": 1980,
      "Ġinteresting": 1981,
      "Ġafraid": 1982,
      "Ġladder": 1983,
      "Jim": 1984,
      "og": 1985,
      "Ġdaughter": 1986,
      "Ġheav": 1987,
      "Ġpool": 1988,
      "Ġmine": 1989,
      "Ġgu": 1990,
      "Ġshook": 1991,
      "Ġchair": 1992,
      "thy": 1993,
      "Ġfront": 1994,
      "Ġ3": 1995,
      "ĠOn": 1996,
      "Ġlucky": 1997,
      "Ġgigg": 1998,
      "ors": 1999,
      "Ġinc": 2000,
      "Ġstars": 2001,
      "Ġplac": 2002,
      "ĠBilly": 2003,
      "Ġreach": 2004,
      "Ġneck": 2005,
      "ĠMama": 2006,
      "Ġje": 2007,
      "Ġsmiling": 2008,
      "blem": 2009,
      "ella": 2010,
      "Ġhugs": 2011,
      "Ġswings": 2012,
      "Ġeating": 2013,
      "Ġproblem": 2014,
      "Ġshapes": 2015,
      "Ġcollect": 2016,
      "Ġeraser": 2017,
      "Max": 2018,
      "ible": 2019,
      "Ġwide": 2020,
      "Ġpers": 2021,
      "Ġmil": 2022,
      "Ġmad": 2023,
      "ises": 2024,
      "ung": 2025,
      "Ġfac": 2026,
      "Ġwhole": 2027,
      "Ġlaughing": 2028,
      "Ġmost": 2029,
      "Ġowl": 2030,
      "Ġcup": 2031,
      "Ġdolls": 2032,
      "Ġdrove": 2033,
      "Ġhorse": 2034,
      "Ġjourney": 2035,
      "Ġpiece": 2036,
      "Ġheavy": 2037,
      "vous": 2038,
      "Ġthough": 2039,
      "pper": 2040,
      "vel": 2041,
      "Ġwithout": 2042,
      "Ġlife": 2043,
      "rass": 2044,
      "Ġtaking": 2045,
      "ipe": 2046,
      "Ġcrown": 2047,
      "Ġtasted": 2048,
      "Ġjuice": 2049,
      "Every": 2050,
      "dle": 2051,
      "fish": 2052,
      "Ġbought": 2053,
      "Ġhig": 2054,
      "Ġcour": 2055,
      "ervous": 2056,
      "Ġnervous": 2057,
      "Ġriver": 2058,
      "Ġspin": 2059,
      "Ġnose": 2060,
      "Ġmeet": 2061,
      "Ġcozy": 2062,
      "Ġfeels": 2063,
      "Ġpeace": 2064,
      "ions": 2065,
      "Ġadm": 2066,
      "Ġimag": 2067,
      "Ġstorm": 2068,
      "ressed": 2069,
      "Ġpast": 2070,
      "Ġdriver": 2071,
      "Ġspotted": 2072,
      "Ġpointed": 2073,
      "Ġmatch": 2074,
      "Ġbowl": 2075,
      "Ġemb": 2076,
      "Ġsharp": 2077,
      "Ġbelong": 2078,
      "Ġwelcome": 2079,
      "Ġmilk": 2080,
      "Ġcourse": 2081,
      "bble": 2082,
      "ffe": 2083,
      "ness": 2084,
      "sy": 2085,
      "yard": 2086,
      "Ġent": 2087,
      "Ġhum": 2088,
      "Ġwaves": 2089,
      "Ġlate": 2090,
      "Ġlater": 2091,
      "Ġpile": 2092,
      "Ġpath": 2093,
      "arrass": 2094,
      "Ġnap": 2095,
      "llo": 2096,
      "Ġinv": 2097,
      "Ġwhist": 2098,
      "Ġret": 2099,
      "Ġloves": 2100,
      "Ġbackyard": 2101,
      "Ġhuge": 2102,
      "Ġbring": 2103,
      "ush": 2104,
      "Ġsunsh": 2105,
      "ĠCh": 2106,
      "ctor": 2107,
      "Ġcheered": 2108,
      "Ġgently": 2109,
      "Ġspray": 2110,
      "Ġcrayons": 2111,
      "Ġembarrass": 2112,
      "Ġsunshine": 2113,
      "gged": 2114,
      "ho": 2115,
      "uched": 2116,
      "Ġtouched": 2117,
      "Ġband": 2118,
      "Ġdance": 2119,
      "Ġpill": 2120,
      "ĠTV": 2121,
      "Ġsack": 2122,
      "ones": 2123,
      "Ġthick": 2124,
      "ese": 2125,
      "Ġeventually": 2126,
      "Ġsold": 2127,
      "Ġlive": 2128,
      "Ġbutt": 2129,
      "ĠSammy": 2130,
      "Ġcheese": 2131,
      "ĠSoon": 2132,
      "ĠRose": 2133,
      "ĠGrandpa": 2134,
      "Ġpaw": 2135,
      "Ġzoom": 2136,
      "Ġpush": 2137,
      "Ġsongs": 2138,
      "Ġbarked": 2139,
      "Ġpaint": 2140,
      "Ġcandy": 2141,
      "Ġphone": 2142,
      "Ġhigher": 2143,
      "Ġretur": 2144,
      "aking": 2145,
      "ian": 2146,
      "ten": 2147,
      "Ġes": 2148,
      "Ġmiss": 2149,
      "Ġnet": 2150,
      "otect": 2151,
      "vered": 2152,
      "owed": 2153,
      "Ġstep": 2154,
      "Ġrec": 2155,
      "Ġkissed": 2156,
      "ĠJen": 2157,
      "Ġcoin": 2158,
      "Ġprotect": 2159,
      "ears": 2160,
      "Ġturkey": 2161,
      "Ġapple": 2162,
      "Later": 2163,
      "Sally": 2164,
      "mer": 2165,
      "ses": 2166,
      "Ġcop": 2167,
      "era": 2168,
      "Ġhello": 2169,
      "Ġpudd": 2170,
      "arge": 2171,
      "Ġgather": 2172,
      "Ġsaved": 2173,
      "ĠBo": 2174,
      "Ġkiss": 2175,
      "Ġpolice": 2176,
      "ĠFr": 2177,
      "Ġtrust": 2178,
      "Ġquest": 2179,
      "Ġdisco": 2180,
      "Ġsplas": 2181,
      "ĠJimmy": 2182,
      "Ġcarrots": 2183,
      "Ġpige": 2184,
      "Bob": 2185,
      "lower": 2186,
      "old": 2187,
      "wor": 2188,
      "Ġbone": 2189,
      "Ġbark": 2190,
      "read": 2191,
      "Ġfence": 2192,
      "Ġcou": 2193,
      "Ġcow": 2194,
      "Ġrope": 2195,
      "itty": 2196,
      "Ġnoises": 2197,
      "Ġroad": 2198,
      "Ġwhenever": 2199,
      "ĠFinally": 2200,
      "Ġcomfort": 2201,
      "Ġskipped": 2202,
      "Ġstranger": 2203,
      "Ġforever": 2204,
      "Soon": 2205,
      "Ġtown": 2206,
      "Ġbread": 2207,
      "Ġwrite": 2208,
      "Ġwatching": 2209,
      "Ġsmelled": 2210,
      "Ġgives": 2211,
      "Ġsplash": 2212,
      "Ġsparkly": 2213,
      "Ġembarrassed": 2214,
      "Mum": 2215,
      "lves": 2216,
      "Ġtie": 2217,
      "Ġser": 2218,
      "Ġsoup": 2219,
      "Ġtomor": 2220,
      "Ġben": 2221,
      "Ġfing": 2222,
      "Ġcoo": 2223,
      "Ġpop": 2224,
      "Ġsave": 2225,
      "Ġthin": 2226,
      "Ġshell": 2227,
      "Ġlift": 2228,
      "Ġspe": 2229,
      "ĠJake": 2230,
      "Ġfeather": 2231,
      "Ġworm": 2232,
      "Ġtakes": 2233,
      "ĠEverywhere": 2234,
      "Hey": 2235,
      "Ġlovely": 2236,
      "Ġbuilding": 2237,
      "Ġtreats": 2238,
      "Ġanswer": 2239,
      "Ġpurple": 2240,
      "work": 2241,
      "Ġtomorrow": 2242,
      "Come": 2243,
      "Mama": 2244,
      "bers": 2245,
      "mo": 2246,
      "weet": 2247,
      "zz": 2248,
      "Ġhon": 2249,
      "Ġfig": 2250,
      "Ġcor": 2251,
      "Ġcalm": 2252,
      "Ġlunch": 2253,
      "ert": 2254,
      "Ġpri": 2255,
      "Ġob": 2256,
      "ird": 2257,
      "iger": 2258,
      "Ġstone": 2259,
      "Ġdoctor": 2260,
      "ours": 2261,
      "andy": 2262,
      "Ġchew": 2263,
      "Ġwondered": 2264,
      "Ġmail": 2265,
      "Ġthankful": 2266,
      "Ġpretended": 2267,
      "Ġcute": 2268,
      "Ġshoes": 2269,
      "Ġnumber": 2270,
      "Ġbatter": 2271,
      "Ġrespect": 2272,
      "Ġaccidentally": 2273,
      "Ġfaces": 2274,
      "Good": 2275,
      "Lucy": 2276,
      "pe": 2277,
      "Ġturt": 2278,
      "Ġant": 2279,
      "Ġsuc": 2280,
      "Ġwitch": 2281,
      "ining": 2282,
      "Ġletter": 2283,
      "Ġmin": 2284,
      "Ġmid": 2285,
      "Ġmountain": 2286,
      "oop": 2287,
      "oose": 2288,
      "Ġstones": 2289,
      "Ġbell": 2290,
      "Ġrad": 2291,
      "ĠBella": 2292,
      "Ġlock": 2293,
      "Ġseed": 2294,
      "Ġalmo": 2295,
      "Ġchased": 2296,
      "Ġputs": 2297,
      "ĠDan": 2298,
      "Ġballoon": 2299,
      "Ġmyster": 2300,
      "Ġtrue": 2301,
      "Ġanyone": 2302,
      "Ġappeared": 2303,
      "ĠThank": 2304,
      "Ġtaste": 2305,
      "Ġducks": 2306,
      "Ġsailed": 2307,
      "ensive": 2308,
      "Ġholding": 2309,
      "Ġswimming": 2310,
      "Ġrelax": 2311,
      "Ġneighbor": 2312,
      "Ġmiddle": 2313,
      "Ġalmost": 2314,
      "Be": 2315,
      "Molly": 2316,
      "Of": 2317,
      "ual": 2318,
      "Ġce": 2319,
      "ery": 2320,
      "Ġpas": 2321,
      "Ġoce": 2322,
      "let": 2323,
      "ĠHow": 2324,
      "amp": 2325,
      "Ġsol": 2326,
      "Ġash": 2327,
      "Ġgold": 2328,
      "ĠJenny": 2329,
      "Ġfeet": 2330,
      "Ġcoins": 2331,
      "Ġdogs": 2332,
      "epend": 2333,
      "Ġslid": 2334,
      "Ġwoke": 2335,
      "Ġclever": 2336,
      "Ġadventures": 2337,
      "Ġfurry": 2338,
      "Ġrude": 2339,
      "Ġdrive": 2340,
      "Ġsnacks": 2341,
      "Ġexpensive": 2342,
      "Ġpatient": 2343,
      "Ġclouds": 2344,
      "Ġpuddle": 2345,
      "Ġpigeon": 2346,
      "Ġpassed": 2347,
      "Ġocean": 2348,
      "Mummy": 2349,
      "mon": 2350,
      "Ġsick": 2351,
      "Ġdist": 2352,
      "orry": 2353,
      "cks": 2354,
      "Ġeag": 2355,
      "adow": 2356,
      "Ġweak": 2357,
      "Ġshr": 2358,
      "ĠMummy": 2359,
      "Ġhelpful": 2360,
      "Ġclass": 2361,
      "Ġlast": 2362,
      "Ġpray": 2363,
      "Ġswan": 2364,
      "ĠDucky": 2365,
      "berry": 2366,
      "Ġteach": 2367,
      "Ġbugs": 2368,
      "Ġsearched": 2369,
      "Ġscreamed": 2370,
      "Ġbounc": 2371,
      "Ġplaces": 2372,
      "Ġpeaceful": 2373,
      "Jill": 2374,
      "aur": 2375,
      "ball": 2376,
      "Ġtid": 2377,
      "Ġwild": 2378,
      "Ġhours": 2379,
      "Ġfat": 2380,
      "Ġlarge": 2381,
      "Ġdi": 2382,
      "Ġmach": 2383,
      "Ġsang": 2384,
      "Ġeas": 2385,
      "amed": 2386,
      "Ġforward": 2387,
      "Ġshining": 2388,
      "Ġtool": 2389,
      "Ġgoes": 2390,
      "Ġspent": 2391,
      "Ġlemon": 2392,
      "Ġroar": 2393,
      "Ġmoon": 2394,
      "Ġrocket": 2395,
      "ĠPlease": 2396,
      "board": 2397,
      "Ġjournal": 2398,
      "Ġanswered": 2399,
      "Ġpres": 2400,
      "Ġsearch": 2401,
      "Ġstanding": 2402,
      "Ġhealthy": 2403,
      "ffee": 2404,
      "Ġreturned": 2405,
      "Ġeager": 2406,
      "Now": 2407,
      "lace": 2408,
      "Ġign": 2409,
      "Ġtears": 2410,
      "Ġwaff": 2411,
      "Ġwagged": 2412,
      "Ġlone": 2413,
      "Ġline": 2414,
      "Ġdes": 2415,
      "Ġpage": 2416,
      "Ġpower": 2417,
      "Ġmind": 2418,
      "Ġmaybe": 2419,
      "enry": 2420,
      "ĠSomet": 2421,
      "oth": 2422,
      "eth": 2423,
      "Ġeg": 2424,
      "Ġstra": 2425,
      "ĠLe": 2426,
      "ĠBe": 2427,
      "Ġshore": 2428,
      "itten": 2429,
      "als": 2430,
      "Ġexam": 2431,
      "Ġknocked": 2432,
      "Ġscar": 2433,
      "ĠWith": 2434,
      "ife": 2435,
      "Ġknows": 2436,
      "ÅĵI": 2437,
      "Ġsmelly": 2438,
      "Ġdirt": 2439,
      "eterm": 2440,
      "ĠBobby": 2441,
      "Ġtidy": 2442,
      "Ġlonely": 2443,
      "St": 2444,
      "bled": 2445,
      "ches": 2446,
      "oin": 2447,
      "rn": 2448,
      "Ġ'": 2449,
      "Ġsuit": 2450,
      "Ġwhe": 2451,
      "Ġba": 2452,
      "Ġcries": 2453,
      "Ġdeterm": 2454,
      "Ġpass": 2455,
      "ĠTweet": 2456,
      "Ġgen": 2457,
      "lebr": 2458,
      "ute": 2459,
      "Ġweek": 2460,
      "Ġdolp": 2461,
      "Ġspicy": 2462,
      "Ġspread": 2463,
      "Ġcoffee": 2464,
      "iff": 2465,
      "Ġval": 2466,
      "umpy": 2467,
      "Ġteam": 2468,
      "ĠPeter": 2469,
      "Ġwaiting": 2470,
      "Ġbreath": 2471,
      "Ġbedroom": 2472,
      "Ġdrop": 2473,
      "Ġcraw": 2474,
      "box": 2475,
      "Jimmy": 2476,
      "Ġnecklace": 2477,
      "Ġcorner": 2478,
      "Ġturtle": 2479,
      "Ġcelebr": 2480,
      "Ġashamed": 2481,
      "Ġdolph": 2482,
      "Sorry": 2483,
      "ale": 2484,
      "cream": 2485,
      "lies": 2486,
      "rown": 2487,
      "rated": 2488,
      "unt": 2489,
      "Ġtest": 2490,
      "Ġtiger": 2491,
      "Ġsel": 2492,
      "Ġsna": 2493,
      "Ġwing": 2494,
      "ina": 2495,
      "Ġdig": 2496,
      "Ġdiz": 2497,
      "Ġple": 2498,
      "Ġmissed": 2499,
      "ato": 2500,
      "irp": 2501,
      "Ġyog": 2502,
      "ittens": 2503,
      "Ġasleep": 2504,
      "Ġmeadow": 2505,
      "Ġcarry": 2506,
      "Ġbranc": 2507,
      "Ġpole": 2508,
      "Ġvine": 2509,
      "Ġtaught": 2510,
      "Ġknowing": 2511,
      "Ġgrew": 2512,
      "ĠGo": 2513,
      "Ġglass": 2514,
      "Ġtrucks": 2515,
      "Ġtalked": 2516,
      "Ġprince": 2517,
      "Ġforgive": 2518,
      "Ġfixed": 2519,
      "Ġcrab": 2520,
      "Ġpointing": 2521,
      "ĠKitty": 2522,
      "Ġdisappoin": 2523,
      "Ġcolourful": 2524,
      "Ġmistake": 2525,
      "Ġperson": 2526,
      "Ġwhistle": 2527,
      "Ġgathered": 2528,
      "Ġpresent": 2529,
      "Ġdizzy": 2530,
      "Ġbranches": 2531,
      "Please": 2532,
      "Where": 2533,
      "hile": 2534,
      "ove": 2535,
      "yal": 2536,
      "Ġtun": 2537,
      "Ġsour": 2538,
      "Ġwra": 2539,
      "Ġwave": 2540,
      "Ġfanc": 2541,
      "Ġfather": 2542,
      "Ġgate": 2543,
      "ator": 2544,
      "ĠSome": 2545,
      "Ġstret": 2546,
      "Ġstair": 2547,
      "Ġrich": 2548,
      "Ġroof": 2549,
      "cept": 2550,
      "Ġwhich": 2551,
      "Ġkitten": 2552,
      "Ġloyal": 2553,
      "Ġspoon": 2554,
      "Ġboard": 2555,
      "arth": 2556,
      "Ġexcite": 2557,
      "elly": 2558,
      "Ġlaw": 2559,
      "Ġbecome": 2560,
      "ustrated": 2561,
      "Ġvan": 2562,
      "usual": 2563,
      "Ġpepper": 2564,
      "Ġsunf": 2565,
      "Ġrac": 2566,
      "Ġmoving": 2567,
      "Ġfamous": 2568,
      "ache": 2569,
      "Ġunusual": 2570,
      "Ġfrustrated": 2571,
      "Ġstove": 2572,
      "Ġgiant": 2573,
      "col": 2574,
      "Ġtries": 2575,
      "Ġtightly": 2576,
      "Ġlanded": 2577,
      "Ġdanced": 2578,
      "Ġsupp": 2579,
      "Ġplants": 2580,
      "bbles": 2581,
      "Ġfigure": 2582,
      "Ġdisappointed": 2583,
      "Ġexcitement": 2584,
      "'d": 2585,
      "Dad": 2586,
      "In": 2587,
      "Jane": 2588,
      "cles": 2589,
      "ground": 2590,
      "ym": 2591,
      "Ġav": 2592,
      "Ġthese": 2593,
      "Ġbake": 2594,
      "Ġlay": 2595,
      "Ġpad": 2596,
      "Ġmot": 2597,
      "Ġmelt": 2598,
      "arage": 2599,
      "Ġgarage": 2600,
      "ano": 2601,
      "Ġstood": 2602,
      "Ġstuff": 2603,
      "keep": 2604,
      "Ġplane": 2605,
      "Ġlicked": 2606,
      "Ġlibr": 2607,
      "Ġking": 2608,
      "Ġjung": 2609,
      "Ġfeed": 2610,
      "Ġmeant": 2611,
      "ĠDon": 2612,
      "Ġblow": 2613,
      "iable": 2614,
      "Ġshows": 2615,
      "Ġteeth": 2616,
      "Ġsticks": 2617,
      "Ġdelight": 2618,
      "Ġunderstood": 2619,
      "Ġgiving": 2620,
      "ĠTogether": 2621,
      "Ġsharing": 2622,
      "Ġreliable": 2623,
      "Ġnumbers": 2624,
      "Ġpractice": 2625,
      "Ġsmoke": 2626,
      "Ġcircle": 2627,
      "Ġbench": 2628,
      "Ġfinger": 2629,
      "Ġhonest": 2630,
      "Ġmysterious": 2631,
      "Ġgener": 2632,
      "Ġselfish": 2633,
      "Ġfancy": 2634,
      "Ġjungle": 2635,
      "Are": 2636,
      "My": 2637,
      "Who": 2638,
      "hip": 2639,
      "port": 2640,
      "up": 2641,
      "zor": 2642,
      "Ġwore": 2643,
      "Ġhur": 2644,
      "Ġcross": 2645,
      "Ġdest": 2646,
      "Ġwaste": 2647,
      "ote": 2648,
      "selves": 2649,
      "ĠBaby": 2650,
      "ĠBrown": 2651,
      "Ġwhis": 2652,
      "ĠMittens": 2653,
      "Ġseat": 2654,
      "oph": 2655,
      "ĠEll": 2656,
      "Ġcho": 2657,
      "Ġchose": 2658,
      "Ġpol": 2659,
      "Ġyourself": 2660,
      "Ġrazor": 2661,
      "Ġoffice": 2662,
      "Ġsurf": 2663,
      "Ġfinish": 2664,
      "Ġyelled": 2665,
      "Ġtasty": 2666,
      "ĠEmily": 2667,
      "Ġbottom": 2668,
      "Ġcomple": 2669,
      "Ġmatter": 2670,
      "oomy": 2671,
      "Ġdisappeared": 2672,
      "Ġharm": 2673,
      "Ġpowerful": 2674,
      "keeper": 2675,
      "Sp": 2676,
      "aw": 2677,
      "aff": 2678,
      "bel": 2679,
      "cap": 2680,
      "den": 2681,
      "io": 2682,
      "per": 2683,
      "sp": 2684,
      "wel": 2685,
      "Ġtask": 2686,
      "Ġbal": 2687,
      "Ġcart": 2688,
      "Ġcards": 2689,
      "Ġwash": 2690,
      "Ġpay": 2691,
      "ĠTilly": 2692,
      "idge": 2693,
      "Ġforth": 2694,
      "Ġshake": 2695,
      "elp": 2696,
      "inde": 2697,
      "Ġnods": 2698,
      "Ġmemor": 2699,
      "Ġworking": 2700,
      "usie": 2701,
      "Ġhopping": 2702,
      "Ġenorm": 2703,
      "ĠCome": 2704,
      "Ġchest": 2705,
      "Ġremind": 2706,
      "Ġconfused": 2707,
      "Ġaccept": 2708,
      "Ġstronger": 2709,
      "Ġcloth": 2710,
      "Ġbarrel": 2711,
      "Ġcompass": 2712,
      "Ġhiding": 2713,
      "Ġwarned": 2714,
      "Ġbored": 2715,
      "Ġgiggled": 2716,
      "Ġsplashed": 2717,
      "Ġeggs": 2718,
      "ĠLeo": 2719,
      "Ġscarf": 2720,
      "Stop": 2721,
      "Ġmotor": 2722,
      "Ġenormous": 2723,
      "Just": 2724,
      "To": 2725,
      "gy": 2726,
      "gly": 2727,
      "yl": 2728,
      "ying": 2729,
      "Ġsig": 2730,
      "Ġsque": 2731,
      "Ġwip": 2732,
      "Ġtoast": 2733,
      "Ġcity": 2734,
      "Ġcush": 2735,
      "Ġpipe": 2736,
      "Ġmic": 2737,
      "Ġmummy": 2738,
      "Ġoct": 2739,
      "Ġgun": 2740,
      "Ġham": 2741,
      "Ġhang": 2742,
      "Ġugly": 2743,
      "Ġstream": 2744,
      "Ġrot": 2745,
      "ĠIf": 2746,
      "Ġshaking": 2747,
      "Ġwhale": 2748,
      "Ġreg": 2749,
      "alk": 2750,
      "Ġkite": 2751,
      "Ġlose": 2752,
      "illed": 2753,
      "Ġboss": 2754,
      "Ġknife": 2755,
      "opus": 2756,
      "Ġlegs": 2757,
      "ages": 2758,
      "Ġdecor": 2759,
      "Ġtwirl": 2760,
      "Ġmov": 2761,
      "Ġrocks": 2762,
      "Ġleaf": 2763,
      "ult": 2764,
      "Ġpiano": 2765,
      "Ġexplored": 2766,
      "Ġhidden": 2767,
      "Ġrolled": 2768,
      "Ġpacked": 2769,
      "ĠMrs": 2770,
      "Ġpasta": 2771,
      "Ġcouch": 2772,
      "Ġmachine": 2773,
      "ĠSometimes": 2774,
      "achel": 2775,
      "Ġoctopus": 2776,
      "Help": 2777,
      "Sue": 2778,
      "ail": 2779,
      "cil": 2780,
      "ique": 2781,
      "ond": 2782,
      "Ġtent": 2783,
      "Ġtorn": 2784,
      "ination": 2785,
      "Ġhay": 2786,
      "Ġcard": 2787,
      "Ġcurt": 2788,
      "Ġpour": 2789,
      "Ġmis": 2790,
      "ĠTheir": 2791,
      "Ġsheet": 2792,
      "Ġshelf": 2793,
      "ĠLook": 2794,
      "Ġplate": 2795,
      "Ġplayful": 2796,
      "Ġplayground": 2797,
      "ĠBear": 2798,
      "ĠBunny": 2799,
      "Ġshiver": 2800,
      "itter": 2801,
      "Ġnoteb": 2802,
      "Ġrefused": 2803,
      "Ġreinde": 2804,
      "Ġasking": 2805,
      "Ġsell": 2806,
      "Ġext": 2807,
      "Ġfriendship": 2808,
      "Ġmanag": 2809,
      "Ġcarried": 2810,
      "ĠEnd": 2811,
      "Ġraven": 2812,
      "Ġmod": 2813,
      "Ġlouder": 2814,
      "Ġcheap": 2815,
      "Ġgroup": 2816,
      "Ġimpressed": 2817,
      "Ġrealised": 2818,
      "Ġopens": 2819,
      "Ġtrap": 2820,
      "Ġmeans": 2821,
      "Ġbutterflies": 2822,
      "Ġbarber": 2823,
      "Ġwearing": 2824,
      "Ġmarble": 2825,
      "Ġphot": 2826,
      "Ġsmooth": 2827,
      "Ġpencil": 2828,
      "Ġspoke": 2829,
      "Ġmedal": 2830,
      "Ġjewel": 2831,
      "Ġbutton": 2832,
      "Ġcomfortable": 2833,
      "Ġspeed": 2834,
      "Ġseeds": 2835,
      "Ġignor": 2836,
      "Ġdetermined": 2837,
      "Ġlibrary": 2838,
      "Ġcompassion": 2839,
      "Ġcurtain": 2840,
      "Ġnotebook": 2841,
      "Ġreindeer": 2842,
      "Amy": 2843,
      "az": 2844,
      "bin": 2845,
      "ef": 2846,
      "eff": 2847,
      "lter": 2848,
      "pack": 2849,
      "wards": 2850,
      "Ġed": 2851,
      "Ġson": 2852,
      "Ġsink": 2853,
      "Ġbri": 2854,
      "ines": 2855,
      "Ġwand": 2856,
      "Ġwander": 2857,
      "Ġcam": 2858,
      "Ġcudd": 2859,
      "Ġhears": 2860,
      "Ġpir": 2861,
      "Ġoven": 2862,
      "aria": 2863,
      "ilt": 2864,
      "ider": 2865,
      "Ġnorm": 2866,
      "lend": 2867,
      "irr": 2868,
      "uth": 2869,
      "Ġshelter": 2870,
      "celet": 2871,
      "ention": 2872,
      "Ġdove": 2873,
      "Ġshir": 2874,
      "Ġshark": 2875,
      "ĠJust": 2876,
      "Ġalert": 2877,
      "Ġseek": 2878,
      "Ġrode": 2879,
      "Ġfluffy": 2880,
      "Ġexcitedly": 2881,
      "Ġyours": 2882,
      "ushed": 2883,
      "Ġgrandpa": 2884,
      "Ġknee": 2885,
      "Ġthoughtful": 2886,
      "Ġtruth": 2887,
      "Ġsnee": 2888,
      "Ġfoot": 2889,
      "Ġbracelet": 2890,
      "Ġadv": 2891,
      "Ġcheck": 2892,
      "Ġunique": 2893,
      "Ġfright": 2894,
      "Joe": 2895,
      "Ġdrank": 2896,
      "Ġpretending": 2897,
      "Ġcrack": 2898,
      "Ġcreative": 2899,
      "Ġcompet": 2900,
      "Ġpainting": 2901,
      "Ġkicked": 2902,
      "Ġcircles": 2903,
      "Ġhappening": 2904,
      "Ġmedic": 2905,
      "Ġbelonged": 2906,
      "Ġbattery": 2907,
      "Ġsuccess": 2908,
      "ĠTweety": 2909,
      "Ġgenerous": 2910,
      "cape": 2911,
      "Ġcushion": 2912,
      "Ġextra": 2913,
      "Ġmanaged": 2914,
      "Ġcamera": 2915,
      "Ġnormal": 2916,
      "Alice": 2917,
      "Gra": 2918,
      "How": 2919,
      "not": 2920,
      "peci": 2921,
      "ray": 2922,
      "ubby": 2923,
      "Ġsug": 2924,
      "Ġsight": 2925,
      "Ġsugg": 2926,
      "Ġfine": 2927,
      "Ġlit": 2928,
      "Ġlying": 2929,
      "erable": 2930,
      "Ġdrew": 2931,
      "Ġgas": 2932,
      "iled": 2933,
      "Ġstaff": 2934,
      "Ġring": 2935,
      "Ġoften": 2936,
      "There": 2937,
      "Their": 2938,
      "Ġreef": 2939,
      "Ġneat": 2940,
      "ĠMilly": 2941,
      "Ġjelly": 2942,
      "ĠAlice": 2943,
      "Ġcannot": 2944,
      "Ġclum": 2945,
      "Ġsciss": 2946,
      "ĠWhy": 2947,
      "Ġrose": 2948,
      "ĠYour": 2949,
      "Ġchick": 2950,
      "Ġchubby": 2951,
      "Ġgets": 2952,
      "Ġtaken": 2953,
      "Ġtape": 2954,
      "Ġclock": 2955,
      "Ġcompl": 2956,
      "Ġshowing": 2957,
      "Ġproudly": 2958,
      "pty": 2959,
      "Ġbuilt": 2960,
      "Ġfog": 2961,
      "Ġcheer": 2962,
      "Ġgrumpy": 2963,
      "ĠRo": 2964,
      "Ġcleaned": 2965,
      "Ġwrote": 2966,
      "Ġdrawing": 2967,
      "Ġcontent": 2968,
      "Ġruined": 2969,
      "Ġresc": 2970,
      "ular": 2971,
      "Ġshoot": 2972,
      "ĠToday": 2973,
      "Ġempty": 2974,
      "Ġpotato": 2975,
      "Ġfruits": 2976,
      "Ġharsh": 2977,
      "Ġpillow": 2978,
      "Ġespeci": 2979,
      "Ġstraw": 2980,
      "Ġpleased": 2981,
      "Ġwrapped": 2982,
      "Spot": 2983,
      "Ġmiserable": 2984,
      "Ġfrightened": 2985,
      "Ġmedicine": 2986,
      "Ġsugar": 2987,
      "Ġsuggest": 2988,
      "Ġscissors": 2989,
      "Ġespecially": 2990,
      "Billy": 2991,
      "If": 2992,
      "Well": 2993,
      "Yay": 2994,
      "bs": 2995,
      "cy": 2996,
      "corn": 2997,
      "iest": 2998,
      "ject": 2999,
      "nn": 3000,
      "ol": 3001,
      "we": 3002,
      "year": 3003,
      "ĊĠ": 3004,
      "ĠZ": 3005,
      "Ġicy": 3006,
      "head": 3007,
      "Ġap": 3008,
      "Ġfour": 3009,
      "Ġlow": 3010,
      "Ġmass": 3011,
      "ĠTr": 3012,
      "ating": 3013,
      "anged": 3014,
      "ory": 3015,
      "ĠHenry": 3016,
      "Ġears": 3017,
      "Ġearth": 3018,
      "Ġyet": 3019,
      "Ġstable": 3020,
      "ric": 3021,
      "Ġweird": 3022,
      "chor": 3023,
      "Ġanchor": 3024,
      "Ġgoat": 3025,
      "ured": 3026,
      "Ġhelpless": 3027,
      "Ġcabin": 3028,
      "Ġcalend": 3029,
      "Ġlead": 3030,
      "Ġnoisy": 3031,
      "Ġfear": 3032,
      "ĠEven": 3033,
      "Ġchas": 3034,
      "Ġswe": 3035,
      "bborn": 3036,
      "Ġblouse": 3037,
      "Ġhandle": 3038,
      "Ġord": 3039,
      "Ġorgan": 3040,
      "ize": 3041,
      "Ġways": 3042,
      "Ġloudly": 3043,
      "Ġgray": 3044,
      "Ġgrown": 3045,
      "Ġtele": 3046,
      "Ġleaving": 3047,
      "Ġsandw": 3048,
      "Ġtrip": 3049,
      "Ġmighty": 3050,
      "Ġsplit": 3051,
      "Ġhorses": 3052,
      "Ġdreams": 3053,
      "Ġshopkeeper": 3054,
      "Ġmarket": 3055,
      "Ġstubborn": 3056,
      "Ġboring": 3057,
      "Ġgrabs": 3058,
      "Ġhumble": 3059,
      "Ġnetwork": 3060,
      "Ġrecord": 3061,
      "Ġquestions": 3062,
      "Ġpopcorn": 3063,
      "Ġradish": 3064,
      "Ġclassroom": 3065,
      "Ġeasy": 3066,
      "Ġwaffle": 3067,
      "Ġwheel": 3068,
      "Ġdolphin": 3069,
      "Ġsunflower": 3070,
      "Ġchocol": 3071,
      "Ġmovie": 3072,
      "Ġedge": 3073,
      "Ġadvice": 3074,
      "Ġcompetit": 3075,
      "Ġclumsy": 3076,
      "Ġmassage": 3077,
      "Ġcalendar": 3078,
      "Go": 3079,
      "cer": 3080,
      "kn": 3081,
      "oot": 3082,
      "ola": 3083,
      "uce": 3084,
      "Ġind": 3085,
      "ndor": 3086,
      "Ġwagon": 3087,
      "Ġfu": 3088,
      "Ġfake": 3089,
      "Ġfountain": 3090,
      "Ġpil": 3091,
      "Ġmirr": 3092,
      "Ġok": 3093,
      "Ġsaf": 3094,
      "ots": 3095,
      "Ġstri": 3096,
      "Ġsock": 3097,
      "Ġshy": 3098,
      "Ġang": 3099,
      "ĠAm": 3100,
      "Ġcase": 3101,
      "Ġleash": 3102,
      "Ġnod": 3103,
      "Ġscr": 3104,
      "Ġscare": 3105,
      "Ġcovered": 3106,
      "Ġflute": 3107,
      "Ġchoose": 3108,
      "used": 3109,
      "Ġtwist": 3110,
      "apa": 3111,
      "izz": 3112,
      "Ġneeds": 3113,
      "Ġevening": 3114,
      "Ġuniver": 3115,
      "Ġunkn": 3116,
      "ĠPapa": 3117,
      "Ġwalks": 3118,
      "ngth": 3119,
      "Ġtells": 3120,
      "Ġtelling": 3121,
      "Ġfurther": 3122,
      "Ġtrick": 3123,
      "Ġcounted": 3124,
      "Ġsquash": 3125,
      "Ġjuicy": 3126,
      "Ġstrength": 3127,
      "Ġbathroom": 3128,
      "Ġfighting": 3129,
      "Ġearly": 3130,
      "Ġvendor": 3131,
      "Ġbounce": 3132,
      "Ġadmired": 3133,
      "Ġimagine": 3134,
      "ĠFrank": 3135,
      "Ġquestion": 3136,
      "Ġdiscover": 3137,
      "Ġcooked": 3138,
      "ĠDanny": 3139,
      "Ġsquee": 3140,
      "Ġwiped": 3141,
      "Ġphoto": 3142,
      "Ġstrawberry": 3143,
      "Ġmirror": 3144,
      "Ġunknown": 3145,
      "Mary": 3146,
      "dile": 3147,
      "ext": 3148,
      "xious": 3149,
      "Ġsym": 3150,
      "Ġcher": 3151,
      "Ġcel": 3152,
      "Ġpenny": 3153,
      "Ġpressed": 3154,
      "ĠTed": 3155,
      "atch": 3156,
      "ĠSusie": 3157,
      "llip": 3158,
      "ets": 3159,
      "Ġstir": 3160,
      "Ġstum": 3161,
      "Ġrhy": 3162,
      "Ġones": 3163,
      "Ġshield": 3164,
      "Ġshocked": 3165,
      "ĠMy": 3166,
      "Ġanxious": 3167,
      "Ġlollip": 3168,
      "Ġspun": 3169,
      "fume": 3170,
      "Ġhelps": 3171,
      "?\".": 3172,
      "Ġsaying": 3173,
      "Ġcaul": 3174,
      "Ġleg": 3175,
      "Ġscoop": 3176,
      "Ġrob": 3177,
      "roco": 3178,
      "Ġmeasure": 3179,
      "Ġword": 3180,
      "Ġcover": 3181,
      "Ġcoal": 3182,
      "iflower": 3183,
      "Ġmule": 3184,
      "Ġchange": 3185,
      "Ġchirp": 3186,
      "Ġagainst": 3187,
      "Ġdecide": 3188,
      "Ġpoem": 3189,
      "Ġcareless": 3190,
      "ĠFin": 3191,
      "Ġvase": 3192,
      "Ġolder": 3193,
      "Ġpeach": 3194,
      "Ġtrunk": 3195,
      "Ġcomb": 3196,
      "Ġtwig": 3197,
      "ĠEverything": 3198,
      "Ġhanded": 3199,
      "Ġoffered": 3200,
      "bert": 3201,
      "Ġsmaller": 3202,
      "Ġkindness": 3203,
      "Ġwolf": 3204,
      "Ġclear": 3205,
      "thm": 3206,
      "Ġeye": 3207,
      "ĠRachel": 3208,
      "Ġtrash": 3209,
      "Ġbrightly": 3210,
      "Ġperfume": 3211,
      "Ġsweetie": 3212,
      "Ġtalking": 3213,
      "Ġlights": 3214,
      "Ġgiven": 3215,
      "bol": 3216,
      "Ġmessy": 3217,
      "Sarah": 3218,
      "Ġsprink": 3219,
      "Ġwalls": 3220,
      "Ġfalls": 3221,
      "Ġhuman": 3222,
      "Ġbuttons": 3223,
      "ĠFreddy": 3224,
      "Ġthinking": 3225,
      "Ġshells": 3226,
      "Ġmailbox": 3227,
      "Ġrelaxed": 3228,
      "ependent": 3229,
      "Ġdrops": 3230,
      "Ġtuna": 3231,
      "Ġcomplete": 3232,
      "Ġreminded": 3233,
      "Ġsighed": 3234,
      "Ġcompassionate": 3235,
      "Ġshirt": 3236,
      "Ġchocolate": 3237,
      "Ġindependent": 3238,
      "Ġsymbol": 3239,
      "Ġcelery": 3240,
      "Ġrhythm": 3241,
      "Ġlollipop": 3242,
      "Ġcauliflower": 3243,
      "rocodile": 3244,
      "Jake": 3245,
      "cient": 3246,
      "ded": 3247,
      "gust": 3248,
      "ibb": 3249,
      "iers": 3250,
      "land": 3251,
      "lock": 3252,
      "nies": 3253,
      "oppy": 3254,
      "ub": 3255,
      "Ġter": 3256,
      "Ġants": 3257,
      "Ġsent": 3258,
      "Ġwool": 3259,
      "edient": 3260,
      "Ġban": 3261,
      "rey": 3262,
      "resh": 3263,
      "Ġfil": 3264,
      "Ġfle": 3265,
      "Ġfive": 3266,
      "Ġfresh": 3267,
      "Ġlend": 3268,
      "Ġlamp": 3269,
      "Ġpages": 3270,
      "ĠTeddy": 3271,
      "ision": 3272,
      "Ġsal": 3273,
      "imp": 3274,
      "utes": 3275,
      "Ġrid": 3276,
      "ado": 3277,
      "Ġmoms": 3278,
      "Ġrever": 3279,
      "Ġancient": 3280,
      "Ġspir": 3281,
      "Ġspend": 3282,
      "Ġspace": 3283,
      "Ġspider": 3284,
      "ĠAt": 3285,
      "ĠJeff": 3286,
      "opard": 3287,
      "Ġleopard": 3288,
      "Ġseem": 3289,
      "Ġlazy": 3290,
      "Ġfla": 3291,
      "Ġflame": 3292,
      "istent": 3293,
      "Ġhose": 3294,
      "Ġsorts": 3295,
      "Ġmoder": 3296,
      "Ġbubbles": 3297,
      "Ġslipped": 3298,
      "Ġcalling": 3299,
      "Ġharder": 3300,
      "ÅĵIt": 3301,
      "ĠWhenever": 3302,
      "ĠPenny": 3303,
      "Ġdisgust": 3304,
      "ĠBobo": 3305,
      "ĠJohnny": 3306,
      "Ġcreate": 3307,
      "Ġsteal": 3308,
      "Ġlaughs": 3309,
      "Ġpoints": 3310,
      "Ġpup": 3311,
      "Ġpatch": 3312,
      "Ġrolling": 3313,
      "Ġpackage": 3314,
      "Ġveil": 3315,
      "redible": 3316,
      "Ġattract": 3317,
      "Ġincredible": 3318,
      "Ġfeathers": 3319,
      "Ġobedient": 3320,
      "Ġdistance": 3321,
      "Ġbald": 3322,
      "Ġstretch": 3323,
      "Ġlawy": 3324,
      "Ġdestro": 3325,
      "ĠBrownie": 3326,
      "Ġwhisp": 3327,
      "Ġpolite": 3328,
      "Ġharmless": 3329,
      "Ġbalance": 3330,
      "Ġbossy": 3331,
      "Ġstumbled": 3332,
      "Ġrobot": 3333,
      "Ġbanan": 3334,
      "Ġmodern": 3335,
      "Ġdisgusting": 3336,
      "See": 3337,
      "cu": 3338,
      "cope": 3339,
      "eked": 3340,
      "ha": 3341,
      "iate": 3342,
      "ience": 3343,
      "low": 3344,
      "nam": 3345,
      "ped": 3346,
      "pill": 3347,
      "Ġque": 3348,
      "Ġtut": 3349,
      "Ġtick": 3350,
      "Ġahead": 3351,
      "Ġsum": 3352,
      "Ġbitter": 3353,
      "inal": 3354,
      "Ġhook": 3355,
      "render": 3356,
      "Ġfis": 3357,
      "Ġfought": 3358,
      "ero": 3359,
      "erpill": 3360,
      "Ġdough": 3361,
      "Ġdepend": 3362,
      "omed": 3363,
      "Ġoat": 3364,
      "arn": 3365,
      "arian": 3366,
      "Ġgoose": 3367,
      "iday": 3368,
      "Ġhalf": 3369,
      "any": 3370,
      "imed": 3371,
      "ony": 3372,
      "Ġthirst": 3373,
      "Ġitself": 3374,
      "Ġink": 3375,
      "iginal": 3376,
      "Ġyarn": 3377,
      "Ġbeep": 3378,
      "Ġrushed": 3379,
      "Ġonce": 3380,
      "rible": 3381,
      "ĠLittle": 3382,
      "Ġweap": 3383,
      "Ġshade": 3384,
      "Ġnotice": 3385,
      "Ġisland": 3386,
      "Ġlog": 3387,
      "Ġload": 3388,
      "uring": 3389,
      "Ġthemselves": 3390,
      "icing": 3391,
      "Ġallowed": 3392,
      "Ġcane": 3393,
      "Ġstarting": 3394,
      "Ġboys": 3395,
      "Ġchanged": 3396,
      "bbie": 3397,
      "Ġpoor": 3398,
      "Ġbloom": 3399,
      "Ġopera": 3400,
      "Ġanywhere": 3401,
      "Ġcaterpill": 3402,
      "Ġpicking": 3403,
      "Ġsnugg": 3404,
      "Ġsniff": 3405,
      "Ġornam": 3406,
      "Ġoriginal": 3407,
      "Ġskin": 3408,
      "Ġskunk": 3409,
      "Ġenvel": 3410,
      "Here": 3411,
      "Ġsafely": 3412,
      "Ġador": 3413,
      "ement": 3414,
      "ĠAndy": 3415,
      "Ġgloomy": 3416,
      "Ġdoors": 3417,
      "Ġhurts": 3418,
      "aches": 3419,
      "Ġtowers": 3420,
      "Ġuncle": 3421,
      "âĤ¬âĢ": 3422,
      "Ġusing": 3423,
      "Ġjoke": 3424,
      "Ġjoined": 3425,
      "Ġstops": 3426,
      "Ġdrawings": 3427,
      "Ġzoo": 3428,
      "Ġzeb": 3429,
      "Ġswinging": 3430,
      "Ġsett": 3431,
      "Ġbags": 3432,
      "Ġrestaur": 3433,
      "Ġdinos": 3434,
      "Ġmetal": 3435,
      "avid": 3436,
      "astic": 3437,
      "ĠOK": 3438,
      "Ġmixed": 3439,
      "Ġexper": 3440,
      "Ġmarch": 3441,
      "Ġpurse": 3442,
      "Ġpersistent": 3443,
      "Ġspinning": 3444,
      "Ġsoldiers": 3445,
      "Ġescape": 3446,
      "Ġdiscovered": 3447,
      "Ġprize": 3448,
      "Ġletters": 3449,
      "Ġminutes": 3450,
      "Ġbouncing": 3451,
      "Ġtools": 3452,
      "Ġsearching": 3453,
      "Ġvalue": 3454,
      "Ġcelebrate": 3455,
      "Ġstairs": 3456,
      "Ġraced": 3457,
      "Ġpoured": 3458,
      "Ġcomplain": 3459,
      "Ġcabinet": 3460,
      "Ġsweater": 3461,
      "Ġspirit": 3462,
      "Ġattractive": 3463,
      "Ġlawyer": 3464,
      "Ġdestroy": 3465,
      "Ġwhispered": 3466,
      "Ġtutor": 3467,
      "Ġsummer": 3468,
      "Ġornament": 3469,
      "Ġzebra": 3470,
      "Ġrestaurant": 3471,
      "Ġdinosaur": 3472,
      "Ha": 3473,
      "abbit": 3474,
      "bow": 3475,
      "fa": 3476,
      "fic": 3477,
      "lu": 3478,
      "light": 3479,
      "liday": 3480,
      "mb": 3481,
      "ps": 3482,
      "und": 3483,
      "heart": 3484,
      "Ġtem": 3485,
      "Ġwiz": 3486,
      "Ġbet": 3487,
      "Ġbent": 3488,
      "Ġcrocodile": 3489,
      "Ġled": 3490,
      "erly": 3491,
      "Ġpar": 3492,
      "ilty": 3493,
      "ates": 3494,
      "ature": 3495,
      "Ġthu": 3496,
      "Ġhero": 3497,
      "uter": 3498,
      "igent": 3499,
      "Ġsofa": 3500,
      "ĠLola": 3501,
      "Ġplastic": 3502,
      "Ġhadn": 3503,
      "Ġshone": 3504,
      "Ġref": 3505,
      "alous": 3506,
      "rage": 3507,
      "!\".": 3508,
      "Ġjam": 3509,
      "Ġjack": 3510,
      "ĠAb": 3511,
      "ict": 3512,
      "Ġknock": 3513,
      "Ġscoot": 3514,
      "Ġroared": 3515,
      "Ġfauc": 3516,
      "Ġexcla": 3517,
      "elligent": 3518,
      "place": 3519,
      "Ġflag": 3520,
      "Ġchar": 3521,
      "Ġchain": 3522,
      "Ġswitch": 3523,
      "Ġintelligent": 3524,
      "Ġpeeked": 3525,
      "Ġholiday": 3526,
      "Ġtwink": 3527,
      "Ġmole": 3528,
      "Ġpicks": 3529,
      "Ġskill": 3530,
      "Ġstring": 3531,
      "Ġburied": 3532,
      "Ġquiz": 3533,
      "Ġfold": 3534,
      "Ġfireplace": 3535,
      "Ġunc": 3536,
      "Ġmagaz": 3537,
      "Ġdiffic": 3538,
      "Ġlistening": 3539,
      "Ġdisag": 3540,
      "Ġsounded": 3541,
      "Ġjolly": 3542,
      "Ġsweetheart": 3543,
      "Ġdrum": 3544,
      "Ġzero": 3545,
      "Ġfavour": 3546,
      "Ġhairy": 3547,
      "Ġsailor": 3548,
      "Ġresist": 3549,
      "Ġvisitor": 3550,
      "Ġcomputer": 3551,
      "Ġpuzz": 3552,
      "Ġsleepy": 3553,
      "ĠOr": 3554,
      "Ġfields": 3555,
      "Ġguilty": 3556,
      "Ġinclu": 3557,
      "Ġjealous": 3558,
      "Ġimagined": 3559,
      "Ġsoldier": 3560,
      "Ġpaws": 3561,
      "Ġsteps": 3562,
      "Ġlifted": 3563,
      "Ġradio": 3564,
      "Ġsolve": 3565,
      "Ġyogurt": 3566,
      "Ġhurry": 3567,
      "ophone": 3568,
      "Ġhammer": 3569,
      "Ġmodest": 3570,
      "Ġpirate": 3571,
      "Ġsuggested": 3572,
      "olog": 3573,
      "Ġapolog": 3574,
      "Ġcompetitive": 3575,
      "Ġangel": 3576,
      "Ġterrible": 3577,
      "Ġflapped": 3578,
      "Ġbanana": 3579,
      "Ġthirsty": 3580,
      "Ġcaterpillar": 3581,
      "Ġenvelope": 3582,
      "Ġadorable": 3583,
      "Ġwizard": 3584,
      "Ġscooter": 3585,
      "Ġfaucet": 3586,
      "Ġexclaimed": 3587,
      "Ġdifficult": 3588,
      "Little": 3589,
      "Me": 3590,
      "aid": 3591,
      "aked": 3592,
      "aila": 3593,
      "bur": 3594,
      "cast": 3595,
      "ging": 3596,
      "gest": 3597,
      "iv": 3598,
      "ien": 3599,
      "iant": 3600,
      "ipping": 3601,
      "mend": 3602,
      "ns": 3603,
      "night": 3604,
      "oons": 3605,
      "pes": 3606,
      "Ġten": 3607,
      "Ġtummy": 3608,
      "Ġadd": 3609,
      "Ġaunt": 3610,
      "Ġwis": 3611,
      "Ġwine": 3612,
      "Ġtoug": 3613,
      "inary": 3614,
      "Ġhoop": 3615,
      "Ġwaving": 3616,
      "Ġdive": 3617,
      "Ġpine": 3618,
      "Ġmel": 3619,
      "Ġmath": 3620,
      "omfort": 3621,
      "ommend": 3622,
      "Ġoak": 3623,
      "ari": 3624,
      "isa": 3625,
      "Ġgir": 3626,
      "Ġgum": 3627,
      "atie": 3628,
      "Ġsauce": 3629,
      "Ġthie": 3630,
      "ete": 3631,
      "ĠHere": 3632,
      "igate": 3633,
      "Ġstro": 3634,
      "Ġribb": 3635,
      "Ġsoil": 3636,
      "Ġfort": 3637,
      "heryl": 3638,
      "Ġbiggest": 3639,
      "ĠMaria": 3640,
      "illage": 3641,
      "illiant": 3642,
      "Ġspade": 3643,
      "Ġspell": 3644,
      "Ġspilled": 3645,
      "Ġbody": 3646,
      "iches": 3647,
      "Ġclap": 3648,
      "Ġnames": 3649,
      "getable": 3650,
      "Ġlaund": 3651,
      "Ġdoggy": 3652,
      "estigate": 3653,
      "Ġbrilliant": 3654,
      "Ġswung": 3655,
      "Ġvillage": 3656,
      "Ġfinding": 3657,
      "Ġfeelings": 3658,
      "Ġgrand": 3659,
      "Ġlaught": 3660,
      "Ġpeek": 3661,
      "aura": 3662,
      "Ġsne": 3663,
      "ĠCheryl": 3664,
      "ÅĵWhat": 3665,
      "Ġending": 3666,
      "Ġglow": 3667,
      "Ġbadly": 3668,
      "Ġnowhere": 3669,
      "Ġtowel": 3670,
      "Ġdead": 3671,
      "ĠPat": 3672,
      "Ġblueberry": 3673,
      "Ġjog": 3674,
      "ĠJoey": 3675,
      "Ġreading": 3676,
      "Ġsandcast": 3677,
      "body": 3678,
      "Ġsailing": 3679,
      "Ġcounting": 3680,
      "ulu": 3681,
      "Ġprevent": 3682,
      "Ġgrowing": 3683,
      "Ġswamp": 3684,
      "Ġtreasures": 3685,
      "Ġstarfish": 3686,
      "Ġcrayon": 3687,
      "Ġvegetable": 3688,
      "Ġpracticing": 3689,
      "Ġcreatures": 3690,
      "Ġadmire": 3691,
      "Ġinvited": 3692,
      "Ġinvestigate": 3693,
      "ĠChar": 3694,
      "Ġrecommend": 3695,
      "Ġcourage": 3696,
      "Ġcooking": 3697,
      "Ġvalu": 3698,
      "Ġcrawl": 3699,
      "Ġyoga": 3700,
      "Ġavaila": 3701,
      "Ġmelted": 3702,
      "Ġdelighted": 3703,
      "Ġbrick": 3704,
      "Ġshooting": 3705,
      "Ġuniverse": 3706,
      "Ġflex": 3707,
      "Ġqueen": 3708,
      "Ġfishing": 3709,
      "Ġuncomfort": 3710,
      "Ġmagazine": 3711,
      "Ġfavourite": 3712,
      "Ġtough": 3713,
      "Ġlaundry": 3714,
      "Ġavailable": 3715,
      "Ġuncomfortable": 3716,
      "Fr": 3717,
      "dge": 3718,
      "eath": 3719,
      "ipper": 3720,
      "pid": 3721,
      "rophone": 3722,
      "son": 3723,
      "ĠQ": 3724,
      "Ġapr": 3725,
      "Ġsend": 3726,
      "Ġtoil": 3727,
      "Ġbill": 3728,
      "Ġbicy": 3729,
      "ince": 3730,
      "iness": 3731,
      "Ġwake": 3732,
      "rec": 3733,
      "ready": 3734,
      "Ġcree": 3735,
      "Ġlid": 3736,
      "Ġdug": 3737,
      "Ġpor": 3738,
      "Ġpalm": 3739,
      "Ġmask": 3740,
      "Ġmama": 3741,
      "atient": 3742,
      "ceed": 3743,
      "Ġreward": 3744,
      "Ġseas": 3745,
      "ĠAre": 3746,
      "Ġknob": 3747,
      "Ġclay": 3748,
      "Ġcap": 3749,
      "ĠWhere": 3750,
      "ĠWhile": 3751,
      "Ġseeing": 3752,
      "Ġmeal": 3753,
      "Ġworse": 3754,
      "Ġlabel": 3755,
      "Ġflash": 3756,
      "Ġprop": 3757,
      "Ġputting": 3758,
      "Ġbridge": 3759,
      "Ġsword": 3760,
      "Ġsadly": 3761,
      "ĠDave": 3762,
      "ĠDavid": 3763,
      "Ġlearning": 3764,
      "Ġsort": 3765,
      "Ġrail": 3766,
      "Ġraft": 3767,
      "anges": 3768,
      "emo": 3769,
      "Ġsurrender": 3770,
      "Ġbeauty": 3771,
      "Ġkinds": 3772,
      "ĠCl": 3773,
      "Ġchecked": 3774,
      "ÅĵYou": 3775,
      "ĠGive": 3776,
      "Ġglue": 3777,
      "Ġjumps": 3778,
      "Ġimpatient": 3779,
      "ips": 3780,
      "ĠRed": 3781,
      "ĠRabbit": 3782,
      "Ġfrown": 3783,
      "Thanks": 3784,
      "Ġacorn": 3785,
      "Ġwarmth": 3786,
      "Ġmagician": 3787,
      "Ġbushes": 3788,
      "Ġarrow": 3789,
      "Ġjokes": 3790,
      "Ġbrighter": 3791,
      "Ġcrane": 3792,
      "Ġperm": 3793,
      "Ġdoesn": 3794,
      "Ġclosely": 3795,
      "Ġrainbow": 3796,
      "Ġuseful": 3797,
      "Ġdelicate": 3798,
      "Ġcreated": 3799,
      "Ġsparkles": 3800,
      "Ġsparkled": 3801,
      "Ġbrothers": 3802,
      "Ġmatches": 3803,
      "Ġbreaks": 3804,
      "Ġprep": 3805,
      "Ġcandle": 3806,
      "Ġthrows": 3807,
      "Ġstud": 3808,
      "Ġstupid": 3809,
      "Ġcolours": 3810,
      "Ġattention": 3811,
      "Ġspoons": 3812,
      "Ġburned": 3813,
      "Ġchairs": 3814,
      "Ġincre": 3815,
      "Ġplaced": 3816,
      "Ġproblems": 3817,
      "Ġserve": 3818,
      "Ġserved": 3819,
      "Ġsucceed": 3820,
      "Ġshrimp": 3821,
      "Ġcarrying": 3822,
      "Daddy": 3823,
      "Ġavo": 3824,
      "Ġmemory": 3825,
      "Ġmicrophone": 3826,
      "Ġtwirled": 3827,
      "Ġignorant": 3828,
      "Ġgasped": 3829,
      "cycle": 3830,
      "nnie": 3831,
      "Ġsandwiches": 3832,
      "Ġfuel": 3833,
      "Ġdependable": 3834,
      "Ġweapon": 3835,
      "Ġthunder": 3836,
      "Ġjacket": 3837,
      "Ġcharming": 3838,
      "Ġdisagreed": 3839,
      "Ġthief": 3840,
      "Ġlaughter": 3841,
      "Ġvegetables": 3842,
      "Ġapron": 3843,
      "Ġtoilet": 3844,
      "Ġcreek": 3845,
      "Ġporch": 3846,
      "..": 3847,
      "Al": 3848,
      "Em": 3849,
      "Jess": 3850,
      "With": 3851,
      "While": 3852,
      "ait": 3853,
      "bw": 3854,
      "dom": 3855,
      "fast": 3856,
      "gu": 3857,
      "hood": 3858,
      "hus": 3859,
      "noon": 3860,
      "right": 3861,
      "sist": 3862,
      "vision": 3863,
      "zed": 3864,
      "zard": 3865,
      "zzy": 3866,
      "ĠNo": 3867,
      "Ġsince": 3868,
      "Ġwire": 3869,
      "Ġble": 3870,
      "ino": 3871,
      "inking": 3872,
      "inarian": 3873,
      "Ġhate": 3874,
      "ither": 3875,
      "Ġcomet": 3876,
      "Ġdust": 3877,
      "Ġdigg": 3878,
      "Ġmild": 3879,
      "Ġost": 3880,
      "arm": 3881,
      "aron": 3882,
      "Ġnur": 3883,
      "Ġnature": 3884,
      "ans": 3885,
      "ĠSee": 3886,
      "ĠSandy": 3887,
      "Ġthose": 3888,
      "Ġinse": 3889,
      "Ġstared": 3890,
      "rich": 3891,
      "ĠLaura": 3892,
      "ĠLulu": 3893,
      "stic": 3894,
      "stair": 3895,
      "Ġlizard": 3896,
      "Ġhappiness": 3897,
      "htray": 3898,
      "Ġrep": 3899,
      "rag": 3900,
      "ĠMandy": 3901,
      "ĠIts": 3902,
      "Ġashtray": 3903,
      "Ġlocked": 3904,
      "Ġspear": 3905,
      "Ġalarm": 3906,
      "Ġcage": 3907,
      "Your": 3908,
      "Ġcost": 3909,
      "Ġcobw": 3910,
      "iform": 3911,
      "Ġmush": 3912,
      "bbing": 3913,
      "Ġpoked": 3914,
      "ĠFo": 3915,
      "Ġveter": 3916,
      "Ġgrace": 3917,
      "ĠdidnÃ¢": 3918,
      "Ġrare": 3919,
      "Ġanyway": 3920,
      "iastic": 3921,
      "ĠcouldnÃ¢": 3922,
      "Ġstruc": 3923,
      "Ġprett": 3924,
      "izes": 3925,
      "ected": 3926,
      "Ġcheek": 3927,
      "ÅĵThat": 3928,
      "Ġletting": 3929,
      "Ġremove": 3930,
      "Ġunpack": 3931,
      "Ġuniform": 3932,
      "Ġfridge": 3933,
      "Ġafternoon": 3934,
      "Ġbreat": 3935,
      "Ġcleaning": 3936,
      "Ġapprec": 3937,
      "Ġwriting": 3938,
      "Ġart": 3939,
      "Ġprinter": 3940,
      "Ġsmells": 3941,
      "Ġrules": 3942,
      "Ġhats": 3943,
      "Ġperform": 3944,
      "Ġcontinue": 3945,
      "Ġbreakfast": 3946,
      "Ġairport": 3947,
      "Ġfalling": 3948,
      "Ġcoats": 3949,
      "Ġstudy": 3950,
      "Ġborrow": 3951,
      "Ġdancing": 3952,
      "Ġpracticed": 3953,
      "Ġsuper": 3954,
      "Ġmistakes": 3955,
      "Ġspoiled": 3956,
      "Ġbeef": 3957,
      "Ġguard": 3958,
      "Ġenthus": 3959,
      "Ġsprayed": 3960,
      "Ġmissing": 3961,
      "Ġcows": 3962,
      "Ġprice": 3963,
      "Ġobject": 3964,
      "Ġmountains": 3965,
      "Ġdiary": 3966,
      "Ġdesk": 3967,
      "Ġcrawled": 3968,
      "Ġsnap": 3969,
      "ĠGod": 3970,
      "Ġblowing": 3971,
      "ĠElla": 3972,
      "Ġaccepted": 3973,
      "Ġdecorate": 3974,
      "Ġcheerful": 3975,
      "Ġrescue": 3976,
      "ween": 3977,
      "ĠTrue": 3978,
      "Ġchasing": 3979,
      "Ġordinary": 3980,
      "Ġorganized": 3981,
      "Ġtelevision": 3982,
      "Ġsqueeze": 3983,
      "Ġcherry": 3984,
      "Ġreverse": 3985,
      "ĠJeffrey": 3986,
      "Ġsnuggled": 3987,
      "Ġexperience": 3988,
      "Ġbetween": 3989,
      "Ġflexible": 3990,
      "Ġbicycle": 3991,
      "Ġrails": 3992,
      "Ġostrich": 3993,
      "stairs": 3994,
      "Ġcobweb": 3995,
      "Ġmushroom": 3996,
      "Ġveterinarian": 3997,
      "Ġstructure": 3998,
      "Ġenthusiastic": 3999,
      "Bun": 4000,
      "Bella": 4001,
      "Dan": 4002,
      "Henry": 4003,
      "Jenny": 4004,
      "Ouch": 4005,
      "Ro": 4006,
      "Tilly": 4007,
      "abel": 4008,
      "cut": 4009,
      "die": 4010,
      "kin": 4011,
      "men": 4012,
      "oe": 4013,
      "sing": 4014,
      "scope": 4015,
      "time": 4016,
      "vator": 4017,
      "ws": 4018,
      "walk": 4019,
      "ĠU": 4020,
      "Ġtuck": 4021,
      "Ġtimes": 4022,
      "Ġaw": 4023,
      "Ġsi": 4024,
      "Ġsizes": 4025,
      "Ġtoe": 4026,
      "Ġhous": 4027,
      "Ġhunt": 4028,
      "rell": 4029,
      "Ġcur": 4030,
      "Ġcone": 4031,
      "Ġcere": 4032,
      "Ġcord": 4033,
      "Ġlines": 4034,
      "Ġdear": 4035,
      "Ġwashed": 4036,
      "Ġpin": 4037,
      "Ġpizz": 4038,
      "Ġmen": 4039,
      "ilbur": 4040,
      "ena": 4041,
      "Ġnation": 4042,
      "anut": 4043,
      "anic": 4044,
      "ĠSt": 4045,
      "Ġitem": 4046,
      "iring": 4047,
      "Ġumb": 4048,
      "Ġyach": 4049,
      "amber": 4050,
      "Ġshed": 4051,
      "Ġplayer": 4052,
      "Ġlie": 4053,
      "chanic": 4054,
      "aled": 4055,
      "Ġboots": 4056,
      "Ġalien": 4057,
      "Ġalready": 4058,
      "Ġcakes": 4059,
      "Ġnosy": 4060,
      "Ġscore": 4061,
      "Ġscold": 4062,
      "ĠWho": 4063,
      "ĠWilbur": 4064,
      "roscope": 4065,
      "Ġmechanic": 4066,
      "Ġstarts": 4067,
      "Ġchase": 4068,
      "Ġchoice": 4069,
      "Ġchance": 4070,
      "Ġchalk": 4071,
      "Ġpoke": 4072,
      "Ġblood": 4073,
      "ĠFred": 4074,
      "Ġfinds": 4075,
      "Ġballoons": 4076,
      "Ġabove": 4077,
      "Ġgrapes": 4078,
      "Ġpebbles": 4079,
      "Ġpeanut": 4080,
      "Ġraise": 4081,
      "angers": 4082,
      "Ġexplain": 4083,
      "Ġoranges": 4084,
      "Ġrooms": 4085,
      "Ġnicely": 4086,
      "Ġsurround": 4087,
      "Ġbeast": 4088,
      "ÅĵLet": 4089,
      "Ġgrin": 4090,
      "Ġunlock": 4091,
      "Benny": 4092,
      "ĠPete": 4093,
      "Ġconf": 4094,
      "Ġreplace": 4095,
      "Ġenjoying": 4096,
      "Ġdiscu": 4097,
      "Ġtravel": 4098,
      "ĠNext": 4099,
      "ĠNemo": 4100,
      "Ġthanks": 4101,
      "Ġdrawer": 4102,
      "Ġpaused": 4103,
      "Ġsoftly": 4104,
      "Ġhaircut": 4105,
      "Ġtriang": 4106,
      "Ġtricks": 4107,
      "Sammy": 4108,
      "Ġmoments": 4109,
      "Ġsparkle": 4110,
      "Ġdreaming": 4111,
      "Ġperfectly": 4112,
      "Ġsidewalk": 4113,
      "Ġmixing": 4114,
      "Ġmarry": 4115,
      "Ġmarched": 4116,
      "Ġgifted": 4117,
      "Ġelevator": 4118,
      "Ġbelt": 4119,
      "Ġtroubled": 4120,
      "Ġmonkeys": 4121,
      "Ġknights": 4122,
      "Ġpengu": 4123,
      "Ġburn": 4124,
      "Ġgiggle": 4125,
      "Ġcollected": 4126,
      "Ġcups": 4127,
      "Everyone": 4128,
      "Ġentire": 4129,
      "Ġzooming": 4130,
      "Ġmission": 4131,
      "Ġpoliceman": 4132,
      "Ġspeak": 4133,
      "Ġworms": 4134,
      "Ġslides": 4135,
      "Ġbounced": 4136,
      "Ġwaffles": 4137,
      "Ġpassport": 4138,
      "Ġweeks": 4139,
      "irpy": 4140,
      "Ġvanished": 4141,
      "Ġpadd": 4142,
      "ophie": 4143,
      "Ġmemories": 4144,
      "Together": 4145,
      "Ġmicroscope": 4146,
      "Ġregret": 4147,
      "Ġregular": 4148,
      "Ġtornado": 4149,
      "Ġfootball": 4150,
      "Grandma": 4151,
      "Ġringing": 4152,
      "Ġpilot": 4153,
      "Ġfilm": 4154,
      "Ġsniffed": 4155,
      "Ġdinosaurs": 4156,
      "Ġtwinkling": 4157,
      "Ġmelon": 4158,
      "Ġribbon": 4159,
      "Ġsandcastle": 4160,
      "ĠCharlie": 4161,
      "Ġvaluable": 4162,
      "ĠClara": 4163,
      "Ġstudied": 4164,
      "Ġavoc": 4165,
      "Ġdigging": 4166,
      "Ġnurse": 4167,
      "Ġinsect": 4168,
      "Ġhouses": 4169,
      "Ġcereal": 4170,
      "Ġpizza": 4171,
      "Ġmenu": 4172,
      "Ġumbrell": 4173,
      "Ġyacht": 4174,
      "Ġdiscuss": 4175,
      "Ġpenguin": 4176,
      "All": 4177,
      "Ch": 4178,
      "Ex": 4179,
      "Eventually": 4180,
      "Wait": 4181,
      "act": 4182,
      "affe": 4183,
      "bes": 4184,
      "cited": 4185,
      "ccer": 4186,
      "dro": 4187,
      "egan": 4188,
      "gen": 4189,
      "loo": 4190,
      "lier": 4191,
      "par": 4192,
      "shed": 4193,
      "tter": 4194,
      "ube": 4195,
      "ulie": 4196,
      "uzz": 4197,
      "Ġx": 4198,
      "Ġtag": 4199,
      "Ġtied": 4200,
      "Ġtube": 4201,
      "Ġsil": 4202,
      "Ġske": 4203,
      "Ġsigh": 4204,
      "Ġsuff": 4205,
      "Ġwipe": 4206,
      "Ġtong": 4207,
      "Ġbin": 4208,
      "Ġbase": 4209,
      "Ġhut": 4210,
      "Ġwag": 4211,
      "Ġfet": 4212,
      "Ġfut": 4213,
      "Ġfool": 4214,
      "Ġped": 4215,
      "Ġmap": 4216,
      "Ġotter": 4217,
      "arry": 4218,
      "Ġgro": 4219,
      "Ġgust": 4220,
      "ilbert": 4221,
      "Ġsaving": 4222,
      "Ġhall": 4223,
      "ĠSh": 4224,
      "ĠSte": 4225,
      "ĠHave": 4226,
      "Ġinsist": 4227,
      "igail": 4228,
      "Ġbees": 4229,
      "Ġrag": 4230,
      "Ġsoccer": 4231,
      "addie": 4232,
      "Ġlick": 4233,
      "Ġhappens": 4234,
      "ĠMum": 4235,
      "ĠMiss": 4236,
      "ĠMegan": 4237,
      "Ġisn": 4238,
      "ugged": 4239,
      "idey": 4240,
      "Ġsepar": 4241,
      "ĠAg": 4242,
      "icer": 4243,
      "Ġbackpack": 4244,
      "Ġcapt": 4245,
      "Ġnobody": 4246,
      "Ġmeat": 4247,
      "Ġmeas": 4248,
      "Ġranch": 4249,
      "Ġnewsp": 4250,
      "Ġflav": 4251,
      "Ġpost": 4252,
      "Ġpoppy": 4253,
      "Ġballs": 4254,
      "mare": 4255,
      "Ġpeered": 4256,
      "Ġskip": 4257,
      "Ġbother": 4258,
      "Ġgrey": 4259,
      "Ġbull": 4260,
      "Ġslip": 4261,
      "Ġbears": 4262,
      "Ġbravely": 4263,
      "Ġshouldn": 4264,
      "Ġrocked": 4265,
      "Ġjumping": 4266,
      "Ġcloset": 4267,
      "Ġwondering": 4268,
      "Ġtrave": 4269,
      "Ġpaid": 4270,
      "Ġpair": 4271,
      "ĠInstead": 4272,
      "Ġlightning": 4273,
      "Ġsteam": 4274,
      "Ġzipped": 4275,
      "Ġsandbox": 4276,
      "Ġsetting": 4277,
      "Ġtripped": 4278,
      "Ġrestless": 4279,
      "Ġshovel": 4280,
      "Ġclaws": 4281,
      "ĠKatie": 4282,
      "ĠOver": 4283,
      "Ġpatter": 4284,
      "Ġcandles": 4285,
      "Ġwarn": 4286,
      "Ġwardro": 4287,
      "Ġearlier": 4288,
      "Ġwinter": 4289,
      "Ġneighbour": 4290,
      "Ġactually": 4291,
      "Ġrespons": 4292,
      "Ġguess": 4293,
      "Ġcollecting": 4294,
      "Ġbelongs": 4295,
      "Ġentered": 4296,
      "ĠChr": 4297,
      "ĠChirpy": 4298,
      "Ġspraying": 4299,
      "Ġlively": 4300,
      "Ġzoomed": 4301,
      "Ġtrusted": 4302,
      "Ġbarks": 4303,
      "leton": 4304,
      "ĠHowever": 4305,
      "Ġsolved": 4306,
      "Ġgolden": 4307,
      "Ġlemonade": 4308,
      "Ġstraight": 4309,
      "Ġwheat": 4310,
      "Ġdolphins": 4311,
      "Ġsupport": 4312,
      "Ġstuffed": 4313,
      "Ġkingdom": 4314,
      "Ġmotorcycle": 4315,
      "Ġmarbles": 4316,
      "Ġcurtains": 4317,
      "Ġcuddled": 4318,
      "Ġsneeze": 4319,
      "Ġsuccessful": 4320,
      "Ġfearful": 4321,
      "Ġwheels": 4322,
      "Ġchirping": 4323,
      "âĤ¬âĢľ": 4324,
      "Ġdestroyed": 4325,
      "Ġtemple": 4326,
      "Ġpuzzle": 4327,
      "Ġgiraffe": 4328,
      "Ġbillboard": 4329,
      "Ġflashlight": 4330,
      "Ġproperly": 4331,
      "Ġfrowned": 4332,
      "Ġwires": 4333,
      "Ġskeleton": 4334,
      "Ġfuture": 4335,
      "Ġseparate": 4336,
      "Ġnewspaper": 4337,
      "Ġwardrobe": 4338,
      "\",": 4339,
      "By": 4340,
      "Did": 4341,
      "Fl": 4342,
      "Mr": 4343,
      "Mandy": 4344,
      "Rose": 4345,
      "cou": 4346,
      "come": 4347,
      "case": 4348,
      "eam": 4349,
      "emy": 4350,
      "lue": 4351,
      "nit": 4352,
      "uack": 4353,
      "Ġber": 4354,
      "Ġbree": 4355,
      "reat": 4356,
      "reck": 4357,
      "Ġcared": 4358,
      "erce": 4359,
      "Ġheat": 4360,
      "Ġpow": 4361,
      "Ġpra": 4362,
      "Ġport": 4363,
      "Ġmay": 4364,
      "Ġmister": 4365,
      "Ġmention": 4366,
      "Ġoil": 4367,
      "arrel": 4368,
      "Ġgain": 4369,
      "Ġgym": 4370,
      "ido": 4371,
      "atter": 4372,
      "anna": 4373,
      "ĠSophie": 4374,
      "orge": 4375,
      "ott": 4376,
      "Ġhers": 4377,
      "utter": 4378,
      "ution": 4379,
      "Ġeff": 4380,
      "igator": 4381,
      "Ġstage": 4382,
      "Ġstitch": 4383,
      "Ġrice": 4384,
      "Ġrise": 4385,
      "Ġrust": 4386,
      "Ġrough": 4387,
      "Ġonion": 4388,
      "Ġonwards": 4389,
      "Ġsoap": 4390,
      "Ġsoaked": 4391,
      "ĠLee": 4392,
      "ĠLisa": 4393,
      "Ġweal": 4394,
      "une": 4395,
      "Ġhappier": 4396,
      "Ġship": 4397,
      "Ġshamp": 4398,
      "allen": 4399,
      "alley": 4400,
      "Ġnote": 4401,
      "htub": 4402,
      "elia": 4403,
      "ĠMark": 4404,
      "ĠMaddie": 4405,
      "ugs": 4406,
      "urous": 4407,
      "ĠAl": 4408,
      "ĠAnnie": 4409,
      "ĠJess": 4410,
      "ĠJames": 4411,
      "Ġknown": 4412,
      "Ġhelper": 4413,
      "Ġalligator": 4414,
      "opsy": 4415,
      "Ġalive": 4416,
      "Ġalright": 4417,
      "Ġscatter": 4418,
      "Ġnews": 4419,
      "ĠEventually": 4420,
      "Ġchamber": 4421,
      "Ġbrush": 4422,
      "uddy": 4423,
      "Ġvalley": 4424,
      "Ġmyself": 4425,
      "Ġpeaches": 4426,
      "Ġorder": 4427,
      "Ġfierce": 4428,
      "Ġstrugg": 4429,
      "Ġeats": 4430,
      "Ġeaten": 4431,
      "Ġquarrel": 4432,
      "Ġfoc": 4433,
      "Ġhardly": 4434,
      "ÅĵNo": 4435,
      "ĠGood": 4436,
      "Ġshoulder": 4437,
      "Ġrocking": 4438,
      "ĠSpark": 4439,
      "ĠSpidey": 4440,
      "Ġfirework": 4441,
      "Ġkeeping": 4442,
      "ĠRob": 4443,
      "Ġthrilled": 4444,
      "Ġadventurous": 4445,
      "Ġideas": 4446,
      "Ġmagn": 4447,
      "Ġwaiter": 4448,
      "Ġappro": 4449,
      "Ġtrains": 4450,
      "Ġwherever": 4451,
      "Ġnightmare": 4452,
      "Ġarg": 4453,
      "Ġcrow": 4454,
      "Ġdeliver": 4455,
      "Ġperched": 4456,
      "Ġprint": 4457,
      "Ġpale": 4458,
      "Ġsteel": 4459,
      "Ġzipper": 4460,
      "Ġfloating": 4461,
      "Ġmovement": 4462,
      "Ġcrazy": 4463,
      "Ġpushing": 4464,
      "Ġpushes": 4465,
      "Ġfurnit": 4466,
      "Ġvisited": 4467,
      "ĠEmmy": 4468,
      "ĠFloppy": 4469,
      "Ġpainted": 4470,
      "Ġhorn": 4471,
      "Ġforgotten": 4472,
      "ations": 4473,
      "Ġshoe": 4474,
      "ĠKate": 4475,
      "Ġsleeping": 4476,
      "Ġsisters": 4477,
      "Ġmixer": 4478,
      "Ġemer": 4479,
      "Ġwarning": 4480,
      "Ġsecond": 4481,
      "Ġthrowing": 4482,
      "Ġbathtub": 4483,
      "laire": 4484,
      "Ġshape": 4485,
      "Ġquietly": 4486,
      "ĠwouldnÃ¢": 4487,
      "Ġkeys": 4488,
      "Ġnapkin": 4489,
      "Ġreturn": 4490,
      "Ġserious": 4491,
      "Ġbeneath": 4492,
      "Ġfingers": 4493,
      "Ġpopular": 4494,
      "Ġchewing": 4495,
      "Ġminer": 4496,
      "Ġshrink": 4497,
      "Ġdiving": 4498,
      "Ġeagerly": 4499,
      "ĠBefore": 4500,
      "Ġexamine": 4501,
      "Ġcelebrated": 4502,
      "Ġpresents": 4503,
      "Inside": 4504,
      "Ġhurric": 4505,
      "Ġcrossed": 4506,
      "Ġdestination": 4507,
      "Ġtasks": 4508,
      "Ġpotatoes": 4509,
      "Ġsafari": 4510,
      "ĠAmi": 4511,
      "ĠFrankie": 4512,
      "Ġstirred": 4513,
      "Ġriding": 4514,
      "lowers": 4515,
      "Ġloaded": 4516,
      "Ġsettled": 4517,
      "Ġparrot": 4518,
      "Ġwishes": 4519,
      "Ġsneak": 4520,
      "Ġsucceeded": 4521,
      "Ġcostum": 4522,
      "Ġgraceful": 4523,
      "Ġappreciate": 4524,
      "Ġscolded": 4525,
      "ÅĵLetÃ¢": 4526,
      "Ġtriangle": 4527,
      "Ġfoolish": 4528,
      "Ġbreeze": 4529,
      "Ġwealthy": 4530,
      "Ġshampoo": 4531,
      "Ġfurniture": 4532,
      "Ġhurricane": 4533,
      "Am": 4534,
      "Give": 4535,
      "James": 4536,
      "Mor": 4537,
      "Maria": 4538,
      "Nina": 4539,
      "Ow": 4540,
      "ah": 4541,
      "cious": 4542,
      "cuit": 4543,
      "do": 4544,
      "eep": 4545,
      "eorge": 4546,
      "fied": 4547,
      "ges": 4548,
      "ibs": 4549,
      "ka": 4550,
      "mas": 4551,
      "mato": 4552,
      "nel": 4553,
      "sit": 4554,
      "wk": 4555,
      "zka": 4556,
      "Ġtim": 4557,
      "Ġaut": 4558,
      "Ġsim": 4559,
      "Ġsudden": 4560,
      "Ġsip": 4561,
      "Ġsomed": 4562,
      "Ġtomato": 4563,
      "Ġbis": 4564,
      "Ġbun": 4565,
      "Ġbang": 4566,
      "Ġfrag": 4567,
      "ites": 4568,
      "ital": 4569,
      "Ġdried": 4570,
      "Ġdare": 4571,
      "Ġhesit": 4572,
      "Ġpap": 4573,
      "Ġpies": 4574,
      "Ġpand": 4575,
      "Ġpony": 4576,
      "Ġmill": 4577,
      "Ġmop": 4578,
      "Ġoas": 4579,
      "ays": 4580,
      "ayla": 4581,
      "isfied": 4582,
      "Ġgear": 4583,
      "Ġgained": 4584,
      "ids": 4585,
      "atue": 4586,
      "ense": 4587,
      "Ġnone": 4588,
      "Ġnail": 4589,
      "Ġhawk": 4590,
      "ora": 4591,
      "Ġthread": 4592,
      "ĠHelp": 4593,
      "Ġinst": 4594,
      "Ġyucky": 4595,
      "Ġyaw": 4596,
      "Ġstatue": 4597,
      "Ġbeg": 4598,
      "Ġbeat": 4599,
      "Ġripped": 4600,
      "stal": 4601,
      "ĠBy": 4602,
      "Ġlicks": 4603,
      "Ġshine": 4604,
      "Ġshakes": 4605,
      "ĠItÃ¢": 4606,
      "Ġweren": 4607,
      "ecause": 4608,
      "Ġgoal": 4609,
      "Ġspit": 4610,
      "Ġsport": 4611,
      "Ġspike": 4612,
      "Ġboot": 4613,
      "Ġgirls": 4614,
      "Ġexact": 4615,
      "ĠJan": 4616,
      "ĠJulie": 4617,
      "ices": 4618,
      "Ġknelt": 4619,
      "ops": 4620,
      "Ġcact": 4621,
      "umn": 4622,
      "Ġlean": 4623,
      "ĠWoof": 4624,
      "Ġroses": 4625,
      "rod": 4626,
      "Ġmeowed": 4627,
      "Ġsomewhere": 4628,
      "Ġfact": 4629,
      "Ġcaring": 4630,
      "Ġchallen": 4631,
      "Ġposs": 4632,
      "ĠFor": 4633,
      "Ġvroom": 4634,
      "istmas": 4635,
      "Ġintrod": 4636,
      "Ġhosp": 4637,
      "Ġwatered": 4638,
      "Ġskipping": 4639,
      "Ġstrangers": 4640,
      "uct": 4641,
      "Ġencou": 4642,
      "Ġquack": 4643,
      "Ġwatches": 4644,
      "Ġboxes": 4645,
      "emember": 4646,
      "ĠdonÃ¢": 4647,
      "ĠGaby": 4648,
      "Ġglowed": 4649,
      "Ġlets": 4650,
      "aced": 4651,
      "Ġstickers": 4652,
      "Ġamazement": 4653,
      "Ġhoping": 4654,
      "Ġworks": 4655,
      "ĠNibs": 4656,
      "Ġyelling": 4657,
      "Ġpulling": 4658,
      "Ġheaded": 4659,
      "Ġlighter": 4660,
      "Ġseesaw": 4661,
      "Ġfixing": 4662,
      "Ġblocking": 4663,
      "Ġrub": 4664,
      "Ġdriving": 4665,
      "Ġdrives": 4666,
      "Ġcounter": 4667,
      "ĠFloof": 4668,
      "Ġhung": 4669,
      "Ġsatisfied": 4670,
      "Ġbottles": 4671,
      "Ġsparkling": 4672,
      "Ġdreamed": 4673,
      "Ġholds": 4674,
      "Ġshopping": 4675,
      "Ġclapping": 4676,
      "Ġparts": 4677,
      "Ġsits": 4678,
      "ĠKim": 4679,
      "Ġpigs": 4680,
      "ĠOl": 4681,
      "Ġprov": 4682,
      "Ġgifts": 4683,
      "phone": 4684,
      "Ġprecious": 4685,
      "Ġgrowled": 4686,
      "Ġmouths": 4687,
      "Ġblackboard": 4688,
      "Ġhealed": 4689,
      "Ġhits": 4690,
      "Ġdancers": 4691,
      "Ġcollar": 4692,
      "Ġkicking": 4693,
      "Ġattach": 4694,
      "Ġburning": 4695,
      "Ġjeep": 4696,
      "Ġadmiring": 4697,
      "Ġbandage": 4698,
      "ĠJenna": 4699,
      "ĠBobbie": 4700,
      "Ġbarking": 4701,
      "Ġchewed": 4702,
      "Ġrespectful": 4703,
      "Ġmystery": 4704,
      "Ġmachines": 4705,
      "Ġignore": 4706,
      "Ġstretched": 4707,
      "Ġlawn": 4708,
      "Ġsunflowers": 4709,
      "Ġpaddle": 4710,
      "Ġbarrels": 4711,
      "ylan": 4712,
      "Ġhanging": 4713,
      "Ġshivering": 4714,
      "Ġmodel": 4715,
      "Ġcuddly": 4716,
      "Ġchickens": 4717,
      "ĠRobert": 4718,
      "ĠZoomy": 4719,
      "ĠTrucky": 4720,
      "Ġchases": 4721,
      "Ġordered": 4722,
      "Ġtelephone": 4723,
      "Ġsprinkled": 4724,
      "nieszka": 4725,
      "Ġsalt": 4726,
      "ĠAbi": 4727,
      "Ġfolded": 4728,
      "Ġstroll": 4729,
      "Ġglowing": 4730,
      "Ġincrease": 4731,
      "Ġrepair": 4732,
      "Ġprettiest": 4733,
      "Danny": 4734,
      "Ġsiren": 4735,
      "Ġhunter": 4736,
      "Ġcurled": 4737,
      "Ġgrinned": 4738,
      "Ġfetch": 4739,
      "ĠSteve": 4740,
      "Ġinsisted": 4741,
      "Ġwarnings": 4742,
      "Ġresponsible": 4743,
      "ĠChristmas": 4744,
      "Ġberries": 4745,
      "Ġpraised": 4746,
      "Ġeffort": 4747,
      "Ġmineral": 4748,
      "Moral": 4749,
      "Ġautumn": 4750,
      "Ġsimple": 4751,
      "Ġsomeday": 4752,
      "Ġtomatoes": 4753,
      "Ġbiscuit": 4754,
      "Ġbunnies": 4755,
      "Ġfragile": 4756,
      "Ġpapers": 4757,
      "Ġoasis": 4758,
      "Ġexactly": 4759,
      "Ġcactus": 4760,
      "Ġhospital": 4761,
      "ĠFloofy": 4762,
      "'.": 4763,
      "Because": 4764,
      "Daisy": 4765,
      "Is": 4766,
      "Le": 4767,
      "Not": 4768,
      "Next": 4769,
      "Ok": 4770,
      "Or": 4771,
      "Peter": 4772,
      "Re": 4773,
      "Rex": 4774,
      "Remember": 4775,
      "Susie": 4776,
      "Would": 4777,
      "ba": 4778,
      "cense": 4779,
      "ipp": 4780,
      "lass": 4781,
      "riger": 4782,
      "ti": 4783,
      "ues": 4784,
      "use": 4785,
      "uzzy": 4786,
      "wo": 4787,
      "zes": 4788,
      "Ġ1": 4789,
      "Ġing": 4790,
      "Ġtide": 4791,
      "Ġtank": 4792,
      "Ġtear": 4793,
      "Ġsir": 4794,
      "Ġwigg": 4795,
      "Ġwife": 4796,
      "Ġtheater": 4797,
      "edy": 4798,
      "Ġwags": 4799,
      "reen": 4800,
      "Ġfed": 4801,
      "Ġluck": 4802,
      "ering": 4803,
      "Ġdire": 4804,
      "Ġpal": 4805,
      "Ġpump": 4806,
      "Ġpress": 4807,
      "ayak": 4808,
      "arl": 4809,
      "ising": 4810,
      "ison": 4811,
      "Ġgaz": 4812,
      "ats": 4813,
      "Ġthird": 4814,
      "ckey": 4815,
      "Ġeight": 4816,
      "Ġeither": 4817,
      "Ġstom": 4818,
      "Ġstool": 4819,
      "Ġbeak": 4820,
      "Ġrake": 4821,
      "Ġrum": 4822,
      "ĠIs": 4823,
      "ĠIÃ¢": 4824,
      "Ġsoar": 4825,
      "ĠyouÃ¢": 4826,
      "ĠLater": 4827,
      "Ġupstairs": 4828,
      "ĠBlue": 4829,
      "Ġlives": 4830,
      "Ġlions": 4831,
      "Ġlips": 4832,
      "Ġlicense": 4833,
      "These": 4834,
      "ents": 4835,
      "Ġhappiest": 4836,
      "Ġshut": 4837,
      "Ġshort": 4838,
      "Ġwanting": 4839,
      "Ġrele": 4840,
      "Ġrece": 4841,
      "Ġreve": 4842,
      "Ġkayak": 4843,
      "rystal": 4844,
      "ĠMabel": 4845,
      "ĠĊĠ": 4846,
      "ores": 4847,
      "Ġoutdo": 4848,
      "ĠAbby": 4849,
      "ĠJune": 4850,
      "Ġcans": 4851,
      "Ġclam": 4852,
      "Ġcliff": 4853,
      "Ġcause": 4854,
      "umber": 4855,
      "Ġleap": 4856,
      "Ġnovel": 4857,
      "Ġscen": 4858,
      "ason": 4859,
      "robes": 4860,
      "Ġmem": 4861,
      "Ġworth": 4862,
      "Ġagre": 4863,
      "Ġpride": 4864,
      "ĠErn": 4865,
      "Ġchat": 4866,
      "Ġchip": 4867,
      "Ġchores": 4868,
      "Ġgoodnight": 4869,
      "Ġgotten": 4870,
      "ĠFido": 4871,
      "Ġvest": 4872,
      "Ġvict": 4873,
      "mand": 4874,
      "Ġdads": 4875,
      "antly": 4876,
      "Ġholes": 4877,
      "Ġhockey": 4878,
      "Ġoper": 4879,
      "Ġtrade": 4880,
      "Ġraised": 4881,
      "aul": 4882,
      "Ġenv": 4883,
      "Ġener": 4884,
      "Ġgreedy": 4885,
      "Ġbury": 4886,
      "Ġcalls": 4887,
      "Ġkindly": 4888,
      "ĠClaire": 4889,
      "ÅĵYes": 4890,
      "ÅĵWe": 4891,
      "ÅĵThis": 4892,
      "Ġowned": 4893,
      "ĠGilbert": 4894,
      "Ġdrain": 4895,
      "Ġturning": 4896,
      "Ġfireman": 4897,
      "Ġimpress": 4898,
      "iper": 4899,
      "ĠRock": 4900,
      "ĠRos": 4901,
      "Ġbookcase": 4902,
      "ĠPe": 4903,
      "ĠPumpy": 4904,
      "Ġwaits": 4905,
      "Ġbreaking": 4906,
      "Ġsticky": 4907,
      "Ġsticker": 4908,
      "Ġshouts": 4909,
      "Ġfollows": 4910,
      "Ġhops": 4911,
      "Ġbroom": 4912,
      "Ġcrunch": 4913,
      "ĠJohnson": 4914,
      "Ġpulls": 4915,
      "ĠLetÃ¢": 4916,
      "Ġheads": 4917,
      "ancing": 4918,
      "itches": 4919,
      "Ġfrogs": 4920,
      "Ġcrash": 4921,
      "Ġcracked": 4922,
      "Ġrubbed": 4923,
      "Ġhated": 4924,
      "Ġarrive": 4925,
      "Ġdressed": 4926,
      "ĠFlopsy": 4927,
      "Ġdeeper": 4928,
      "ients": 4929,
      "Ġwindows": 4930,
      "Ġbuildings": 4931,
      "mediate": 4932,
      "Ġpetals": 4933,
      "Ġexpert": 4934,
      "Ġexpected": 4935,
      "eremy": 4936,
      "Ġproject": 4937,
      "Ġlands": 4938,
      "Ġblankets": 4939,
      "Ġpots": 4940,
      "Ġgrowl": 4941,
      "Ġbathrobes": 4942,
      "Ġsquirrels": 4943,
      "Ġcoloured": 4944,
      "Ġwinner": 4945,
      "redients": 4946,
      "Ġpanic": 4947,
      "Ġsub": 4948,
      "Ġplanted": 4949,
      "Ġwelcomed": 4950,
      "osity": 4951,
      "Ġimagination": 4952,
      "Ġkisses": 4953,
      "Ġsplashing": 4954,
      "Ġsplashes": 4955,
      "Ġminute": 4956,
      "Ġsolution": 4957,
      "Ġsliding": 4958,
      "Ġpatiently": 4959,
      "Ġprayed": 4960,
      "Ġpraying": 4961,
      "Ġeasily": 4962,
      "ĠSomething": 4963,
      "Ġdetermination": 4964,
      "Ġdigger": 4965,
      "Ġtunnel": 4966,
      "artha": 4967,
      "Ġsupply": 4968,
      "ĠEllen": 4969,
      "ĠEllie": 4970,
      "Ġbalancing": 4971,
      "Ġselling": 4972,
      "Ġbricks": 4973,
      "Ġpirates": 4974,
      "Ġrescued": 4975,
      "Ġsandwich": 4976,
      "Ġpiles": 4977,
      "Ġstrike": 4978,
      "Ġscratch": 4979,
      "izzie": 4980,
      "Ġcompletely": 4981,
      "Ġsalad": 4982,
      "Ġoats": 4983,
      "Ġmarching": 4984,
      "Ġrefriger": 4985,
      "ĠAbigail": 4986,
      "Ġskills": 4987,
      "Ġincluded": 4988,
      "Ġspells": 4989,
      "Freddy": 4990,
      "ĠQuack": 4991,
      "Ġpermit": 4992,
      "Emma": 4993,
      "Ġcheeks": 4994,
      "Ġbreathe": 4995,
      "Ġtucked": 4996,
      "Ġpinch": 4997,
      "Ġsurrounded": 4998,
      "Excited": 4999,
      "gency": 5000,
      "Ġtongue": 5001,
      "Ġrags": 5002,
      "Ġmeasuring": 5003,
      "Ġflavor": 5004,
      "eamus": 5005,
      "Ġpowder": 5006,
      "annah": 5007,
      "ĠRobin": 5008,
      "Ġapproached": 5009,
      "Ġmovements": 5010,
      "Ġemergency": 5011,
      "Ġpanda": 5012,
      "Ġsports": 5013,
      "Ġprovide": 5014,
      "Ġingredients": 5015,
      "Ġdirect": 5016,
      "Ġoutdoors": 5017,
      "ĠErnie": 5018,
      "ĠRosie": 5019,
      "mediately": 5020,
      "Ġrefrigerator": 5021,
      "'ve": 5022,
      "Ab": 5023,
      "Bad": 5024,
      "For": 5025,
      "Friend": 5026,
      "Mark": 5027,
      "Rachel": 5028,
      "Sur": 5029,
      "Time": 5030,
      "af": 5031,
      "bly": 5032,
      "bies": 5033,
      "bird": 5034,
      "bric": 5035,
      "cie": 5036,
      "cage": 5037,
      "cery": 5038,
      "ccol": 5039,
      "ding": 5040,
      "glass": 5041,
      "munk": 5042,
      "nce": 5043,
      "oey": 5044,
      "pet": 5045,
      "rr": 5046,
      "ser": 5047,
      "sity": 5048,
      "tti": 5049,
      "ury": 5050,
      "you": 5051,
      "yond": 5052,
      "zing": 5053,
      "Ġig": 5054,
      "hetti": 5055,
      "Ġtug": 5056,
      "Ġties": 5057,
      "Ġadded": 5058,
      "Ġsle": 5059,
      "Ġsize": 5060,
      "Ġwound": 5061,
      "Ġwest": 5062,
      "Ġtoes": 5063,
      "Ġtooth": 5064,
      "Ġbes": 5065,
      "Ġbump": 5066,
      "inked": 5067,
      "Ġhom": 5068,
      "Ġwaist": 5069,
      "Ġfir": 5070,
      "Ġlect": 5071,
      "Ġlined": 5072,
      "Ġdull": 5073,
      "Ġpun": 5074,
      "ĠTony": 5075,
      "ĠTwo": 5076,
      "iling": 5077,
      "ility": 5078,
      "atched": 5079,
      "ĠSad": 5080,
      "ĠSeamus": 5081,
      "ored": 5082,
      "imi": 5083,
      "Ġthreat": 5084,
      "ĠitÃ¢": 5085,
      "llie": 5086,
      "ĠHarry": 5087,
      "ety": 5088,
      "Ġherb": 5089,
      "utious": 5090,
      "Ġeld": 5091,
      "Ġelf": 5092,
      "Ġur": 5093,
      "Ġyield": 5094,
      "Ġstack": 5095,
      "Ġbeard": 5096,
      "Ġbelieved": 5097,
      "Ġbeyond": 5098,
      "Ġripe": 5099,
      "Ġshelves": 5100,
      "aded": 5101,
      "ĠLia": 5102,
      "ĠLena": 5103,
      "Ġplain": 5104,
      "stick": 5105,
      "Ġweigh": 5106,
      "Ġweather": 5107,
      "Ġfork": 5108,
      "unate": 5109,
      "ĠBuzz": 5110,
      "Ġlip": 5111,
      "Ġlied": 5112,
      "lyde": 5113,
      "chair": 5114,
      "Ġshoo": 5115,
      "allow": 5116,
      "elix": 5117,
      "Ġreaches": 5118,
      "ĠMick": 5119,
      "ĠMelly": 5120,
      "ideo": 5121,
      "Ġloop": 5122,
      "Ġseven": 5123,
      "urb": 5124,
      "Ġspag": 5125,
      "ĠAaron": 5126,
      "Ġarea": 5127,
      "ĠJeremy": 5128,
      "ĠcanÃ¢": 5129,
      "Ġleak": 5130,
      "Ġleather": 5131,
      "Ġscreen": 5132,
      "Ġrod": 5133,
      "Ġbirdcage": 5134,
      "Ġfactor": 5135,
      "Ġfabric": 5136,
      "Ġrang": 5137,
      "Ġcoco": 5138,
      "iew": 5139,
      "Ġcarpet": 5140,
      "Ġlab": 5141,
      "Ġlaid": 5142,
      "plane": 5143,
      "Ġflour": 5144,
      "Ġcharge": 5145,
      "ĠDylan": 5146,
      "ueen": 5147,
      "bber": 5148,
      "Ġpopped": 5149,
      "ĠFire": 5150,
      "ĠFelix": 5151,
      "Ġvideo": 5152,
      "Ġview": 5153,
      "Ġyourselves": 5154,
      "isten": 5155,
      "Ġgrape": 5156,
      "antha": 5157,
      "Ġtray": 5158,
      "Ġsorting": 5159,
      "Ġsunglass": 5160,
      "angled": 5161,
      "Ġshower": 5162,
      "ĠEveryday": 5163,
      "Ġoffer": 5164,
      "Ġofficer": 5165,
      "Ġgreet": 5166,
      "Ġbul": 5167,
      "Ġbubble": 5168,
      "Ġbuzz": 5169,
      "Ġbudge": 5170,
      "izon": 5171,
      "Ġfastest": 5172,
      "Ġneedle": 5173,
      "emma": 5174,
      "Ġimmediately": 5175,
      "ĠCrystal": 5176,
      "ĠGeorge": 5177,
      "Ġgrill": 5178,
      "Ġglitter": 5179,
      "sol": 5180,
      "ĠletÃ¢": 5181,
      "Ġremained": 5182,
      "Ġtea": 5183,
      "Ġfins": 5184,
      "ĠSpike": 5185,
      "Ġhurting": 5186,
      "ĠRemy": 5187,
      "Ġdeaf": 5188,
      "ĠPoppy": 5189,
      "Ġreplaced": 5190,
      "Ġappear": 5191,
      "Ġusual": 5192,
      "Ġdifference": 5193,
      "Ġclimbs": 5194,
      "Ġshouting": 5195,
      "Ġhopes": 5196,
      "Ġbroccol": 5197,
      "Ġours": 5198,
      "Ġforgi": 5199,
      "Ġforgave": 5200,
      "Ġcontain": 5201,
      "Ġcontest": 5202,
      "Ġrained": 5203,
      "Ġraining": 5204,
      "Ġboats": 5205,
      "Ġzip": 5206,
      "Ġfloated": 5207,
      "Ġcatching": 5208,
      "Ġspots": 5209,
      "Ġcountry": 5210,
      "Ġpoint": 5211,
      "Ġunderstanding": 5212,
      "Ġcompany": 5213,
      "ults": 5214,
      "Ġtallest": 5215,
      "Ġhorizon": 5216,
      "Ġairplane": 5217,
      "Ġarmchair": 5218,
      "Ġpetted": 5219,
      "ĠKory": 5220,
      "ĠKeep": 5221,
      "ĠOw": 5222,
      "ĠOkay": 5223,
      "Ġbasketball": 5224,
      "Ġcreamy": 5225,
      "Ġdisappear": 5226,
      "Ġdancer": 5227,
      "Ġelephants": 5228,
      "Andy": 5229,
      "Ġdrinks": 5230,
      "Ġneighbors": 5231,
      "Ġburrow": 5232,
      "Ġgiggling": 5233,
      "Ġcollection": 5234,
      "Ġnervously": 5235,
      "Ġwhistles": 5236,
      "Ġbringing": 5237,
      "iana": 5238,
      "Ġfigured": 5239,
      "Ġbatteries": 5240,
      "Goodbye": 5241,
      "Ġneighborhood": 5242,
      "Before": 5243,
      "Ġdistant": 5244,
      "Ġdisturb": 5245,
      "Ġshrugged": 5246,
      "Ġteaching": 5247,
      "Ġroaring": 5248,
      "Ġegg": 5249,
      "ĠLeave": 5250,
      "ĠBeing": 5251,
      "ÅĵIÃ¢": 5252,
      "Ġbabies": 5253,
      "Ġsnail": 5254,
      "ĠSomeone": 5255,
      "Ġsupplies": 5256,
      "Ġpadlock": 5257,
      "Ġstuffing": 5258,
      "ups": 5259,
      "Ġwhisper": 5260,
      "Ġcartoon": 5261,
      "Ġsigned": 5262,
      "Ġignored": 5263,
      "Ġwandered": 5264,
      "Ġsneezed": 5265,
      "Grandpa": 5266,
      "Ġchicken": 5267,
      "ĠZoe": 5268,
      "Ġrecording": 5269,
      "Ġsafety": 5270,
      "ĠAmelia": 5271,
      "Ġquestioned": 5272,
      "Ġchirped": 5273,
      "Ġclearing": 5274,
      "Ġfilthy": 5275,
      "âĤ¬âĢĿ": 5276,
      "Ġrefre": 5277,
      "ivia": 5278,
      "Ġmaths": 5279,
      "Ġgrandson": 5280,
      "Frank": 5281,
      "ĠQueen": 5282,
      "Ġseason": 5283,
      "Ġprepared": 5284,
      "Ġprepare": 5285,
      "...\"": 5286,
      "Ġbleed": 5287,
      "Ġbleach": 5288,
      "ĠFox": 5289,
      "ĠFollow": 5290,
      "ÅĵThatÃ¢": 5291,
      "Ġmushrooms": 5292,
      "ĠStar": 5293,
      "Ġitems": 5294,
      "Ġavocado": 5295,
      "Ġumbrella": 5296,
      "Ġbaseball": 5297,
      "Ġpedals": 5298,
      "Ġgrocery": 5299,
      "Ġcaptain": 5300,
      "Ġneighbourhood": 5301,
      "Bye": 5302,
      "Fluffy": 5303,
      "Ġmentioned": 5304,
      "Ġrustling": 5305,
      "Ġstruggling": 5306,
      "Ġargue": 5307,
      "Ġinstr": 5308,
      "Ġbegin": 5309,
      "Ġpalace": 5310,
      "Ġgazed": 5311,
      "Ġrumble": 5312,
      "Ġchipmunk": 5313,
      "Ġoperation": 5314,
      "Ġenergy": 5315,
      "Ġimpressive": 5316,
      "ĠPeople": 5317,
      "Ġcrunchy": 5318,
      "Ġsubway": 5319,
      "Ġigloo": 5320,
      "Ġbeside": 5321,
      "Ġhomes": 5322,
      "Ġfirm": 5323,
      "Ġlecture": 5324,
      "ĠMickey": 5325,
      "Ġspaghetti": 5326,
      "Ġfactory": 5327,
      "Ġsunglasses": 5328,
      "Ġbroccoli": 5329,
      "--": 5330,
      "Bo": 5331,
      "Baby": 5332,
      "Fion": 5333,
      "First": 5334,
      "Jen": 5335,
      "Jeff": 5336,
      "Kitty": 5337,
      "Lisa": 5338,
      "Lena": 5339,
      "Mino": 5340,
      "Sh": 5341,
      "Somet": 5342,
      "Tweet": 5343,
      "Watch": 5344,
      "Ye": 5345,
      "Yuck": 5346,
      "aze": 5347,
      "azz": 5348,
      "boy": 5349,
      "cott": 5350,
      "dward": 5351,
      "gons": 5352,
      "hil": 5353,
      "hino": 5354,
      "ikey": 5355,
      "ks": 5356,
      "lm": 5357,
      "lin": 5358,
      "ler": 5359,
      "lau": 5360,
      "mm": 5361,
      "no": 5362,
      "now": 5363,
      "oh": 5364,
      "oved": 5365,
      "osed": 5366,
      "ody": 5367,
      "pite": 5368,
      "the": 5369,
      "ux": 5370,
      "uke": 5371,
      "uly": 5372,
      "uage": 5373,
      "yes": 5374,
      "ynn": 5375,
      "zen": 5376,
      "ĠV": 5377,
      "ĠĠĊ": 5378,
      "Ġill": 5379,
      "hell": 5380,
      "Ġsix": 5381,
      "Ġtore": 5382,
      "Ġtour": 5383,
      "Ġbare": 5384,
      "Ġbunch": 5385,
      "Ġhoo": 5386,
      "Ġwadd": 5387,
      "rest": 5388,
      "Ġfans": 5389,
      "ities": 5390,
      "itation": 5391,
      "Ġlang": 5392,
      "Ġlumber": 5393,
      "Ġlux": 5394,
      "erry": 5395,
      "Ġden": 5396,
      "Ġdared": 5397,
      "Ġdie": 5398,
      "Ġdish": 5399,
      "Ġdipped": 5400,
      "Ġduring": 5401,
      "Ġhelm": 5402,
      "Ġpit": 5403,
      "Ġmes": 5404,
      "oming": 5405,
      "ĠTiff": 5406,
      "Ġobe": 5407,
      "arla": 5408,
      "inging": 5409,
      "Ġgall": 5410,
      "Ġgaze": 5411,
      "ilo": 5412,
      "ilies": 5413,
      "atul": 5414,
      "Ġnine": 5415,
      "Ġnast": 5416,
      "ĠSir": 5417,
      "ĠScott": 5418,
      "otte": 5419,
      "ĠShellie": 5420,
      "Ġstall": 5421,
      "Ġstitches": 5422,
      "Ġrat": 5423,
      "Ġrush": 5424,
      "Ġrhino": 5425,
      "ammy": 5426,
      "amie": 5427,
      "Ġwithin": 5428,
      "Ġsoared": 5429,
      "ados": 5430,
      "ĠLara": 5431,
      "ĠLiz": 5432,
      "ĠLizzie": 5433,
      "ĠLuke": 5434,
      "Ġplays": 5435,
      "seum": 5436,
      "ĠBun": 5437,
      "ĠBoy": 5438,
      "ĠBuddy": 5439,
      "chie": 5440,
      "Ġshot": 5441,
      "hero": 5442,
      "Ġrepe": 5443,
      "rap": 5444,
      "ryce": 5445,
      "ĠMar": 5446,
      "ĠMimi": 5447,
      "Ġaside": 5448,
      "Ġlosing": 5449,
      "Ġsew": 5450,
      "Ġspill": 5451,
      "Ġexha": 5452,
      "Ġjet": 5453,
      "Ġtheirs": 5454,
      "indy": 5455,
      "Ġknot": 5456,
      "Ġcable": 5457,
      "Ġcautious": 5458,
      "umb": 5459,
      "Ġnoon": 5460,
      "Ġscur": 5461,
      "Ġscrew": 5462,
      "ĠWould": 5463,
      "ashed": 5464,
      "Ġsometime": 5465,
      "ddy": 5466,
      "dding": 5467,
      "Ġwhatever": 5468,
      "âĤ¬.": 5469,
      "Ġflock": 5470,
      "Ġflutter": 5471,
      "ĠEach": 5472,
      "ĠElly": 5473,
      "Ġmuff": 5474,
      "Ġmuseum": 5475,
      "Ġmuddy": 5476,
      "Ġchilly": 5477,
      "uckily": 5478,
      "Ġdecision": 5479,
      "Ġeveryday": 5480,
      "ousey": 5481,
      "Ġposes": 5482,
      "Ġpoison": 5483,
      "Ġblinked": 5484,
      "ĠFro": 5485,
      "ĠFreck": 5486,
      "usted": 5487,
      "Ġvo": 5488,
      "Ġvio": 5489,
      "Ġdownstairs": 5490,
      "ĠSamantha": 5491,
      "retty": 5492,
      "Ġlearnt": 5493,
      "quake": 5494,
      "Ġpears": 5495,
      "Ġpebble": 5496,
      "Ġtruly": 5497,
      "Ġsunlight": 5498,
      "Ġcats": 5499,
      "Ġmoves": 5500,
      "Ġstruck": 5501,
      "uced": 5502,
      "Ġquite": 5503,
      "Ġbye": 5504,
      "ĠCo": 5505,
      "ĠCal": 5506,
      "ĠClyde": 5507,
      "ÅĵMom": 5508,
      "ÅĵLook": 5509,
      "ÅĵCan": 5510,
      "ÅĵOkay": 5511,
      "Ġwobb": 5512,
      "Ġdragons": 5513,
      "Ġgrad": 5514,
      "Ġglued": 5515,
      "Ġcube": 5516,
      "Ġremote": 5517,
      "Ġteles": 5518,
      "Ġstaying": 5519,
      "acob": 5520,
      "Ġrabbits": 5521,
      "Ġuns": 5522,
      "Ġdeal": 5523,
      "Ġdefe": 5524,
      "Ġdemand": 5525,
      "Ġframe": 5526,
      "ĠPen": 5527,
      "ĠPam": 5528,
      "ĠPolly": 5529,
      "Ġcloses": 5530,
      "Ġbeds": 5531,
      "Ġcuriosity": 5532,
      "Ġapplau": 5533,
      "Ġdishes": 5534,
      "Ġwarmer": 5535,
      "Ġtracks": 5536,
      "Ġdelay": 5537,
      "ĠNina": 5538,
      "Ġdraws": 5539,
      "Ġdrinking": 5540,
      "Ġfrosting": 5541,
      "Ġfrozen": 5542,
      "Ġtouching": 5543,
      "ission": 5544,
      "Ġblocked": 5545,
      "Ġwooden": 5546,
      "Afterwards": 5547,
      "Ġcrashed": 5548,
      "Ġbeha": 5549,
      "Ġrubs": 5550,
      "Ġrubbing": 5551,
      "coon": 5552,
      "covered": 5553,
      "Johnny": 5554,
      "Ġrested": 5555,
      "Ġcreating": 5556,
      "Ġdarkness": 5557,
      "Ġcastles": 5558,
      "Ġswims": 5559,
      "Ġprincesses": 5560,
      "ĠKayla": 5561,
      "ĠToby": 5562,
      "Ġjud": 5563,
      "Ġmarked": 5564,
      "Ġfallen": 5565,
      "Ġreluct": 5566,
      "exp": 5567,
      "Ġbelow": 5568,
      "Ġstaring": 5569,
      "Ġhealer": 5570,
      "Ġmarkers": 5571,
      "Ġplanes": 5572,
      "Ġplanets": 5573,
      "Ġfreeze": 5574,
      "Ġattic": 5575,
      "Ġacted": 5576,
      "Ġactor": 5577,
      "Ġactiv": 5578,
      "Ġburger": 5579,
      "Ġtroubles": 5580,
      "Ġaccidents": 5581,
      "Ġguy": 5582,
      "Ġfaced": 5583,
      "Ġowls": 5584,
      "Ġcupc": 5585,
      "Ġcupboard": 5586,
      "Ġbowls": 5587,
      "Ġenter": 5588,
      "Ġinvitation": 5589,
      "Ġwhistling": 5590,
      "Ġprotecting": 5591,
      "Ġpuddles": 5592,
      "Ġpigeons": 5593,
      "Ġcowboy": 5594,
      "Ġcomforted": 5595,
      "Ġobser": 5596,
      "Ġrespected": 5597,
      "Ġturtles": 5598,
      "Ġbouncy": 5599,
      "Ġeasier": 5600,
      "Ġexamined": 5601,
      "Ġsnapped": 5602,
      "Ġpleasure": 5603,
      "Ġwrap": 5604,
      "Ġracing": 5605,
      "Ġpolish": 5606,
      "Ġcompleted": 5607,
      "Ġdecorated": 5608,
      "Ġtwirling": 5609,
      "Ġshivered": 5610,
      "Ġwandering": 5611,
      "Ġsneezing": 5612,
      "ĠRover": 5613,
      "Ġpillows": 5614,
      "ĠZoey": 5615,
      "Ġapart": 5616,
      "Ġearthquake": 5617,
      "Ġorganize": 5618,
      "ceros": 5619,
      "Ġstrip": 5620,
      "Ġtwisted": 5621,
      "Ġuniversity": 5622,
      "Ġsqueezed": 5623,
      "Ġcherries": 5624,
      "Ġcovers": 5625,
      "Ġsprinkles": 5626,
      "cuse": 5627,
      "Ġtickets": 5628,
      "Ġsettle": 5629,
      "Ġcomplaining": 5630,
      "Ġapologized": 5631,
      "Ġstroked": 5632,
      "Ġtowels": 5633,
      "Ġrecommendation": 5634,
      "Ġseashell": 5635,
      "Ġacorns": 5636,
      "Ġincreased": 5637,
      "Jessy": 5638,
      "Ġunpacked": 5639,
      "Ġsuperhero": 5640,
      "Ġguardian": 5641,
      "Ġconfident": 5642,
      "Ġregretted": 5643,
      "Ġavocados": 5644,
      "Ġumbrellas": 5645,
      "Ġsilent": 5646,
      "Ġsighs": 5647,
      "Ġsuffer": 5648,
      "Ġwagging": 5649,
      "Ġhallway": 5650,
      "ĠAgnieszka": 5651,
      "Ġpatterns": 5652,
      "Ġfocus": 5653,
      "ĠGoodbye": 5654,
      "Ġmagnet": 5655,
      "Ġcostume": 5656,
      "Ami": 5657,
      "Ġtimer": 5658,
      "Ġleaned": 5659,
      "Ġchallenge": 5660,
      "Ġintroduced": 5661,
      "Leo": 5662,
      "Ready": 5663,
      "baa": 5664,
      "Ġreleased": 5665,
      "Ġreceive": 5666,
      "Ġrevealed": 5667,
      "Ġscene": 5668,
      "Ġvictory": 5669,
      "Ġlandscape": 5670,
      "Ġslept": 5671,
      "Ġpunish": 5672,
      "Ġelderly": 5673,
      "unately": 5674,
      "Ġlipstick": 5675,
      "Ġcocoa": 5676,
      "Ġbuzzing": 5677,
      "Ġrefreshed": 5678,
      "Ġbleeding": 5679,
      "Fiona": 5680,
      "Jeffrey": 5681,
      "Tweety": 5682,
      "Yeah": 5683,
      "Ġbarely": 5684,
      "Ġwaddled": 5685,
      "Ġlanguage": 5686,
      "Ġluxury": 5687,
      "Ġmesmer": 5688,
      "ĠTiffany": 5689,
      "Ġgallop": 5690,
      "Ġnasty": 5691,
      "Ġrhinoceros": 5692,
      "Ġexhausted": 5693,
      "ĠFreckles": 5694,
      "Ġviolin": 5695,
      "Ġtelescope": 5696,
      "Ġdemanded": 5697,
      "Ġreluctantly": 5698,
      "',": 5699,
      ".'": 5700,
      "Ag": 5701,
      "Avery": 5702,
      "Annie": 5703,
      "Bryce": 5704,
      "Cl": 5705,
      "Days": 5706,
      "Ell": 5707,
      "Fred": 5708,
      "Fuzzy": 5709,
      "Harry": 5710,
      "Hannah": 5711,
      "Katie": 5712,
      "Lia": 5713,
      "Lola": 5714,
      "Milly": 5715,
      "Mabel": 5716,
      "Oops": 5717,
      "Pat": 5718,
      "Run": 5719,
      "Tr": 5720,
      "Uh": 5721,
      "Will": 5722,
      "bell": 5723,
      "ced": 5724,
      "cin": 5725,
      "cent": 5726,
      "fy": 5727,
      "fly": 5728,
      "fire": 5729,
      "gn": 5730,
      "ior": 5731,
      "ipt": 5732,
      "neath": 5733,
      "oed": 5734,
      "pie": 5735,
      "rise": 5736,
      "ratul": 5737,
      "squ": 5738,
      "tle": 5739,
      "whe": 5740,
      "what": 5741,
      "xie": 5742,
      "ĠYes": 5743,
      "hest": 5744,
      "Ġtum": 5745,
      "Ġtire": 5746,
      "Ġtub": 5747,
      "Ġtangled": 5748,
      "Ġtipt": 5749,
      "Ġarom": 5750,
      "Ġachie": 5751,
      "Ġsou": 5752,
      "Ġsway": 5753,
      "Ġsings": 5754,
      "Ġwow": 5755,
      "Ġwreck": 5756,
      "Ġbak": 5757,
      "Ġbones": 5758,
      "Ġbaking": 5759,
      "ouch": 5760,
      "ouched": 5761,
      "Ġfas": 5762,
      "Ġfreed": 5763,
      "Ġfries": 5764,
      "ito": 5765,
      "itched": 5766,
      "ition": 5767,
      "Ġcal": 5768,
      "Ġcong": 5769,
      "Ġcough": 5770,
      "Ġcorn": 5771,
      "Ġcamp": 5772,
      "erve": 5773,
      "Ġda": 5774,
      "Ġdied": 5775,
      "Ġdict": 5776,
      "Ġhedge": 5777,
      "Ġwashing": 5778,
      "Ġpound": 5779,
      "Ġpanc": 5780,
      "Ġmug": 5781,
      "Ġmater": 5782,
      "ompl": 5783,
      "ĠTara": 5784,
      "ĠTammy": 5785,
      "Ġgears": 5786,
      "atur": 5787,
      "Ġnut": 5788,
      "Ġnicer": 5789,
      "ĠSorry": 5790,
      "ĠHope": 5791,
      "ĠHoot": 5792,
      "Ġinsp": 5793,
      "Ġequ": 5794,
      "igned": 5795,
      "Ġstem": 5796,
      "Ġstation": 5797,
      "Ġbeam": 5798,
      "Ġrug": 5799,
      "Ġrings": 5800,
      "amond": 5801,
      "Ġsore": 5802,
      "Ġsobbed": 5803,
      "ĠLilly": 5804,
      "ĠLike": 5805,
      "ĠLynn": 5806,
      "Ġpluck": 5807,
      "Ġplates": 5808,
      "sters": 5809,
      "Ġweb": 5810,
      "Ġweep": 5811,
      "enty": 5812,
      "entured": 5813,
      "Ġshadow": 5814,
      "eled": 5815,
      "elcome": 5816,
      "Ġrequ": 5817,
      "Ġrelease": 5818,
      "Ġreco": 5819,
      "alter": 5820,
      "raged": 5821,
      "Ġkitty": 5822,
      "ĠMay": 5823,
      "ĠMany": 5824,
      "ĠMartha": 5825,
      "terday": 5826,
      "urch": 5827,
      "Ġspice": 5828,
      "Ġspies": 5829,
      "Ġjazz": 5830,
      "Ġaren": 5831,
      "ĠJamie": 5832,
      "ĠJacob": 5833,
      "icers": 5834,
      "Ġknots": 5835,
      "Ġbacked": 5836,
      "Ġbackwards": 5837,
      "?\",": 5838,
      "Ġallow": 5839,
      "Ġclown": 5840,
      "Ġcash": 5841,
      "Ġcaused": 5842,
      "Ġnoses": 5843,
      "Ġnodding": 5844,
      "Ġscale": 5845,
      "ĠWilly": 5846,
      "Ġtrem": 5847,
      "Ġtremb": 5848,
      "Ġfears": 5849,
      "asp": 5850,
      "rove": 5851,
      "Ġfault": 5852,
      "Ġfailed": 5853,
      "Ġhomework": 5854,
      "Ġago": 5855,
      "Ġagree": 5856,
      "Ġmakeup": 5857,
      "Ġflood": 5858,
      "Ġflies": 5859,
      "Ġflames": 5860,
      "ĠEx": 5861,
      "Ġchurch": 5862,
      "ĠDid": 5863,
      "ĠDee": 5864,
      "Ġbecoming": 5865,
      "Ġdeciding": 5866,
      "Ġpoking": 5867,
      "Ġblinking": 5868,
      "Ġvac": 5869,
      "Ġvowed": 5870,
      "Ġventured": 5871,
      "anta": 5872,
      "Ġsunrise": 5873,
      "Ġhowever": 5874,
      "Ġcomfy": 5875,
      "Ġtwice": 5876,
      "Ġmoons": 5877,
      "Ġmosqu": 5878,
      "Ġoverjoy": 5879,
      "Ġsnuck": 5880,
      "Ġofficers": 5881,
      "ionary": 5882,
      "Ġeng": 5883,
      "berries": 5884,
      "ĠJacky": 5885,
      "Ġslipper": 5886,
      "Ġbravery": 5887,
      "embers": 5888,
      "Ġfamilies": 5889,
      "ĠCott": 5890,
      "ĠCora": 5891,
      "ĠCarla": 5892,
      "ÅĵOh": 5893,
      "ÅĵHi": 5894,
      "ÅĵCome": 5895,
      "ĠGary": 5896,
      "ĠGina": 5897,
      "ĠGemma": 5898,
      "Ġunderground": 5899,
      "Ġshoulders": 5900,
      "Ġdragged": 5901,
      "Ġended": 5902,
      "Ġglitt": 5903,
      "Ġremembers": 5904,
      "Ġdoorbell": 5905,
      "Ġteased": 5906,
      "Ġteasp": 5907,
      "Ġsurprises": 5908,
      "thank": 5909,
      "Ġfiremen": 5910,
      "Ġimprove": 5911,
      "Ġrealize": 5912,
      "aces": 5913,
      "Ġkeeps": 5914,
      "ipment": 5915,
      "Ġunl": 5916,
      "Ġunite": 5917,
      "Ġunexp": 5918,
      "Ġthrown": 5919,
      "Ġfoods": 5920,
      "ĠPut": 5921,
      "ĠPaul": 5922,
      "ĠPiper": 5923,
      "Ġcones": 5924,
      "Ġlistens": 5925,
      "Ġsticking": 5926,
      "Ġstorekeeper": 5927,
      "Ġuses": 5928,
      "Ġclimbing": 5929,
      "Ġfollowing": 5930,
      "Ġdispl": 5931,
      "Ġtrack": 5932,
      "Ġtrapped": 5933,
      "Ġarr": 5934,
      "ĠGrace": 5935,
      "ĠGracie": 5936,
      "ĠNick": 5937,
      "ĠNate": 5938,
      "Ġourselves": 5939,
      "Ġmaster": 5940,
      "Ġfilling": 5941,
      "Ġsweets": 5942,
      "Ġdrawn": 5943,
      "Ġsnowmen": 5944,
      "Ġfroze": 5945,
      "Ġmonsters": 5946,
      "Ġbites": 5947,
      "aterina": 5948,
      "Ġcrept": 5949,
      "Ġsteak": 5950,
      "Ġsteady": 5951,
      "Ġthroughout": 5952,
      "DonÃ¢": 5953,
      "Ġbehave": 5954,
      "Ġbehav": 5955,
      "Ġruin": 5956,
      "Ġrubber": 5957,
      "Ġdrift": 5958,
      "Ġdripping": 5959,
      "Ġlessons": 5960,
      "Ġcountries": 5961,
      "Ġmessage": 5962,
      "Ġrestore": 5963,
      "Ġpointy": 5964,
      "Ġbarn": 5965,
      "Ġcreation": 5966,
      "Ġresult": 5967,
      "Ġvisiting": 5968,
      "Ġcolder": 5969,
      "Ġtaller": 5970,
      "Ġowners": 5971,
      "Ġsquare": 5972,
      "Ġsquaw": 5973,
      "Ġhorns": 5974,
      "Ġcutting": 5975,
      "Ġdreamt": 5976,
      "Ġdragonfly": 5977,
      "Ġhides": 5978,
      "Ġtalks": 5979,
      "Ġspring": 5980,
      "Ġexpect": 5981,
      "Ġhotel": 5982,
      "Ġmarried": 5983,
      "Ġwallet": 5984,
      "Ġhills": 5985,
      "Ġrolls": 5986,
      "Ġpacking": 5987,
      "Ġsecure": 5988,
      "Ġpurr": 5989,
      "Ġforgets": 5990,
      "Ġforgetting": 5991,
      "Ġmarks": 5992,
      "Does": 5993,
      "Ġpans": 5994,
      "Ġattached": 5995,
      "Ġaccompl": 5996,
      "Ġburst": 5997,
      "Ġgiggles": 5998,
      "Ġreaching": 5999,
      "Ġfacing": 6000,
      "Ġpastry": 6001,
      "Ġinvite": 6002,
      "hole": 6003,
      "Ġbandages": 6004,
      "Ġmisses": 6005,
      "Ġrecipe": 6006,
      "Ġcopy": 6007,
      "Ġgathering": 6008,
      "Ġdiscovery": 6009,
      "Ġhonk": 6010,
      "Ġprizes": 6011,
      "Ġceiling": 6012,
      "Ġdistract": 6013,
      "Ġprayers": 6014,
      "balls": 6015,
      "Ġdived": 6016,
      "Ġdiamond": 6017,
      "Ġdesigned": 6018,
      "ĠBeau": 6019,
      "Ġbaked": 6020,
      "Ġpassing": 6021,
      "Ġcrawling": 6022,
      "Ġtested": 6023,
      "Ġdigs": 6024,
      "Ġraccoon": 6025,
      "Ġsupposed": 6026,
      "Ġmelting": 6027,
      "Ġlibrarian": 6028,
      "Ġchoices": 6029,
      "Ġpolished": 6030,
      "affes": 6031,
      "Today": 6032,
      "Ġwiping": 6033,
      "Ġguns": 6034,
      "Ġmovies": 6035,
      "Ġignoring": 6036,
      "Ġshirts": 6037,
      "However": 6038,
      "Ġsights": 6039,
      "Ġleading": 6040,
      "Ġrecorded": 6041,
      "Ġcompetition": 6042,
      "Ġfuzzy": 6043,
      "Ġsafer": 6044,
      "ĠAmari": 6045,
      "Ġtwisting": 6046,
      "Ġtricky": 6047,
      "Ġscooped": 6048,
      "Ġpoems": 6049,
      "Ġtwigs": 6050,
      "Ġrides": 6051,
      "Ġspending": 6052,
      "ÅĵItÃ¢": 6053,
      "Ġstealing": 6054,
      "Ġstretching": 6055,
      "lowly": 6056,
      "Ġblooming": 6057,
      "Happy": 6058,
      "Ġparked": 6059,
      "Ġheroes": 6060,
      "Ġincluding": 6061,
      "Ġapologised": 6062,
      "Ġapologize": 6063,
      "Ġgiraffes": 6064,
      "Ġsneaked": 6065,
      "Ġjogging": 6066,
      "Ġmasks": 6067,
      "Ġpermission": 6068,
      "Always": 6069,
      "Jessie": 6070,
      "Ġprettier": 6071,
      "Ġstudying": 6072,
      "Roar": 6073,
      "Robbie": 6074,
      "ĠWhoever": 6075,
      "Ġsurroundings": 6076,
      "Ġpaddles": 6077,
      "Ġpaddled": 6078,
      "Ġdiscussed": 6079,
      "looking": 6080,
      "Ġsilence": 6081,
      "Ġsuffered": 6082,
      "ĠSharon": 6083,
      "Ġtraveling": 6084,
      "Ġpattern": 6085,
      "Ġguessed": 6086,
      "ĠAlways": 6087,
      "Ġscattered": 6088,
      "Ġfocused": 6089,
      "Ġcrowd": 6090,
      "Ġcrowded": 6091,
      "Ġcostumes": 6092,
      "Ġhesitant": 6093,
      "Ġmillion": 6094,
      "Ġyawn": 6095,
      "Ġyawned": 6096,
      "Ġpossess": 6097,
      "Ġpossible": 6098,
      "ĠOliver": 6099,
      "ĠOlivia": 6100,
      "Ġ10": 6101,
      "Ġwiggle": 6102,
      "Ġstomach": 6103,
      "Ġleapt": 6104,
      "Ġmembers": 6105,
      "Ġagreement": 6106,
      "Ġchatted": 6107,
      "Ġenvious": 6108,
      "Ġdirections": 6109,
      "Ġbulb": 6110,
      "Ġforgiven": 6111,
      "Sometimes": 6112,
      "Ġhooves": 6113,
      "Ġobey": 6114,
      "ĠMario": 6115,
      "Ġcautiously": 6116,
      "umbus": 6117,
      "Ġmuffins": 6118,
      "ĠFrost": 6119,
      "Ġgradually": 6120,
      "Ġunsure": 6121,
      "Ġdefeat": 6122,
      "Ġbehaved": 6123,
      "Ġcowboys": 6124,
      "Ġmesmerized": 6125,
      "Ġgalloped": 6126,
      "Ella": 6127,
      "ratulated": 6128,
      "Ġaroma": 6129,
      "Ġachieve": 6130,
      "Ġfascin": 6131,
      "Ġcongratulated": 6132,
      "Ġcampfire": 6133,
      "Ġdictionary": 6134,
      "Ġpancakes": 6135,
      "Ġmateri": 6136,
      "ĠHootie": 6137,
      "Ġequipment": 6138,
      "Ġrequest": 6139,
      "Ġrecogn": 6140,
      "Ġtrembling": 6141,
      "Ġvacation": 6142,
      "Ġmosquito": 6143,
      "Ġoverjoyed": 6144,
      "Ġslippery": 6145,
      "ĠCotton": 6146,
      "Ġunexpected": 6147,
      "Ġbehavior": 6148,
      "Ġaccomplished": 6149,
      "Abby": 6150,
      "Boo": 6151,
      "Buddy": 6152,
      "Che": 6153,
      "Dave": 6154,
      "Ducky": 6155,
      "During": 6156,
      "David": 6157,
      "Even": 6158,
      "Edward": 6159,
      "Fine": 6160,
      "Father": 6161,
      "Fire": 6162,
      "Gilbert": 6163,
      "HE": 6164,
      "Jan": 6165,
      "Jason": 6166,
      "Kate": 6167,
      "Kayla": 6168,
      "Luckily": 6169,
      "Mag": 6170,
      "Mine": 6171,
      "Miss": 6172,
      "Mittens": 6173,
      "Martha": 6174,
      "Mikey": 6175,
      "Mmm": 6176,
      "Milo": 6177,
      "Nick": 6178,
      "Ol": 6179,
      "Out": 6180,
      "Our": 6181,
      "Penny": 6182,
      "Pete": 6183,
      "Piper": 6184,
      "Rel": 6185,
      "Rob": 6186,
      "Sir": 6187,
      "Sad": 6188,
      "Sun": 6189,
      "Sandy": 6190,
      "Take": 6191,
      "Tara": 6192,
      "Tiana": 6193,
      "THE": 6194,
      "Whe": 6195,
      "Woof": 6196,
      "Welcome": 6197,
      "bars": 6198,
      "bility": 6199,
      "cc": 6200,
      "ces": 6201,
      "dri": 6202,
      "dged": 6203,
      "dies": 6204,
      "een": 6205,
      "each": 6206,
      "fall": 6207,
      "five": 6208,
      "gie": 6209,
      "ggan": 6210,
      "ium": 6211,
      "jam": 6212,
      "kins": 6213,
      "lt": 6214,
      "lay": 6215,
      "lings": 6216,
      "loe": 6217,
      "lotte": 6218,
      "mock": 6219,
      "ney": 6220,
      "opped": 6221,
      "oves": 6222,
      "po": 6223,
      "pen": 6224,
      "ris": 6225,
      "rig": 6226,
      "rily": 6227,
      "test": 6228,
      "tled": 6229,
      "tory": 6230,
      "uing": 6231,
      "uis": 6232,
      "ubbed": 6233,
      "uation": 6234,
      "vest": 6235,
      "wise": 6236,
      "xy": 6237,
      "yr": 6238,
      "years": 6239,
      "Ëľ": 6240,
      "ĠOnce": 6241,
      "hello": 6242,
      "Ġtip": 6243,
      "Ġtugged": 6244,
      "Ġais": 6245,
      "Ġaff": 6246,
      "Ġawe": 6247,
      "Ġsyr": 6248,
      "Ġwink": 6249,
      "Ġwren": 6250,
      "Ġtherap": 6251,
      "eds": 6252,
      "Ġtodd": 6253,
      "Ġtoss": 6254,
      "Ġtobo": 6255,
      "Ġtonight": 6256,
      "Ġbank": 6257,
      "Ġbars": 6258,
      "inner": 6259,
      "Ġhipp": 6260,
      "rect": 6261,
      "Ġfan": 6262,
      "Ġfif": 6263,
      "Ġfaded": 6264,
      "Ġlily": 6265,
      "Ġlime": 6266,
      "Ġlimes": 6267,
      "Ġlower": 6268,
      "Ġdar": 6269,
      "Ġdand": 6270,
      "Ġdots": 6271,
      "Ġdangers": 6272,
      "Ġheel": 6273,
      "Ġpant": 6274,
      "Ġpause": 6275,
      "Ġpuff": 6276,
      "Ġpens": 6277,
      "Ġmate": 6278,
      "ĠToo": 6279,
      "ĠTry": 6280,
      "ĠTake": 6281,
      "ĠTues": 6282,
      "ĠTiana": 6283,
      "Ġoxy": 6284,
      "aroo": 6285,
      "isies": 6286,
      "Ġgle": 6287,
      "Ġgoo": 6288,
      "Ġgown": 6289,
      "Ġgross": 6290,
      "ided": 6291,
      "Ġnibb": 6292,
      "Ġsav": 6293,
      "Ġsale": 6294,
      "Ġsaus": 6295,
      "ĠSure": 6296,
      "ĠSnow": 6297,
      "ĠSatur": 6298,
      "ĠSlowly": 6299,
      "ords": 6300,
      "imble": 6301,
      "imney": 6302,
      "oni": 6303,
      "Ġthorn": 6304,
      "Ġthimble": 6305,
      "Ġitch": 6306,
      "lest": 6307,
      "lephant": 6308,
      "ĠHannah": 6309,
      "ows": 6310,
      "Ġevent": 6311,
      "Ġease": 6312,
      "Ġstain": 6313,
      "Ġstare": 6314,
      "Ġstamp": 6315,
      "Ġstirr": 6316,
      "Ġbend": 6317,
      "Ġbeet": 6318,
      "Ġbead": 6319,
      "Ġbegged": 6320,
      "Ġbeans": 6321,
      "Ġrip": 6322,
      "ppers": 6323,
      "Ġonward": 6324,
      "Ġhistory": 6325,
      "Ġyouth": 6326,
      "rian": 6327,
      "ĠLoo": 6328,
      "ĠLion": 6329,
      "ĠLucky": 6330,
      "ĠLove": 6331,
      "ĠListen": 6332,
      "ntil": 6333,
      "Ġplenty": 6334,
      "Ġplopped": 6335,
      "Ġplayers": 6336,
      "Ġwee": 6337,
      "Ġwears": 6338,
      "Ġweeds": 6339,
      "Ġform": 6340,
      "seek": 6341,
      "unched": 6342,
      "ĠmomÃ¢": 6343,
      "ĠBeth": 6344,
      "ĠBugs": 6345,
      "ĠBumbus": 6346,
      "ĠBrian": 6347,
      "ently": 6348,
      "child": 6349,
      "Ġdodged": 6350,
      "Ġshak": 6351,
      "Ġshined": 6352,
      "Ġships": 6353,
      "Ġnotes": 6354,
      "elind": 6355,
      "elion": 6356,
      "Ġreass": 6357,
      "Ġrepa": 6358,
      "Ġkang": 6359,
      "Ġkites": 6360,
      "Ġneither": 6361,
      "Ġsmashed": 6362,
      "ĠMina": 6363,
      "ĠMousey": 6364,
      "Ġann": 6365,
      "!\",": 6366,
      "Ġloving": 6367,
      "Ġseag": 6368,
      "Ġgoals": 6369,
      "illa": 6370,
      "Ġspong": 6371,
      "Ġspaces": 6372,
      "Ġboom": 6373,
      "Ġboards": 6374,
      "Ġbobbing": 6375,
      "Ġbodies": 6376,
      "Ġexit": 6377,
      "Ġexting": 6378,
      "Ġexcept": 6379,
      "Ġjunk": 6380,
      "Ġjaw": 6381,
      "ĠAn": 6382,
      "ica": 6383,
      "icorn": 6384,
      "opes": 6385,
      "Ġclub": 6386,
      "Ġcabb": 6387,
      "umbs": 6388,
      "uments": 6389,
      "ĠmanÃ¢": 6390,
      "Ġmanage": 6391,
      "Ġscored": 6392,
      "ĠWell": 6393,
      "ĠWater": 6394,
      "ĠWatch": 6395,
      "ĠWalter": 6396,
      "rol": 6397,
      "Ġstartled": 6398,
      "Ġsomebody": 6399,
      "Ġcopper": 6400,
      "iffere": 6401,
      "âĤ¬Ëľ": 6402,
      "Ġflick": 6403,
      "Ġflap": 6404,
      "Ġflipped": 6405,
      "ĠEric": 6406,
      "ĠElephant": 6407,
      "Ġchimney": 6408,
      "Ġgoodies": 6409,
      "Ġswirl": 6410,
      "Ġswallow": 6411,
      "Ġswords": 6412,
      "ĠDiffere": 6413,
      "ĠFuzzy": 6414,
      "using": 6415,
      "Ġability": 6416,
      "Ġtapped": 6417,
      "Ġtapping": 6418,
      "Ġgrabbing": 6419,
      "Ġintrig": 6420,
      "Ġintently": 6421,
      "Ġknees": 6422,
      "Ġpeas": 6423,
      "Ġpeppers": 6424,
      "Ġtrim": 6425,
      "Ġtrans": 6426,
      "Ġsunset": 6427,
      "Ġraking": 6428,
      "Ġanytime": 6429,
      "Ġwatery": 6430,
      "Ġovercome": 6431,
      "Ġoverwhe": 6432,
      "arer": 6433,
      "Ġsnatched": 6434,
      "Ġflowing": 6435,
      "berts": 6436,
      "ĠJackie": 6437,
      "Ġsmallest": 6438,
      "Ġquiver": 6439,
      "Ġsled": 6440,
      "Ġslipping": 6441,
      "Ġbrain": 6442,
      "Ġbraver": 6443,
      "Ġbraids": 6444,
      "izing": 6445,
      "Ġlongest": 6446,
      "ĠJosh": 6447,
      "Ġadults": 6448,
      "Those": 6449,
      "Ġimmen": 6450,
      "ection": 6451,
      "ĠCrocodile": 6452,
      "ĠCindy": 6453,
      "ĠCaterina": 6454,
      "Ġhardest": 6455,
      "ÅĵG": 6456,
      "ÅĵThank": 6457,
      "ÅĵOf": 6458,
      "ÅĵMy": 6459,
      "ÅĵThanks": 6460,
      "ÅĵDonÃ¢": 6461,
      "ĠGet": 6462,
      "Ġwolves": 6463,
      "Ġunderneath": 6464,
      "Ġgrant": 6465,
      "Ġstored": 6466,
      "Ġclearer": 6467,
      "Ġgloves": 6468,
      "Ġcubes": 6469,
      "Ġremain": 6470,
      "Ġremoved": 6471,
      "Ġbadge": 6472,
      "Ġfinal": 6473,
      "Ġstays": 6474,
      "Ġtoward": 6475,
      "xture": 6476,
      "ĠRich": 6477,
      "Ġunw": 6478,
      "Ġunha": 6479,
      "Ġuncovered": 6480,
      "Ġunicorn": 6481,
      "Ġdef": 6482,
      "ĠPhil": 6483,
      "Ġcons": 6484,
      "Ġconcent": 6485,
      "Ġnearly": 6486,
      "Ġwritten": 6487,
      "Ġwrites": 6488,
      "Ġusually": 6489,
      "Ġblueberries": 6490,
      "ĠAsked": 6491,
      "Ġarrest": 6492,
      "Ġjoking": 6493,
      "Ġjogged": 6494,
      "Ġcrouched": 6495,
      "Ġcrumbs": 6496,
      "ĠNora": 6497,
      "Joey": 6498,
      "Ġprinted": 6499,
      "Ġdrawers": 6500,
      "Ġsmelling": 6501,
      "Ġsnowballs": 6502,
      "Ġmonth": 6503,
      "Ġcontrol": 6504,
      "Ġbits": 6505,
      "Ġsingers": 6506,
      "Ġcrew": 6507,
      "Ġrainy": 6508,
      "itcase": 6509,
      "Ġpretends": 6510,
      "Ġrule": 6511,
      "Ġdripped": 6512,
      "boards": 6513,
      "Ġslower": 6514,
      "airy": 6515,
      "Ġtricycle": 6516,
      "Ġsails": 6517,
      "Ġsplitting": 6518,
      "Ġresults": 6519,
      "Ġvisits": 6520,
      "ulia": 6521,
      "Ġpainter": 6522,
      "Ġhorned": 6523,
      "Ġmatched": 6524,
      "Ġteaches": 6525,
      "Ġpets": 6526,
      "Ġsituation": 6527,
      "Ġsprite": 6528,
      "Ġjudge": 6529,
      "Ġexpress": 6530,
      "Ġpatted": 6531,
      "Ġmuscles": 6532,
      "Ġgentleman": 6533,
      "Ġmustache": 6534,
      "Ġgrowling": 6535,
      "teen": 6536,
      "Ġsigns": 6537,
      "Ġbaths": 6538,
      "Ġpackages": 6539,
      "Ġpurred": 6540,
      "brush": 6541,
      "Ġbattle": 6542,
      "ĠwonÃ¢": 6543,
      "Ġdances": 6544,
      "Ġscreams": 6545,
      "ebble": 6546,
      "fortunately": 6547,
      "Ġplanned": 6548,
      "Ġplanning": 6549,
      "lcano": 6550,
      "Ġpockets": 6551,
      "Ġwinning": 6552,
      "Ġnests": 6553,
      "Ġkicks": 6554,
      "Ġpanick": 6555,
      "Ġattack": 6556,
      "Ġkeyhole": 6557,
      "Ġsuitcase": 6558,
      "Ġspoil": 6559,
      "Ġinterest": 6560,
      "Ġpicnics": 6561,
      "Ġmedals": 6562,
      "Ġyounger": 6563,
      "Ġmeeting": 6564,
      "Ġdrivers": 6565,
      "Ġhumming": 6566,
      "Ġnaps": 6567,
      "ĠChloe": 6568,
      "Ġpaintbrush": 6569,
      "Ġescap": 6570,
      "Ġcoolest": 6571,
      "Ġhonked": 6572,
      "Ġcorrect": 6573,
      "Ġcalmly": 6574,
      "Ġshrugs": 6575,
      "Ġfatter": 6576,
      "Ġfattest": 6577,
      "Ġdesign": 6578,
      "Ġdesert": 6579,
      "Ġdespite": 6580,
      "Ġscaring": 6581,
      "Ġdirtier": 6582,
      "Ġgenie": 6583,
      "utely": 6584,
      "Ġcelebrating": 6585,
      "Ġtune": 6586,
      "Ġsource": 6587,
      "Ġstretches": 6588,
      "Ġraces": 6589,
      "Ġwhisk": 6590,
      "Ġseats": 6591,
      "Ġsurfs": 6592,
      "Ġsurface": 6593,
      "Ġsurfboard": 6594,
      "perate": 6595,
      "Ġreminder": 6596,
      "Ġsquealed": 6597,
      "Ġhambur": 6598,
      "Ġhammock": 6599,
      "Ġhanger": 6600,
      "Ġrotting": 6601,
      "Ġrotten": 6602,
      "Ġdecoration": 6603,
      "Ġdecorations": 6604,
      "ails": 6605,
      "Ġcrackers": 6606,
      "Ġsuccessfully": 6607,
      "Ġcomplained": 6608,
      "ĠRoxie": 6609,
      "ĠRoberts": 6610,
      "Ġleads": 6611,
      "Ġhandlebars": 6612,
      "Ġgrownup": 6613,
      "ceries": 6614,
      "Ġstrips": 6615,
      "Ġstripes": 6616,
      "Ġangrily": 6617,
      "Ġscratched": 6618,
      "Ġscrubbed": 6619,
      "Ġsprinkle": 6620,
      "Ġrhythms": 6621,
      "Ġflea": 6622,
      "Ġreversed": 6623,
      "Ġtickled": 6624,
      "Ġbeeping": 6625,
      "Ġweapons": 6626,
      "Ġsnuggle": 6627,
      "Ġtempt": 6628,
      "Ġknocks": 6629,
      "Ġflags": 6630,
      "Ġtwinkled": 6631,
      "Ġdrums": 6632,
      "Ġpuzzles": 6633,
      "Ġinclude": 6634,
      "Ġmelody": 6635,
      "Ġgumball": 6636,
      "Ġribbons": 6637,
      "Ġclaps": 6638,
      "Ġgrandchild": 6639,
      "Ġsandcastles": 6640,
      "ĠCharlotte": 6641,
      "Ġrecommended": 6642,
      "Ġvalues": 6643,
      "Ġproper": 6644,
      "Ġsurrendered": 6645,
      "...": 6646,
      "Alright": 6647,
      "Emmy": 6648,
      "Ġreply": 6649,
      "ragement": 6650,
      "Ġbreathed": 6651,
      "Ġappreci": 6652,
      "Ġartist": 6653,
      "Ġartwork": 6654,
      "ĠUn": 6655,
      "ĠUp": 6656,
      "ĠUntil": 6657,
      "ĠStop": 6658,
      "Ġscoreboard": 6659,
      "Ġconfl": 6660,
      "Ġpaddling": 6661,
      "Ġfootballs": 6662,
      "Ġdiscussing": 6663,
      "Chad": 6664,
      "Chris": 6665,
      "Excuse": 6666,
      "Ġtongues": 6667,
      "Ġgroceries": 6668,
      "ĠMissy": 6669,
      "ĠAgain": 6670,
      "Ġmeasured": 6671,
      "Ġflavors": 6672,
      "Ġpostman": 6673,
      "Ġtravell": 6674,
      "Ġtraveled": 6675,
      "Ġsupported": 6676,
      "Mrs": 6677,
      "ĠAlong": 6678,
      "Ġargued": 6679,
      "Ġseconds": 6680,
      "Ġsneaks": 6681,
      "Ġtimid": 6682,
      "Ġnails": 6683,
      "Ġthreads": 6684,
      "ĠBye": 6685,
      "Ġintroduce": 6686,
      "Ġencouraged": 6687,
      "Ġencouragement": 6688,
      "Ġstrolled": 6689,
      "ĠIsn": 6690,
      "Ġmember": 6691,
      "Ġagrees": 6692,
      "Ġgrowls": 6693,
      "Ġdirection": 6694,
      "Abigail": 6695,
      "Friends": 6696,
      "Surpr": 6697,
      "rrr": 6698,
      "ĠSadly": 6699,
      "ĠSadie": 6700,
      "Ġurged": 6701,
      "Ġfabrics": 6702,
      "Ġgreeted": 6703,
      "solutely": 6704,
      "Ġinstruments": 6705,
      "Ġbeginning": 6706,
      "Ġfirmly": 6707,
      "Bobby": 6708,
      "Ġhelmet": 6709,
      "Ġrepeated": 6710,
      "Ġscurried": 6711,
      "Ġscrewdri": 6712,
      "Ġvolcano": 6713,
      "Ġwobbly": 6714,
      "Ġapplauded": 6715,
      "Ġjudges": 6716,
      "Ġactivities": 6717,
      "Ġguys": 6718,
      "Ġcupcakes": 6719,
      "Ġobserved": 6720,
      "Agnieszka": 6721,
      "Ġtiptoed": 6722,
      "Ġsoul": 6723,
      "Ġbakery": 6724,
      "Ġdaisies": 6725,
      "Ġpounded": 6726,
      "Ġnuts": 6727,
      "Ġbeaming": 6728,
      "Ġplucked": 6729,
      "Ġtremble": 6730,
      "ĠExcited": 6731,
      "Ġengine": 6732,
      "Ġglittered": 6733,
      "Ġteaspoon": 6734,
      "Ġunlocked": 6735,
      "Ġdisplay": 6736,
      "Ġdrifted": 6737,
      "Ġdistracted": 6738,
      "Missy": 6739,
      "Outside": 6740,
      "Relax": 6741,
      "jamas": 6742,
      "uisher": 6743,
      "Ġwrench": 6744,
      "Ġtherapist": 6745,
      "Ġtoddler": 6746,
      "Ġtoboggan": 6747,
      "Ġhippo": 6748,
      "Ġdandelion": 6749,
      "ĠTuesday": 6750,
      "Ġoxygen": 6751,
      "Ġglee": 6752,
      "Ġgooey": 6753,
      "Ġnibbled": 6754,
      "Ġsausage": 6755,
      "ĠSaturday": 6756,
      "Ġthorns": 6757,
      "Ġevents": 6758,
      "Ġstirring": 6759,
      "Ġbeads": 6760,
      "elinda": 6761,
      "Ġrepaired": 6762,
      "Ġkangaroo": 6763,
      "Ġsponge": 6764,
      "Ġspaceship": 6765,
      "Ġextinguisher": 6766,
      "Ġjaws": 6767,
      "Ġcabbage": 6768,
      "ĠDifferent": 6769,
      "Ġintrigued": 6770,
      "Ġoverwhel": 6771,
      "Ġimmense": 6772,
      "Ġunhappy": 6773,
      "Ġhamburger": 6774,
      "Ġscrewdriver": 6775,
      "!!": 6776,
      "!'": 6777,
      "\"!": 6778,
      "?!": 6779,
      "?'": 6780,
      "Ah": 6781,
      "Aunt": 6782,
      "Back": 6783,
      "Bird": 6784,
      "Brown": 6785,
      "Buzz": 6786,
      "Blue": 6787,
      "Brrr": 6788,
      "Cal": 6789,
      "Claire": 6790,
      "Cindy": 6791,
      "Down": 6792,
      "Dylan": 6793,
      "Fe": 6794,
      "Free": 6795,
      "Fido": 6796,
      "Gary": 6797,
      "Gina": 6798,
      "Great": 6799,
      "George": 6800,
      "Gemma": 6801,
      "Have": 6802,
      "Hours": 6803,
      "Julie": 6804,
      "June": 6805,
      "Ken": 6806,
      "Keep": 6807,
      "Kids": 6808,
      "Liz": 6809,
      "Laura": 6810,
      "Lulu": 6811,
      "Lizzie": 6812,
      "May": 6813,
      "Mina": 6814,
      "Move": 6815,
      "Mousey": 6816,
      "Nice": 6817,
      "Nate": 6818,
      "Nemo": 6819,
      "OP": 6820,
      "Paul": 6821,
      "Pretty": 6822,
      "Peach": 6823,
      "Quack": 6824,
      "Rice": 6825,
      "Rabbit": 6826,
      "Sw": 6827,
      "Ste": 6828,
      "Slow": 6829,
      "Sophie": 6830,
      "Santa": 6831,
      "Ta": 6832,
      "Too": 6833,
      "Try": 6834,
      "Teddy": 6835,
      "Un": 6836,
      "Vroom": 6837,
      "Very": 6838,
      "Yum": 6839,
      "Yummy": 6840,
      "Zoomy": 6841,
      "Zoe": 6842,
      "aret": 6843,
      "bor": 6844,
      "but": 6845,
      "bra": 6846,
      "book": 6847,
      "blings": 6848,
      "cter": 6849,
      "cise": 6850,
      "cus": 6851,
      "da": 6852,
      "date": 6853,
      "daughter": 6854,
      "dos": 6855,
      "fl": 6856,
      "fit": 6857,
      "for": 6858,
      "go": 6859,
      "gies": 6860,
      "ggy": 6861,
      "iar": 6862,
      "ivery": 6863,
      "ived": 6864,
      "ikes": 6865,
      "iens": 6866,
      "ibility": 6867,
      "ixture": 6868,
      "jo": 6869,
      "just": 6870,
      "kle": 6871,
      "lv": 6872,
      "lor": 6873,
      "look": 6874,
      "mell": 6875,
      "mag": 6876,
      "mies": 6877,
      "nes": 6878,
      "nch": 6879,
      "nection": 6880,
      "over": 6881,
      "oard": 6882,
      "please": 6883,
      "rit": 6884,
      "rop": 6885,
      "rance": 6886,
      "shing": 6887,
      "spe": 6888,
      "smell": 6889,
      "tes": 6890,
      "that": 6891,
      "tions": 6892,
      "talk": 6893,
      "tail": 6894,
      "ud": 6895,
      "uild": 6896,
      "va": 6897,
      "wan": 6898,
      "woo": 6899,
      "would": 6900,
      "yle": 6901,
      "yster": 6902,
      "zer": 6903,
      "Âł": 6904,
      "ÃĤ": 6905,
      "Ġ2": 6906,
      "Ġ4": 6907,
      "Ġ7": 6908,
      "Ġinde": 6909,
      "Ġouch": 6910,
      "Ġast": 6911,
      "Ġsid": 6912,
      "Ġsens": 6913,
      "Ġsimp": 6914,
      "Ġwid": 6915,
      "Ġwins": 6916,
      "Ġwoof": 6917,
      "Ġtheat": 6918,
      "ednes": 6919,
      "Ġbom": 6920,
      "Ġblend": 6921,
      "Ġbanged": 6922,
      "inning": 6923,
      "Ġhi": 6924,
      "Ġhour": 6925,
      "Ġwaded": 6926,
      "reet": 6927,
      "Ġfart": 6928,
      "Ġfain": 6929,
      "Ġfate": 6930,
      "Ġfara": 6931,
      "Ġfile": 6932,
      "Ġcig": 6933,
      "Ġcent": 6934,
      "Ġcoug": 6935,
      "Ġcro": 6936,
      "Ġcous": 6937,
      "Ġlar": 6938,
      "erk": 6939,
      "ern": 6940,
      "erma": 6941,
      "ercise": 6942,
      "Ġdet": 6943,
      "Ġdam": 6944,
      "Ġdess": 6945,
      "Ġdip": 6946,
      "Ġdiver": 6947,
      "Ġdaisy": 6948,
      "Ġdates": 6949,
      "Ġdarl": 6950,
      "Ġheight": 6951,
      "Ġpout": 6952,
      "Ġpelt": 6953,
      "Ġpave": 6954,
      "Ġpals": 6955,
      "Ġmitt": 6956,
      "Ġmound": 6957,
      "Ġmerry": 6958,
      "Ġmixture": 6959,
      "Ġmerma": 6960,
      "ĠTe": 6961,
      "ĠTre": 6962,
      "ĠTen": 6963,
      "ĠTime": 6964,
      "ĠTeam": 6965,
      "Ġopp": 6966,
      "Ġoyster": 6967,
      "aring": 6968,
      "arrow": 6969,
      "isible": 6970,
      "isks": 6971,
      "Ġgri": 6972,
      "Ġgest": 6973,
      "Ġgap": 6974,
      "idence": 6975,
      "atches": 6976,
      "ening": 6977,
      "Ġnic": 6978,
      "Ġnuzz": 6979,
      "Ġsaves": 6980,
      "Ġhalves": 6981,
      "ĠThese": 6982,
      "ĠSing": 6983,
      "ĠSec": 6984,
      "ĠSister": 6985,
      "ĠSanta": 6986,
      "ĠSwan": 6987,
      "ories": 6988,
      "orough": 6989,
      "orman": 6990,
      "order": 6991,
      "imy": 6992,
      "iment": 6993,
      "immer": 6994,
      "onished": 6995,
      "onment": 6996,
      "Ġthugs": 6997,
      "Ġthorough": 6998,
      "llen": 6999,
      "lect": 7000,
      "ĠHur": 7001,
      "ĠHold": 7002,
      "ĠHallow": 7003,
      "othn": 7004,
      "etah": 7005,
      "irthday": 7006,
      "ironment": 7007,
      "Ġins": 7008,
      "esome": 7009,
      "espite": 7010,
      "utty": 7011,
      "Ġech": 7012,
      "Ġeast": 7013,
      "Ġuna": 7014,
      "oosh": 7015,
      "ooze": 7016,
      "Ġyelp": 7017,
      "Ġsting": 7018,
      "Ġstun": 7019,
      "Ġstur": 7020,
      "Ġstitched": 7021,
      "Ġstyle": 7022,
      "Ġstern": 7023,
      "Ġbelly": 7024,
      "Ġrider": 7025,
      "Ġrays": 7026,
      "Ġrising": 7027,
      "Ġropes": 7028,
      "Ġrisks": 7029,
      "ams": 7030,
      "Ġ\"'": 7031,
      "ppies": 7032,
      "kend": 7033,
      "Ġsoak": 7034,
      "Ġsocks": 7035,
      "Ġsoggy": 7036,
      "Ġhiss": 7037,
      "adowed": 7038,
      "ĠLuckily": 7039,
      "Ġplow": 7040,
      "str": 7041,
      "step": 7042,
      "storm": 7043,
      "Ġplaytime": 7044,
      "Ġplaydate": 7045,
      "Ġweight": 7046,
      "Ġformed": 7047,
      "unity": 7048,
      "ĠBook": 7049,
      "ĠBoth": 7050,
      "ĠBuild": 7051,
      "ĠBirthday": 7052,
      "Ġlies": 7053,
      "Ġliqu": 7054,
      "Ġdoct": 7055,
      "Ġshri": 7056,
      "Ġshimmer": 7057,
      "herman": 7058,
      "allowed": 7059,
      "Ġnoticing": 7060,
      "Ġnotices": 7061,
      "Ġwhoosh": 7062,
      "eling": 7063,
      "Ġrelie": 7064,
      "Ġreact": 7065,
      "Ġreason": 7066,
      "Ġresol": 7067,
      "Ġrejo": 7068,
      "aling": 7069,
      "rapped": 7070,
      "ending": 7071,
      "ĠMus": 7072,
      "ĠMino": 7073,
      "ĠMikey": 7074,
      "ĠMilo": 7075,
      "ĠMelinda": 7076,
      "Ġanger": 7077,
      "Ġankle": 7078,
      "Ġsawed": 7079,
      "Ġashes": 7080,
      "Ġassist": 7081,
      "Ġlogs": 7082,
      "Ġloses": 7083,
      "Ġloos": 7084,
      "Ġloose": 7085,
      "Ġgobble": 7086,
      "Ġoutfit": 7087,
      "urine": 7088,
      "illing": 7089,
      "Ġspa": 7090,
      "Ġspy": 7091,
      "Ġspat": 7092,
      "Ġspook": 7093,
      "Ġspins": 7094,
      "Ġspikes": 7095,
      "Ġbond": 7096,
      "Ġboiling": 7097,
      "Ġbolt": 7098,
      "fusing": 7099,
      "Ġexercise": 7100,
      "Ġjugg": 7101,
      "ĠAvery": 7102,
      "ĠAnn": 7103,
      "ĠAcc": 7104,
      "inder": 7105,
      "romise": 7106,
      "ĠJason": 7107,
      "ĠJerry": 7108,
      "ĠJoni": 7109,
      "ĠJulia": 7110,
      "icated": 7111,
      "Ġhelpers": 7112,
      "Ġclick": 7113,
      "Ġclamber": 7114,
      "Ġclipp": 7115,
      "Ġclerk": 7116,
      "Ġaliens": 7117,
      "Ġcaves": 7118,
      "Ġcaster": 7119,
      "Ġcaution": 7120,
      "Ġcausing": 7121,
      "Ġmane": 7122,
      "Ġsca": 7123,
      "ĠWait": 7124,
      "ĠWitches": 7125,
      "ĠWednes": 7126,
      "asing": 7127,
      "asant": 7128,
      "Ġrobb": 7129,
      "Ġrobin": 7130,
      "Ġrobber": 7131,
      "Ġmeows": 7132,
      "owned": 7133,
      "Ġcoke": 7134,
      "Ġcoiled": 7135,
      "Ġage": 7136,
      "therwise": 7137,
      "Ġlap": 7138,
      "Ġlace": 7139,
      "Ġlaps": 7140,
      "Ġlava": 7141,
      "eped": 7142,
      "Ġflip": 7143,
      "Ġflushed": 7144,
      "Ġflips": 7145,
      "ĠEdward": 7146,
      "ĠEnch": 7147,
      "Ġchop": 7148,
      "Ġchang": 7149,
      "Ġchara": 7150,
      "Ġchunk": 7151,
      "Ġchanges": 7152,
      "Ġchips": 7153,
      "Ġbrus": 7154,
      "Ġbrushed": 7155,
      "Ġgoodby": 7156,
      "Ġgoodness": 7157,
      "Ġswoop": 7158,
      "Ġswitched": 7159,
      "Ġswallowed": 7160,
      "Ġsadness": 7161,
      "ĠDay": 7162,
      "ĠDinner": 7163,
      "Ġthanking": 7164,
      "Ġeverytime": 7165,
      "Ġdecides": 7166,
      "Ġpopping": 7167,
      "Ġpollen": 7168,
      "Ġblur": 7169,
      "Ġblink": 7170,
      "ĠFather": 7171,
      "ĠFairy": 7172,
      "Ġwilling": 7173,
      "Ġvet": 7174,
      "Ġabsolutely": 7175,
      "Ġaboard": 7176,
      "Ġtap": 7177,
      "Ġkneeled": 7178,
      "antra": 7179,
      "Ġpeel": 7180,
      "Ġpecked": 7181,
      "Ġpeeled": 7182,
      "Ġpeeped": 7183,
      "Ġopin": 7184,
      "Ġoptions": 7185,
      "Ġsorted": 7186,
      "Ġraising": 7187,
      "Ġcommand": 7188,
      "Ġcatches": 7189,
      "Ġshowers": 7190,
      "Ġexplo": 7191,
      "Ġwatering": 7192,
      "Ġwaterfall": 7193,
      "inky": 7194,
      "Ġoverhead": 7195,
      "arefully": 7196,
      "Ġsnort": 7197,
      "Ġsnooze": 7198,
      "Ġenem": 7199,
      "Ġenemy": 7200,
      "Ġflowed": 7201,
      "Ġuntangled": 7202,
      "aks": 7203,
      "Ġquit": 7204,
      "Ġslap": 7205,
      "Ġslips": 7206,
      "Ġslither": 7207,
      "Ġslimy": 7208,
      "Ġbravest": 7209,
      "ortunately": 7210,
      "obody": 7211,
      "ĠCould": 7212,
      "ĠCarl": 7213,
      "oyed": 7214,
      "Ġchess": 7215,
      "Ġcheated": 7216,
      "Ġcheetah": 7217,
      "ÅĵA": 7218,
      "ÅĵH": 7219,
      "ÅĵThe": 7220,
      "ÅĵBut": 7221,
      "ÅĵWow": 7222,
      "ÅĵMaybe": 7223,
      "ÅĵDo": 7224,
      "ÅĵWhy": 7225,
      "ÅĵBe": 7226,
      "ÅĵWhere": 7227,
      "ÅĵAre": 7228,
      "ÅĵWho": 7229,
      "ÅĵHere": 7230,
      "ÅĵRemember": 7231,
      "Åĵyes": 7232,
      "ĠSoft": 7233,
      "ĠGarden": 7234,
      "Ġforesh": 7235,
      "Ġforehead": 7236,
      "Ġcleared": 7237,
      "Ġrocky": 7238,
      "Whenever": 7239,
      "Ġcupped": 7240,
      "Ġsurprising": 7241,
      "though": 7242,
      "Ġexplorer": 7243,
      "ĠRound": 7244,
      "ĠRain": 7245,
      "Ġunf": 7246,
      "Ġunh": 7247,
      "ĠPatch": 7248,
      "ĠPretty": 7249,
      "ĠPlay": 7250,
      "ĠPebble": 7251,
      "ĠPromise": 7252,
      "Ġwindy": 7253,
      "Ġwinding": 7254,
      "Ġclosest": 7255,
      "Ġconnection": 7256,
      "Ġconfusing": 7257,
      "Ġwalkie": 7258,
      "Ġcoloring": 7259,
      "Ġmagpie": 7260,
      "Ġwonders": 7261,
      "Ġcleans": 7262,
      "llowed": 7263,
      "Ġwrigg": 7264,
      "Ġsmiley": 7265,
      "Ġache": 7266,
      "Ġimportance": 7267,
      "Looks": 7268,
      "Ġbluebird": 7269,
      "Ġwarmed": 7270,
      "Ġwarming": 7271,
      "Ġopening": 7272,
      "Ġsoundly": 7273,
      "assing": 7274,
      "Ġarmy": 7275,
      "Ġjoins": 7276,
      "Ġbrightest": 7277,
      "ĠGrab": 7278,
      "Ġhandsome": 7279,
      "Ġcrops": 7280,
      "Ġleast": 7281,
      "ĠNot": 7282,
      "ĠNobody": 7283,
      "ĠJohnÃ¢": 7284,
      "Ġfills": 7285,
      "Ġsweeties": 7286,
      "Ġsweetness": 7287,
      "Josh": 7288,
      "Ġtalent": 7289,
      "Ġtalents": 7290,
      "Ġdrunk": 7291,
      "Ġdrowned": 7292,
      "Ġheading": 7293,
      "Ġsnowfl": 7294,
      "ĠJoeÃ¢": 7295,
      "Ġpajamas": 7296,
      "Ġlighting": 7297,
      "Ġsingle": 7298,
      "Ġlearns": 7299,
      "Ġgrassy": 7300,
      "Ġstepping": 7301,
      "Ġfarmers": 7302,
      "Ġzipping": 7303,
      "Ġsandals": 7304,
      "Jacky": 7305,
      "Ġfloat": 7306,
      "Ġ--": 7307,
      "Ġrubb": 7308,
      "Ġruler": 7309,
      "Ġhairdos": 7310,
      "Ġtastes": 7311,
      "boat": 7312,
      "Ġsailors": 7313,
      "Ġsailboat": 7314,
      "Ġdresser": 7315,
      "Ġdressing": 7316,
      "Ġcounts": 7317,
      "Ġresting": 7318,
      "Ġsongbird": 7319,
      "Ġdropping": 7320,
      "Ġperforman": 7321,
      "rotÃ¢": 7322,
      "Ġvisitors": 7323,
      "Ġpaints": 7324,
      "Ġtighter": 7325,
      "Ġsquigg": 7326,
      "Ġcuts": 7327,
      "Ġcutter": 7328,
      "Ġelbow": 7329,
      "Ġamong": 7330,
      "Ġmats": 7331,
      "ĠAfterwards": 7332,
      "Ġcasting": 7333,
      "Ġarmour": 7334,
      "Ġparted": 7335,
      "Ġshops": 7336,
      "Ġbows": 7337,
      "Ġbowed": 7338,
      "Ġtails": 7339,
      "ĠOut": 7340,
      "ĠOuch": 7341,
      "ĠOpen": 7342,
      "ĠOtherwise": 7343,
      "Ġsprang": 7344,
      "Ġsprung": 7345,
      "Ġanswers": 7346,
      "Ġhotter": 7347,
      "Ġyesterday": 7348,
      "Ġpatting": 7349,
      "Ġprove": 7350,
      "Ġproved": 7351,
      "Ġproba": 7352,
      "Ġmuscle": 7353,
      "Ġbaskets": 7354,
      "Ġmustn": 7355,
      "Ġmustered": 7356,
      "Ġfits": 7357,
      "Ġbeloved": 7358,
      "Ġhopeful": 7359,
      "Ġalongside": 7360,
      "Ġbathe": 7361,
      "Ġhealth": 7362,
      "ments": 7363,
      "Ġsmarts": 7364,
      "idents": 7365,
      "Ġplans": 7366,
      "Ġplanet": 7367,
      "Ġerased": 7368,
      "Ġvelv": 7369,
      "Ġwinked": 7370,
      "Ġnestled": 7371,
      "Ġfreezer": 7372,
      "Ġsmoothn": 7373,
      "Ġacting": 7374,
      "Ġaction": 7375,
      "Ġactions": 7376,
      "Ġharbor": 7377,
      "Ġcircus": 7378,
      "Ġafar": 7379,
      "Ġburns": 7380,
      "Ġmedium": 7381,
      "Ġhearts": 7382,
      "Ġrespond": 7383,
      "Ġerasers": 7384,
      "Ġmiles": 7385,
      "Ġhighest": 7386,
      "Ġpeacefully": 7387,
      "Ġpastries": 7388,
      "Ġmatching": 7389,
      "Ġentering": 7390,
      "Ġentrance": 7391,
      "Ġinvisible": 7392,
      "Ġwhistled": 7393,
      "ĠChad": 7394,
      "Ġembarrassing": 7395,
      "Ġpills": 7396,
      "Ġrecorder": 7397,
      "Ġcopied": 7398,
      "Ġtrusting": 7399,
      "Bobo": 7400,
      "Ġroads": 7401,
      "Ġtownspe": 7402,
      "Ġserving": 7403,
      "Ġlifts": 7404,
      "Ġspeaking": 7405,
      "Ġfigurine": 7406,
      "Ġcoral": 7407,
      "Ġpriv": 7408,
      "Goodnight": 7409,
      "Ġmint": 7410,
      "ĠThanks": 7411,
      "ĠThankfully": 7412,
      "Ġrelaxing": 7413,
      "Being": 7414,
      "Ġdriveway": 7415,
      "Ġoceans": 7416,
      "Ġsickness": 7417,
      "Ġweakness": 7418,
      "Ġpreserve": 7419,
      "Ġdeser": 7420,
      "Ġdeserve": 7421,
      "Ġminded": 7422,
      "ĠBees": 7423,
      "Ġscarves": 7424,
      "ĠWithout": 7425,
      "Ġtidying": 7426,
      "Still": 7427,
      "Ġpassion": 7428,
      "Ġteams": 7429,
      "Ġcelebration": 7430,
      "Ġtesting": 7431,
      "Ġself": 7432,
      "Ġsnakes": 7433,
      "Ġsnapping": 7434,
      "Ġsnaps": 7435,
      "Ġpleaded": 7436,
      "Ġglasses": 7437,
      "Ġcrabs": 7438,
      "Ġspoonful": 7439,
      "Ġvanish": 7440,
      "Ġvanilla": 7441,
      "Ġlayer": 7442,
      "Ġmotion": 7443,
      "ĠDonÃ¢": 7444,
      "Ġgenerations": 7445,
      "Ġgenerosity": 7446,
      "Ġselfishness": 7447,
      "Ġhurried": 7448,
      "Ġchopped": 7449,
      "Ġsurfing": 7450,
      "Ġcompleting": 7451,
      "Spark": 7452,
      "perature": 7453,
      "spassing": 7454,
      "welcome": 7455,
      "Ġcartoons": 7456,
      "Ġpays": 7457,
      "Toby": 7458,
      "Ġcushions": 7459,
      "Ġhamper": 7460,
      "Ġstreams": 7461,
      "Ġrotted": 7462,
      "Ġregister": 7463,
      "Ġbossing": 7464,
      "Ġcardboard": 7465,
      "Ġpouring": 7466,
      "Ġsheets": 7467,
      "Ġphotos": 7468,
      "Ġphotog": 7469,
      "Ġpencils": 7470,
      "Ġcuddle": 7471,
      "iderate": 7472,
      "Ġseeker": 7473,
      "Ġchecking": 7474,
      "Grace": 7475,
      "Gracie": 7476,
      "rays": 7477,
      "Ġcomplicated": 7478,
      "Ġcheering": 7479,
      "ĠRobbie": 7480,
      "Ġrescuing": 7481,
      "Ġsuggestions": 7482,
      "olors": 7483,
      "Ġlowered": 7484,
      "Ġleader": 7485,
      "Ġsweep": 7486,
      "Ġorganizing": 7487,
      "Ġstubbornness": 7488,
      "Ġnetworks": 7489,
      "Ġchocolates": 7490,
      "Ġscrunched": 7491,
      "Ġscratches": 7492,
      "Ġdiscovering": 7493,
      "Ġdiscoveries": 7494,
      "Ġsqueezes": 7495,
      "Ġstirs": 7496,
      "Ġscooping": 7497,
      "Ġmeasurer": 7498,
      "Ġcovering": 7499,
      "Ġcombing": 7500,
      "Ġsymbols": 7501,
      "Ġterrit": 7502,
      "Ġlending": 7503,
      "Ġsalty": 7504,
      "Ġreversing": 7505,
      "Ġseems": 7506,
      "Ġflapping": 7507,
      "Ġobediently": 7508,
      "Ġbananas": 7509,
      "Ġqueens": 7510,
      "Ġtickle": 7511,
      "Ġticket": 7512,
      "Ġfisherman": 7513,
      "Ġloading": 7514,
      "Ġbloomed": 7515,
      "Ġsniffs": 7516,
      "Ġsniffled": 7517,
      "Ġzookeeper": 7518,
      "Ġsettling": 7519,
      "Ġexperien": 7520,
      "Ġexperiment": 7521,
      "Ġspirits": 7522,
      "Ġtemperature": 7523,
      "Ġthud": 7524,
      "Ġreflect": 7525,
      "Ġjackets": 7526,
      "ictory": 7527,
      "Ġfolding": 7528,
      "Ġdisagree": 7529,
      "Ġresisted": 7530,
      "Ġpuzzled": 7531,
      "Ġapology": 7532,
      "Megan": 7533,
      "ivated": 7534,
      "Ġadding": 7535,
      "Ġaddress": 7536,
      "Ġaddressed": 7537,
      "Ġaddition": 7538,
      "Ġwiser": 7539,
      "Ġwisdom": 7540,
      "Ġgranddaughter": 7541,
      "ÅĵWhatÃ¢": 7542,
      "Ġprevented": 7543,
      "Ġcrawls": 7544,
      "Ġbillboards": 7545,
      "Ġrewarding": 7546,
      "Ġarrows": 7547,
      "Ġrainbows": 7548,
      "Ġavoid": 7549,
      "Ġthunderstorm": 7550,
      "Along": 7551,
      "Emily": 7552,
      "Without": 7553,
      "Ġsincere": 7554,
      "Ġdusty": 7555,
      "Ġgracefully": 7556,
      "Ġperformer": 7557,
      "Ġcobwebs": 7558,
      "ĠUnder": 7559,
      "Ġawful": 7560,
      "Ġaware": 7561,
      "Ġawhile": 7562,
      "Ġawesome": 7563,
      "Ġsiblings": 7564,
      "Ġhunters": 7565,
      "Ġcurly": 7566,
      "Ġdearly": 7567,
      "Ġpeanuts": 7568,
      "Ġexplains": 7569,
      "Ġexplaining": 7570,
      "Ġgrinning": 7571,
      "Ġconfidence": 7572,
      "Ġtriangles": 7573,
      "Ġinsects": 7574,
      "Charl": 7575,
      "Ġbasement": 7576,
      "Ġwaggy": 7577,
      "Ġfetched": 7578,
      "Ġpedaled": 7579,
      "Ġpedaling": 7580,
      "ĠShare": 7581,
      "ĠSteel": 7582,
      "Ġlicking": 7583,
      "ĠAgent": 7584,
      "Ġcaptivated": 7585,
      "Ġposters": 7586,
      "Ġbothering": 7587,
      "Ġresponsibility": 7588,
      "Ġguessing": 7589,
      "ĠChris": 7590,
      "Flopsy": 7591,
      "uttered": 7592,
      "uttering": 7593,
      "Ġrusty": 7594,
      "ĠAlma": 7595,
      "ĠJessy": 7596,
      "ĠJessie": 7597,
      "ĠJessica": 7598,
      "Ġvalleys": 7599,
      "Ġstruggled": 7600,
      "Ġfireworks": 7601,
      "Ġmagnif": 7602,
      "Ġmagnets": 7603,
      "Ġapproach": 7604,
      "Ġdelivering": 7605,
      "Ġemerged": 7606,
      "Amelia": 7607,
      "Ġhesitated": 7608,
      "Ġponytail": 7609,
      "Ġfacts": 7610,
      "Ġchallenges": 7611,
      "uctions": 7612,
      "Ġmodels": 7613,
      "Ġstroller": 7614,
      "Ġrepairman": 7615,
      "Ġsirens": 7616,
      "Isn": 7617,
      "Leave": 7618,
      "Really": 7619,
      "Ġ15": 7620,
      "Ġpumpkin": 7621,
      "Ġpumpkins": 7622,
      "Ġstomp": 7623,
      "Ġsoaring": 7624,
      "Ġreleasing": 7625,
      "Ġreceived": 7626,
      "Ġreveal": 7627,
      "Ġchatting": 7628,
      "Ġenvironment": 7629,
      "Ġscratchy": 7630,
      "Excitedly": 7631,
      "Surrender": 7632,
      "Ġbumps": 7633,
      "Ġbumped": 7634,
      "Ġwaists": 7635,
      "Ġurge": 7636,
      "Ġshooed": 7637,
      "Ġbulbs": 7638,
      "Ġforgiving": 7639,
      "ĠOwl": 7640,
      "Ġdisturbed": 7641,
      "Frankie": 7642,
      "Ġinstructions": 7643,
      "Bobbie": 7644,
      "Jenna": 7645,
      "Shh": 7646,
      "Shoo": 7647,
      "ĠVery": 7648,
      "ĠVictory": 7649,
      "Ġhelmets": 7650,
      "Ġrattled": 7651,
      "Ġsewed": 7652,
      "Ġspills": 7653,
      "Ġscurry": 7654,
      "Ġfluttered": 7655,
      "Ġvoices": 7656,
      "ĠColl": 7657,
      "ĠCoffee": 7658,
      "Ġwobbled": 7659,
      "Ġapplaud": 7660,
      "Ġactivity": 7661,
      "Ġcupcake": 7662,
      "Ġobserve": 7663,
      "Ġpunishment": 7664,
      "True": 7665,
      "piece": 7666,
      "Ġtummies": 7667,
      "Ġfreedom": 7668,
      "Ġcalmed": 7669,
      "Ġcalming": 7670,
      "Ġcorners": 7671,
      "Ġinspired": 7672,
      "Ġinspiring": 7673,
      "Ġallowance": 7674,
      "Ġclowns": 7675,
      "Ġcashier": 7676,
      "Ġdoorbells": 7677,
      "Ġarranged": 7678,
      "Ġmasterpiece": 7679,
      "Ġsquawk": 7680,
      "Ġsquawking": 7681,
      "Ġexpecting": 7682,
      "Ġpossession": 7683,
      "Ġpossessions": 7684,
      "Ġforgiveness": 7685,
      "Ġfascinated": 7686,
      "Ġfascinating": 7687,
      "Ġmaterial": 7688,
      "Ġmaterials": 7689,
      "Ġrecognized": 7690,
      "Chew": 7691,
      "Maggie": 7692,
      "Olivia": 7693,
      "Sadly": 7694,
      "Whee": 7695,
      "helloÃ¢": 7696,
      "Ġaisle": 7697,
      "Ġafford": 7698,
      "Ġsyrup": 7699,
      "Ġdarling": 7700,
      "Ġheels": 7701,
      "Ġpants": 7702,
      "Ġsavor": 7703,
      "ĠSnowman": 7704,
      "Ġstamped": 7705,
      "Ġbeetles": 7706,
      "ĠLooking": 7707,
      "Ġweekend": 7708,
      "Ġshaky": 7709,
      "Ġreassured": 7710,
      "Ġannoyed": 7711,
      "Ġseagrass": 7712,
      "ĠAnother": 7713,
      "Ġflickering": 7714,
      "Ġtransfor": 7715,
      "ĠRichie": 7716,
      "Ġunwrapped": 7717,
      "Ġconsiderate": 7718,
      "Ġconcentr": 7719,
      "Ġmonths": 7720,
      "Ġpanicked": 7721,
      "Ġinterested": 7722,
      "Ġescaped": 7723,
      "Ġcorrectly": 7724,
      "Ġtemptation": 7725,
      "Ġgrandchildren": 7726,
      "Ġappreciated": 7727,
      "ĠUnfortunately": 7728,
      "Ġconflict": 7729,
      "Ġtravelled": 7730,
      "Surprise": 7731,
      "ĠExcitedly": 7732,
      "Ġoverwhelmed": 7733,
      "Feeling": 7734,
      "Swinging": 7735,
      "Steve": 7736,
      "arettes": 7737,
      "smelling": 7738,
      "talkies": 7739,
      "Ġindeed": 7740,
      "Ġastonished": 7741,
      "Ġsensation": 7742,
      "Ġsimply": 7743,
      "Ġtheatre": 7744,
      "reetings": 7745,
      "Ġfaint": 7746,
      "Ġfaraway": 7747,
      "Ġcigarettes": 7748,
      "Ġcenter": 7749,
      "Ġcoughing": 7750,
      "Ġcousins": 7751,
      "Ġlarger": 7752,
      "Ġdetails": 7753,
      "Ġdessert": 7754,
      "Ġdarlings": 7755,
      "Ġpelted": 7756,
      "Ġmermaids": 7757,
      "Ġnicest": 7758,
      "Ġnuzzled": 7759,
      "ĠSecret": 7760,
      "ĠSisters": 7761,
      "ĠHurry": 7762,
      "ĠHalloween": 7763,
      "Ġunable": 7764,
      "Ġyelped": 7765,
      "Ġstunned": 7766,
      "Ġsturdy": 7767,
      "ĠBooks": 7768,
      "ĠBuilding": 7769,
      "Ġliquid": 7770,
      "Ġdoctors": 7771,
      "Ġshimmering": 7772,
      "Ġrelief": 7773,
      "Ġresolved": 7774,
      "Ġrejoiced": 7775,
      "ĠMusic": 7776,
      "Ġassistant": 7777,
      "Ġspooky": 7778,
      "Ġjuggle": 7779,
      "ĠAccidents": 7780,
      "Ġclambered": 7781,
      "Ġclippers": 7782,
      "ĠWednesday": 7783,
      "Ġrobbers": 7784,
      "ĠEnchantra": 7785,
      "Ġchanging": 7786,
      "Ġcharacter": 7787,
      "Ġgoodbyes": 7788,
      "Ġsnorted": 7789,
      "Ġenemies": 7790,
      "ĠCarlos": 7791,
      "Ġforeshadowed": 7792,
      "Ġsnowflakes": 7793,
      "Ġperformance": 7794,
      "Ġprobably": 7795,
      "Ġvelvet": 7796,
      "Ġsmoothness": 7797,
      "Ġresponded": 7798,
      "Ġtownspeople": 7799,
      "Ġterritory": 7800,
      "Charlotte": 7801,
      "Ġtransformed": 7802,
      "'.\"": 7803,
      "'!\"": 7804,
      "'\".": 7805,
      "?!\"": 7806,
      "?,\"": 7807,
      "AV": 7808,
      "An": 7809,
      "Ach": 7810,
      "Ang": 7811,
      "Aaron": 7812,
      "Adding": 7813,
      "Arrr": 7814,
      "BR": 7815,
      "Ble": 7816,
      "Bir": 7817,
      "Bur": 7818,
      "Bang": 7819,
      "Beth": 7820,
      "Bugs": 7821,
      "Bury": 7822,
      "Bumbus": 7823,
      "CH": 7824,
      "Ca": 7825,
      "Cool": 7826,
      "Cora": 7827,
      "Class": 7828,
      "Crystal": 7829,
      "Clyde": 7830,
      "Carla": 7831,
      "Caterina": 7832,
      "Carefully": 7833,
      "Colors": 7834,
      "DO": 7835,
      "De": 7836,
      "Del": 7837,
      "Determ": 7838,
      "Dinner": 7839,
      "Drop": 7840,
      "Despite": 7841,
      "ED": 7842,
      "Ew": 7843,
      "Ellie": 7844,
      "Fo": 7845,
      "Fun": 7846,
      "Fore": 7847,
      "Fur": 7848,
      "Five": 7849,
      "Fairy": 7850,
      "Fortunately": 7851,
      "Get": 7852,
      "Gob": 7853,
      "Gaby": 7854,
      "Greetings": 7855,
      "Hal": 7856,
      "Has": 7857,
      "Honey": 7858,
      "Hope": 7859,
      "Im": 7860,
      "Jeremy": 7861,
      "Jamie": 7862,
      "Jacob": 7863,
      "Joni": 7864,
      "Julia": 7865,
      "Kory": 7866,
      "Lo": 7867,
      "Lara": 7868,
      "Lilly": 7869,
      "Los": 7870,
      "Listen": 7871,
      "Lynn": 7872,
      "Man": 7873,
      "Mon": 7874,
      "Mouse": 7875,
      "Mother": 7876,
      "Mem": 7877,
      "Moon": 7878,
      "Melly": 7879,
      "Many": 7880,
      "Maddie": 7881,
      "Mimi": 7882,
      "Merry": 7883,
      "Mission": 7884,
      "Melinda": 7885,
      "Nine": 7886,
      "Number": 7887,
      "Nutty": 7888,
      "OT": 7889,
      "OU": 7890,
      "Over": 7891,
      "Open": 7892,
      "Pet": 7893,
      "Pow": 7894,
      "Put": 7895,
      "Pause": 7896,
      "Polly": 7897,
      "Pumpy": 7898,
      "Poppy": 7899,
      "Phil": 7900,
      "Play": 7901,
      "Pebble": 7902,
      "PED": 7903,
      "Red": 7904,
      "Right": 7905,
      "Rus": 7906,
      "Rock": 7907,
      "Rac": 7908,
      "Rub": 7909,
      "Remy": 7910,
      "Sc": 7911,
      "Sn": 7912,
      "Some": 7913,
      "Sister": 7914,
      "Sitting": 7915,
      "Since": 7916,
      "Seamus": 7917,
      "Snow": 7918,
      "Slowly": 7919,
      "Ted": 7920,
      "Ten": 7921,
      "Tony": 7922,
      "Two": 7923,
      "Tammy": 7924,
      "Teach": 7925,
      "TOP": 7926,
      "Up": 7927,
      "Using": 7928,
      "Wh": 7929,
      "Wo": 7930,
      "War": 7931,
      "Want": 7932,
      "Willy": 7933,
      "Walter": 7934,
      "Yup": 7935,
      "Yipp": 7936,
      "Zip": 7937,
      "Zoey": 7938,
      "aut": 7939,
      "away": 7940,
      "apped": 7941,
      "afe": 7942,
      "abbed": 7943,
      "aster": 7944,
      "appy": 7945,
      "ability": 7946,
      "abra": 7947,
      "bed": 7948,
      "bit": 7949,
      "bug": 7950,
      "bro": 7951,
      "bul": 7952,
      "bling": 7953,
      "bating": 7954,
      "because": 7955,
      "bition": 7956,
      "cl": 7957,
      "che": 7958,
      "cat": 7959,
      "can": 7960,
      "cot": 7961,
      "coo": 7962,
      "cri": 7963,
      "cad": 7964,
      "could": 7965,
      "cal": 7966,
      "cra": 7967,
      "cop": 7968,
      "cret": 7969,
      "count": 7970,
      "cross": 7971,
      "cony": 7972,
      "chest": 7973,
      "des": 7974,
      "del": 7975,
      "dget": 7976,
      "ders": 7977,
      "dvent": 7978,
      "dog": 7979,
      "duce": 7980,
      "eve": 7981,
      "every": 7982,
      "eking": 7983,
      "eak": 7984,
      "eater": 7985,
      "fs": 7986,
      "fing": 7987,
      "found": 7988,
      "fight": 7989,
      "father": 7990,
      "feter": 7991,
      "form": 7992,
      "fric": 7993,
      "flow": 7994,
      "flowers": 7995,
      "faced": 7996,
      "finder": 7997,
      "gart": 7998,
      "good": 7999,
      "gant": 8000,
      "gth": 8001,
      "green": 8002,
      "ggies": 8003,
      "hi": 8004,
      "how": 8005,
      "hind": 8006,
      "house": 8007,
      "hand": 8008,
      "hale": 8009,
      "iqu": 8010,
      "iven": 8011,
      "ives": 8012,
      "ibble": 8013,
      "ibly": 8014,
      "jest": 8015,
      "kward": 8016,
      "lo": 8017,
      "ls": 8018,
      "len": 8019,
      "lack": 8020,
      "lic": 8021,
      "las": 8022,
      "lers": 8023,
      "lied": 8024,
      "like": 8025,
      "lts": 8026,
      "liest": 8027,
      "lti": 8028,
      "listen": 8029,
      "laces": 8030,
      "ms": 8031,
      "mel": 8032,
      "mother": 8033,
      "mount": 8034,
      "mons": 8035,
      "moon": 8036,
      "match": 8037,
      "mmediately": 8038,
      "munity": 8039,
      "ne": 8040,
      "nk": 8041,
      "non": 8042,
      "nut": 8043,
      "nings": 8044,
      "ners": 8045,
      "nock": 8046,
      "nee": 8047,
      "nier": 8048,
      "niqu": 8049,
      "oing": 8050,
      "oes": 8051,
      "oss": 8052,
      "oving": 8053,
      "oken": 8054,
      "oors": 8055,
      "py": 8056,
      "pit": 8057,
      "pic": 8058,
      "para": 8059,
      "pect": 8060,
      "pired": 8061,
      "pose": 8062,
      "pretty": 8063,
      "ror": 8064,
      "rch": 8065,
      "rous": 8066,
      "ront": 8067,
      "rator": 8068,
      "rops": 8069,
      "rks": 8070,
      "sna": 8071,
      "save": 8072,
      "sers": 8073,
      "sive": 8074,
      "shes": 8075,
      "sons": 8076,
      "sign": 8077,
      "siest": 8078,
      "sured": 8079,
      "try": 8080,
      "top": 8081,
      "tally": 8082,
      "tak": 8083,
      "tling": 8084,
      "tment": 8085,
      "tuce": 8086,
      "treat": 8087,
      "uh": 8088,
      "uo": 8089,
      "uel": 8090,
      "ulp": 8091,
      "under": 8092,
      "uess": 8093,
      "ude": 8094,
      "uises": 8095,
      "uising": 8096,
      "vn": 8097,
      "vice": 8098,
      "vas": 8099,
      "vings": 8100,
      "vious": 8101,
      "vable": 8102,
      "vroom": 8103,
      "wow": 8104,
      "will": 8105,
      "when": 8106,
      "ware": 8107,
      "wled": 8108,
      "why": 8109,
      "wee": 8110,
      "while": 8111,
      "xe": 8112,
      "xed": 8113,
      "xophone": 8114,
      "ype": 8115,
      "yjamas": 8116,
      "zag": 8117,
      "zero": 8118,
      "zipping": 8119,
      "Â¦": 8120,
      "ĊĊ": 8121,
      "Ġ$": 8122,
      "Ġ5": 8123,
      "Ġ6": 8124,
      "Ġ8": 8125,
      "Ġ9": 8126,
      "ĠX": 8127,
      "ĠOh": 8128,
      "hey": 8129,
      "Ġtv": 8130,
      "Ġtig": 8131,
      "Ġtad": 8132,
      "Ġtart": 8133,
      "Ġtas": 8134,
      "Ġtax": 8135,
      "Ġtink": 8136,
      "Ġtugg": 8137,
      "Ġtips": 8138,
      "Ġtiring": 8139,
      "Ġtending": 8140,
      "Ġtype": 8141,
      "Ġaid": 8142,
      "Ġack": 8143,
      "Ġaward": 8144,
      "Ġaimed": 8145,
      "Ġaud": 8146,
      "Ġaxe": 8147,
      "Ġsom": 8148,
      "Ġsoo": 8149,
      "Ġsly": 8150,
      "Ġsill": 8151,
      "Ġsuck": 8152,
      "Ġsus": 8153,
      "Ġsess": 8154,
      "Ġsite": 8155,
      "Ġsipped": 8156,
      "Ġsips": 8157,
      "Ġsense": 8158,
      "Ġsection": 8159,
      "Ġwed": 8160,
      "Ġwit": 8161,
      "Ġwil": 8162,
      "nding": 8163,
      "ndis": 8164,
      "ndition": 8165,
      "ndrous": 8166,
      "edic": 8167,
      "edience": 8168,
      "Ġtoll": 8169,
      "Ġtone": 8170,
      "Ġtorch": 8171,
      "Ġtotally": 8172,
      "Ġbay": 8173,
      "Ġbound": 8174,
      "Ġbudd": 8175,
      "Ġbless": 8176,
      "Ġborn": 8177,
      "Ġbumpy": 8178,
      "Ġbuddy": 8179,
      "inite": 8180,
      "inted": 8181,
      "inated": 8182,
      "innier": 8183,
      "Ġhs": 8184,
      "Ġhood": 8185,
      "Ġhive": 8186,
      "Ġhuff": 8187,
      "Ġhitting": 8188,
      "Ġhilt": 8189,
      "Ġhuh": 8190,
      "Ġwaking": 8191
    },
    "merges": [
      [
        "h",
        "e"
      ],
      [
        "Ġ",
        "t"
      ],
      [
        "Ġ",
        "a"
      ],
      [
        "Ġ",
        "s"
      ],
      [
        "Ġ",
        "w"
      ],
      [
        "n",
        "d"
      ],
      [
        "Ġt",
        "he"
      ],
      [
        "e",
        "d"
      ],
      [
        "Ġa",
        "nd"
      ],
      [
        "Ġt",
        "o"
      ],
      [
        "Ġ",
        "b"
      ],
      [
        "i",
        "n"
      ],
      [
        "Ġ",
        "h"
      ],
      [
        "Ġw",
        "a"
      ],
      [
        "r",
        "e"
      ],
      [
        "o",
        "u"
      ],
      [
        "Ġ",
        "f"
      ],
      [
        "i",
        "t"
      ],
      [
        "Ġ",
        "c"
      ],
      [
        "Ġ",
        "l"
      ],
      [
        "e",
        "r"
      ],
      [
        "Ġ",
        "d"
      ],
      [
        "Ġ",
        "he"
      ],
      [
        "Ġwa",
        "s"
      ],
      [
        "Ġ",
        "p"
      ],
      [
        "Ġ",
        "m"
      ],
      [
        "o",
        "m"
      ],
      [
        "Ġ",
        "T"
      ],
      [
        "Ġ",
        "o"
      ],
      [
        "a",
        "y"
      ],
      [
        "a",
        "r"
      ],
      [
        "in",
        "g"
      ],
      [
        "i",
        "s"
      ],
      [
        "Ġ",
        "g"
      ],
      [
        "i",
        "l"
      ],
      [
        "i",
        "d"
      ],
      [
        "a",
        "t"
      ],
      [
        "e",
        "n"
      ],
      [
        "Ġ",
        "n"
      ],
      [
        "Ġs",
        "a"
      ],
      [
        "Ġh",
        "a"
      ],
      [
        "ĠT",
        "he"
      ],
      [
        "a",
        "n"
      ],
      [
        "Ġ",
        "S"
      ],
      [
        "o",
        "r"
      ],
      [
        "i",
        "m"
      ],
      [
        "o",
        "n"
      ],
      [
        "Ġt",
        "h"
      ],
      [
        "Ġ",
        "it"
      ],
      [
        "l",
        "l"
      ],
      [
        "l",
        "e"
      ],
      [
        "Ġ",
        "H"
      ],
      [
        "o",
        "t"
      ],
      [
        "e",
        "t"
      ],
      [
        "ĠH",
        "e"
      ],
      [
        "i",
        "r"
      ],
      [
        "Ġhe",
        "r"
      ],
      [
        "ĠS",
        "he"
      ],
      [
        "Ġ",
        "in"
      ],
      [
        "e",
        "s"
      ],
      [
        "v",
        "er"
      ],
      [
        "c",
        "k"
      ],
      [
        "o",
        "w"
      ],
      [
        "u",
        "t"
      ],
      [
        "Ġ",
        "e"
      ],
      [
        "l",
        "d"
      ],
      [
        "ĠThe",
        "y"
      ],
      [
        "Ġ",
        "u"
      ],
      [
        "o",
        "o"
      ],
      [
        "i",
        "g"
      ],
      [
        "Ġ",
        "y"
      ],
      [
        "Ġs",
        "t"
      ],
      [
        "Ġb",
        "e"
      ],
      [
        "Ġ",
        "r"
      ],
      [
        "Ġsa",
        "id"
      ],
      [
        "a",
        "m"
      ],
      [
        "Ġ",
        "\""
      ],
      [
        "Ġs",
        "he"
      ],
      [
        "c",
        "e"
      ],
      [
        "Ġ",
        "I"
      ],
      [
        "p",
        "p"
      ],
      [
        "v",
        "e"
      ],
      [
        "k",
        "e"
      ],
      [
        "il",
        "y"
      ],
      [
        "it",
        "h"
      ],
      [
        "Ġw",
        "ith"
      ],
      [
        "Ġo",
        "f"
      ],
      [
        "O",
        "n"
      ],
      [
        "k",
        "ed"
      ],
      [
        "Ġo",
        "n"
      ],
      [
        "Ġs",
        "o"
      ],
      [
        "Ġh",
        "is"
      ],
      [
        "Ġy",
        "ou"
      ],
      [
        "r",
        "i"
      ],
      [
        "ver",
        "y"
      ],
      [
        "a",
        "d"
      ],
      [
        "Ġ",
        "L"
      ],
      [
        "n",
        "t"
      ],
      [
        "Ġp",
        "l"
      ],
      [
        "Ġth",
        "at"
      ],
      [
        "Ġd",
        "ay"
      ],
      [
        "Ġu",
        "p"
      ],
      [
        "Ġha",
        "d"
      ],
      [
        "Ġthe",
        "y"
      ],
      [
        "s",
        "t"
      ],
      [
        "Ġpl",
        "ay"
      ],
      [
        "Ġw",
        "e"
      ],
      [
        "ou",
        "ld"
      ],
      [
        "Ġf",
        "or"
      ],
      [
        "s",
        "e"
      ],
      [
        "u",
        "n"
      ],
      [
        "Ġm",
        "om"
      ],
      [
        "'",
        "s"
      ],
      [
        "Ġ",
        "B"
      ],
      [
        "ĠL",
        "ily"
      ],
      [
        "m",
        "y"
      ],
      [
        "Ġl",
        "i"
      ],
      [
        "T",
        "he"
      ],
      [
        "en",
        "t"
      ],
      [
        "Ġha",
        "pp"
      ],
      [
        "l",
        "y"
      ],
      [
        "c",
        "h"
      ],
      [
        "ou",
        "t"
      ],
      [
        "Ġd",
        "o"
      ],
      [
        "Ġs",
        "h"
      ],
      [
        "it",
        "t"
      ],
      [
        "he",
        "r"
      ],
      [
        "ou",
        "nd"
      ],
      [
        "Ġwa",
        "nt"
      ],
      [
        "a",
        "ll"
      ],
      [
        "om",
        "e"
      ],
      [
        "Ġn",
        "ot"
      ],
      [
        "Ġ",
        "very"
      ],
      [
        "im",
        "e"
      ],
      [
        "Ġw",
        "h"
      ],
      [
        "h",
        "t"
      ],
      [
        "e",
        "l"
      ],
      [
        "Ġt",
        "ime"
      ],
      [
        "Ġ",
        "re"
      ],
      [
        "a",
        "l"
      ],
      [
        "r",
        "a"
      ],
      [
        "Ġ",
        "k"
      ],
      [
        "e",
        "nd"
      ],
      [
        "itt",
        "le"
      ],
      [
        "Ġthe",
        "re"
      ],
      [
        "Ġl",
        "ittle"
      ],
      [
        "Ġn",
        "e"
      ],
      [
        "Ġb",
        "ig"
      ],
      [
        "Ġs",
        "m"
      ],
      [
        "a",
        "ck"
      ],
      [
        "Ġhapp",
        "y"
      ],
      [
        "r",
        "y"
      ],
      [
        "Ġ",
        "M"
      ],
      [
        "ĠI",
        "t"
      ],
      [
        "Ġ",
        "Ċ"
      ],
      [
        "Ġa",
        "n"
      ],
      [
        "Ġb",
        "ut"
      ],
      [
        "Ġsa",
        "w"
      ],
      [
        "Ġa",
        "s"
      ],
      [
        "Ġ",
        "is"
      ],
      [
        ".",
        "\""
      ],
      [
        "ri",
        "end"
      ],
      [
        "v",
        "ed"
      ],
      [
        "Ġf",
        "riend"
      ],
      [
        "u",
        "g"
      ],
      [
        "o",
        "re"
      ],
      [
        "On",
        "e"
      ],
      [
        "'",
        "t"
      ],
      [
        "id",
        "e"
      ],
      [
        "!",
        "\""
      ],
      [
        "t",
        "er"
      ],
      [
        "a",
        "ke"
      ],
      [
        "Ġl",
        "o"
      ],
      [
        "On",
        "ce"
      ],
      [
        "Ġl",
        "oo"
      ],
      [
        "Ġwe",
        "re"
      ],
      [
        "e",
        "c"
      ],
      [
        "ar",
        "d"
      ],
      [
        "Ġh",
        "im"
      ],
      [
        "Ġto",
        "o"
      ],
      [
        "Ġs",
        "e"
      ],
      [
        "Ġg",
        "o"
      ],
      [
        "Ġ",
        "out"
      ],
      [
        "u",
        "r"
      ],
      [
        "il",
        "l"
      ],
      [
        "Ġwant",
        "ed"
      ],
      [
        "w",
        "ay"
      ],
      [
        "Ġs",
        "p"
      ],
      [
        "Ġb",
        "o"
      ],
      [
        "Ġup",
        "on"
      ],
      [
        "f",
        "u"
      ],
      [
        "ir",
        "l"
      ],
      [
        "ĠT",
        "im"
      ],
      [
        "Ġc",
        "ould"
      ],
      [
        "Ġa",
        "t"
      ],
      [
        "Ġg",
        "irl"
      ],
      [
        "Ġthe",
        "m"
      ],
      [
        "Ġe",
        "x"
      ],
      [
        "Ġ",
        "j"
      ],
      [
        "Ġ",
        "A"
      ],
      [
        "he",
        "n"
      ],
      [
        "Ġthe",
        "ir"
      ],
      [
        "Ġsm",
        "il"
      ],
      [
        "r",
        "ound"
      ],
      [
        "i",
        "nd"
      ],
      [
        "Ġd",
        "id"
      ],
      [
        "Ġa",
        "re"
      ],
      [
        "r",
        "om"
      ],
      [
        "Ġ",
        "J"
      ],
      [
        "Ġha",
        "ve"
      ],
      [
        "i",
        "c"
      ],
      [
        "he",
        "d"
      ],
      [
        "Ġw",
        "ent"
      ],
      [
        "h",
        "ing"
      ],
      [
        "Ġk",
        "n"
      ],
      [
        "ar",
        "t"
      ],
      [
        "ig",
        "ht"
      ],
      [
        "fu",
        "l"
      ],
      [
        "l",
        "p"
      ],
      [
        "on",
        "e"
      ],
      [
        "a",
        "in"
      ],
      [
        "oo",
        "d"
      ],
      [
        "Ġb",
        "ack"
      ],
      [
        "Ġhe",
        "lp"
      ],
      [
        "ar",
        "k"
      ],
      [
        "?",
        "\""
      ],
      [
        "Ġa",
        "ll"
      ],
      [
        "o",
        "p"
      ],
      [
        "Ġc",
        "an"
      ],
      [
        "Ġc",
        "l"
      ],
      [
        "ĠB",
        "en"
      ],
      [
        "Ġn",
        "am"
      ],
      [
        "Ġfriend",
        "s"
      ],
      [
        "ĠT",
        "om"
      ],
      [
        "Ġa",
        "l"
      ],
      [
        "Ġs",
        "ay"
      ],
      [
        "Ġc",
        "a"
      ],
      [
        "u",
        "m"
      ],
      [
        "Ġl",
        "e"
      ],
      [
        "i",
        "ck"
      ],
      [
        "el",
        "t"
      ],
      [
        "Ġa",
        "round"
      ],
      [
        "Ġf",
        "un"
      ],
      [
        "Y",
        "ou"
      ],
      [
        "Ġn",
        "o"
      ],
      [
        "s",
        "ide"
      ],
      [
        "Ġsmil",
        "ed"
      ],
      [
        "Ġf",
        "elt"
      ],
      [
        "i",
        "ce"
      ],
      [
        "ou",
        "g"
      ],
      [
        "Ġlo",
        "ved"
      ],
      [
        "Ġm",
        "an"
      ],
      [
        "Ġs",
        "c"
      ],
      [
        "Ġto",
        "y"
      ],
      [
        "Ġ",
        "W"
      ],
      [
        "Ġnam",
        "ed"
      ],
      [
        "Ġt",
        "re"
      ],
      [
        "am",
        "e"
      ],
      [
        "Ġas",
        "ked"
      ],
      [
        "Ġse",
        "e"
      ],
      [
        "Ġloo",
        "ked"
      ],
      [
        "Ġf",
        "e"
      ],
      [
        "Ġ",
        "One"
      ],
      [
        "om",
        "et"
      ],
      [
        "a",
        "s"
      ],
      [
        "Ġr",
        "o"
      ],
      [
        "Ġw",
        "ould"
      ],
      [
        "Ġb",
        "ir"
      ],
      [
        "r",
        "o"
      ],
      [
        "Ġm",
        "e"
      ],
      [
        "u",
        "re"
      ],
      [
        "Ġst",
        "art"
      ],
      [
        "Ġli",
        "ke"
      ],
      [
        "Ġs",
        "ome"
      ],
      [
        "Ġs",
        "omet"
      ],
      [
        "g",
        "et"
      ],
      [
        "Ġw",
        "or"
      ],
      [
        "on",
        "g"
      ],
      [
        "Ġbir",
        "d"
      ],
      [
        "d",
        "d"
      ],
      [
        "Ġa",
        "way"
      ],
      [
        "Ġf",
        "a"
      ],
      [
        "ing",
        "s"
      ],
      [
        "ĠTim",
        "my"
      ],
      [
        "Ġbo",
        "y"
      ],
      [
        ",",
        "\""
      ],
      [
        "ow",
        "n"
      ],
      [
        "Ġr",
        "an"
      ],
      [
        "ou",
        "d"
      ],
      [
        "Ġc",
        "o"
      ],
      [
        "ar",
        "ed"
      ],
      [
        "i",
        "f"
      ],
      [
        "Ġstart",
        "ed"
      ],
      [
        "k",
        "ing"
      ],
      [
        "ad",
        "e"
      ],
      [
        "ĠB",
        "ut"
      ],
      [
        "Ġsomet",
        "hing"
      ],
      [
        "Ġwh",
        "at"
      ],
      [
        "Ã",
        "¢"
      ],
      [
        "â",
        "Ĥ"
      ],
      [
        "âĤ",
        "¬"
      ],
      [
        "i",
        "e"
      ],
      [
        "Ġh",
        "ome"
      ],
      [
        "get",
        "her"
      ],
      [
        "Ġsay",
        "s"
      ],
      [
        "b",
        "le"
      ],
      [
        "Ġf",
        "rom"
      ],
      [
        "Ġa",
        "g"
      ],
      [
        "Ġc",
        "ar"
      ],
      [
        "pp",
        "ed"
      ],
      [
        "it",
        "ed"
      ],
      [
        "Ġex",
        "c"
      ],
      [
        "Ġ",
        "You"
      ],
      [
        "t",
        "her"
      ],
      [
        "Ġp",
        "ark"
      ],
      [
        "e",
        "ll"
      ],
      [
        "Ġm",
        "ade"
      ],
      [
        "a",
        "g"
      ],
      [
        "oo",
        "k"
      ],
      [
        "Ġto",
        "gether"
      ],
      [
        "Ġl",
        "a"
      ],
      [
        "Ġne",
        "w"
      ],
      [
        "Ġo",
        "ther"
      ],
      [
        "Ġh",
        "ug"
      ],
      [
        "Ġwa",
        "l"
      ],
      [
        "p",
        "l"
      ],
      [
        "Ġdo",
        "g"
      ],
      [
        "Ġm",
        "ake"
      ],
      [
        "e",
        "p"
      ],
      [
        "Ġf",
        "l"
      ],
      [
        "L",
        "ily"
      ],
      [
        "Ġwh",
        "o"
      ],
      [
        "Ġw",
        "hen"
      ],
      [
        "Ġp",
        "r"
      ],
      [
        "Ġ",
        "E"
      ],
      [
        "Ġm",
        "u"
      ],
      [
        "es",
        "t"
      ],
      [
        "Ġc",
        "h"
      ],
      [
        "all",
        "y"
      ],
      [
        "Ġp",
        "ut"
      ],
      [
        "Ġtre",
        "e"
      ],
      [
        "ou",
        "s"
      ],
      [
        "Ġthe",
        "n"
      ],
      [
        "Ġb",
        "r"
      ],
      [
        "Ġg",
        "ood"
      ],
      [
        "u",
        "ck"
      ],
      [
        "Ġag",
        "ain"
      ],
      [
        "h",
        "at"
      ],
      [
        "Ġg",
        "et"
      ],
      [
        "Ġs",
        "w"
      ],
      [
        "Ġd",
        "ec"
      ],
      [
        "Ġsa",
        "d"
      ],
      [
        "Ġf",
        "ound"
      ],
      [
        "a",
        "ch"
      ],
      [
        "Ġexc",
        "ited"
      ],
      [
        "s",
        "s"
      ],
      [
        "oug",
        "ht"
      ],
      [
        "ri",
        "ed"
      ],
      [
        "f",
        "e"
      ],
      [
        "Ġth",
        "ings"
      ],
      [
        "Ġplay",
        "ing"
      ],
      [
        "Ġ",
        "D"
      ],
      [
        "u",
        "e"
      ],
      [
        "Ġth",
        "an"
      ],
      [
        "Ġon",
        "e"
      ],
      [
        "Ġbe",
        "c"
      ],
      [
        "ĠM",
        "om"
      ],
      [
        "n",
        "y"
      ],
      [
        "Ġe",
        "very"
      ],
      [
        "Ġsc",
        "ared"
      ],
      [
        "b",
        "b"
      ],
      [
        "ou",
        "se"
      ],
      [
        "Ġc",
        "ame"
      ],
      [
        "Ġli",
        "ked"
      ],
      [
        "Ġdec",
        "id"
      ],
      [
        "u",
        "dd"
      ],
      [
        "Ġp",
        "o"
      ],
      [
        "Ġb",
        "l"
      ],
      [
        "Ġdecid",
        "ed"
      ],
      [
        "Ġca",
        "re"
      ],
      [
        "Ġg",
        "ot"
      ],
      [
        "Ġ",
        "F"
      ],
      [
        "is",
        "e"
      ],
      [
        "u",
        "st"
      ],
      [
        "Ġw",
        "ill"
      ],
      [
        "Ġ",
        "ke"
      ],
      [
        "Ġ",
        "v"
      ],
      [
        "Ġf",
        "ind"
      ],
      [
        "Ġyou",
        "r"
      ],
      [
        "a",
        "x"
      ],
      [
        "u",
        "s"
      ],
      [
        "Ġfe",
        "el"
      ],
      [
        "Ġd",
        "own"
      ],
      [
        "way",
        "s"
      ],
      [
        "nd",
        "er"
      ],
      [
        "n",
        "a"
      ],
      [
        "Ġb",
        "all"
      ],
      [
        "Ġal",
        "ways"
      ],
      [
        "is",
        "t"
      ],
      [
        "ou",
        "r"
      ],
      [
        "Ġa",
        "b"
      ],
      [
        "Ġt",
        "a"
      ],
      [
        "The",
        "y"
      ],
      [
        "m",
        "a"
      ],
      [
        "Ġg",
        "ra"
      ],
      [
        "Ġo",
        "ld"
      ],
      [
        "n",
        "ed"
      ],
      [
        "ĠS",
        "am"
      ],
      [
        "a",
        "ve"
      ],
      [
        "Ġin",
        "t"
      ],
      [
        "en",
        "ed"
      ],
      [
        "Ġkn",
        "e"
      ],
      [
        "Ġm",
        "ore"
      ],
      [
        "Ġab",
        "out"
      ],
      [
        "Ġd",
        "ad"
      ],
      [
        "udd",
        "en"
      ],
      [
        "Ġm",
        "y"
      ],
      [
        "Ġla",
        "ug"
      ],
      [
        "er",
        "s"
      ],
      [
        "Ġl",
        "ot"
      ],
      [
        "Ġtoo",
        "k"
      ],
      [
        "udden",
        "ly"
      ],
      [
        "Ġkn",
        "ow"
      ],
      [
        "Ġdid",
        "n"
      ],
      [
        "re",
        "t"
      ],
      [
        "Ġle",
        "ar"
      ],
      [
        "Ġkne",
        "w"
      ],
      [
        "q",
        "u"
      ],
      [
        "an",
        "t"
      ],
      [
        "n",
        "na"
      ],
      [
        "Ġp",
        "e"
      ],
      [
        "Ġout",
        "side"
      ],
      [
        "ec",
        "i"
      ],
      [
        "c",
        "hed"
      ],
      [
        "Ġth",
        "ought"
      ],
      [
        "Ġcl",
        "o"
      ],
      [
        "g",
        "ed"
      ],
      [
        "es",
        "s"
      ],
      [
        "Ġh",
        "o"
      ],
      [
        "it",
        "e"
      ],
      [
        "Ġloo",
        "k"
      ],
      [
        "ĠW",
        "e"
      ],
      [
        "Ġo",
        "p"
      ],
      [
        "Ġt",
        "r"
      ],
      [
        "Ġs",
        "or"
      ],
      [
        "Ġs",
        "un"
      ],
      [
        "Ġr",
        "a"
      ],
      [
        "Ġmom",
        "my"
      ],
      [
        "ĠM",
        "ax"
      ],
      [
        "Ġsp",
        "eci"
      ],
      [
        "Ġspeci",
        "al"
      ],
      [
        "Ġt",
        "ake"
      ],
      [
        "Ġh",
        "ow"
      ],
      [
        "B",
        "ut"
      ],
      [
        "f",
        "ter"
      ],
      [
        "Ġc",
        "om"
      ],
      [
        "an",
        "g"
      ],
      [
        "Ġh",
        "ouse"
      ],
      [
        "i",
        "ve"
      ],
      [
        "Ġan",
        "y"
      ],
      [
        "Ġt",
        "w"
      ],
      [
        "Ġtoy",
        "s"
      ],
      [
        "Ġr",
        "un"
      ],
      [
        "i",
        "a"
      ],
      [
        "Ġhe",
        "ard"
      ],
      [
        "Ġc",
        "at"
      ],
      [
        "Ġsh",
        "ow"
      ],
      [
        "Ġex",
        "pl"
      ],
      [
        "ĠE",
        "very"
      ],
      [
        "a",
        "u"
      ],
      [
        "Ġin",
        "side"
      ],
      [
        "Ġcould",
        "n"
      ],
      [
        "Ġm",
        "o"
      ],
      [
        "Ġint",
        "o"
      ],
      [
        "Ġsor",
        "ry"
      ],
      [
        "Ġth",
        "is"
      ],
      [
        "at",
        "e"
      ],
      [
        "Ġp",
        "ick"
      ],
      [
        "Ġpr",
        "oud"
      ],
      [
        "Ġt",
        "ry"
      ],
      [
        "Ġwa",
        "ter"
      ],
      [
        "v",
        "en"
      ],
      [
        "ar",
        "a"
      ],
      [
        "Ġha",
        "nd"
      ],
      [
        "in",
        "k"
      ],
      [
        "Ġmu",
        "ch"
      ],
      [
        "Ġo",
        "ver"
      ],
      [
        "an",
        "k"
      ],
      [
        "a",
        "re"
      ],
      [
        "Ġt",
        "ried"
      ],
      [
        "Ġs",
        "n"
      ],
      [
        "Ġo",
        "r"
      ],
      [
        "Ġ",
        "if"
      ],
      [
        "Ġs",
        "k"
      ],
      [
        "Ġf",
        "i"
      ],
      [
        "a",
        "p"
      ],
      [
        "s",
        "ed"
      ],
      [
        "Ġplay",
        "ed"
      ],
      [
        "au",
        "se"
      ],
      [
        "b",
        "y"
      ],
      [
        "is",
        "h"
      ],
      [
        "Ġof",
        "f"
      ],
      [
        "i",
        "on"
      ],
      [
        "Ġst",
        "r"
      ],
      [
        "Ġbec",
        "ause"
      ],
      [
        "u",
        "c"
      ],
      [
        "Ġp",
        "ret"
      ],
      [
        "he",
        "re"
      ],
      [
        "Ġg",
        "ave"
      ],
      [
        "Ġ",
        "en"
      ],
      [
        "Ġro",
        "om"
      ],
      [
        "Ġfl",
        "ow"
      ],
      [
        "Ġb",
        "ot"
      ],
      [
        "Ġhug",
        "ged"
      ],
      [
        "T",
        "om"
      ],
      [
        "in",
        "e"
      ],
      [
        "Ġg",
        "re"
      ],
      [
        "Ġj",
        "ust"
      ],
      [
        "im",
        "al"
      ],
      [
        "Ġan",
        "imal"
      ],
      [
        "Ġu",
        "nt"
      ],
      [
        "p",
        "t"
      ],
      [
        "b",
        "er"
      ],
      [
        "d",
        "y"
      ],
      [
        "ĠJ",
        "ack"
      ],
      [
        "Ġunt",
        "il"
      ],
      [
        "l",
        "f"
      ],
      [
        "v",
        "ing"
      ],
      [
        "Ġe",
        "at"
      ],
      [
        "Ġsm",
        "all"
      ],
      [
        "Ġb",
        "u"
      ],
      [
        "et",
        "ter"
      ],
      [
        "Ġe",
        "ach"
      ],
      [
        "a",
        "k"
      ],
      [
        "Ġman",
        "y"
      ],
      [
[...]
